{"\u0434": 18, "\"": 71, "\u0456": 110, "\u041f": 46, "D": 140, "\u0441": 11, "f": 123, "/": 118, "\u0463": 115, "\u042c": 129, "\u044e": 37, "s": 98, "\u0417": 72, "<": 27, "\u0439": 33, "'": 131, "\u0424": 87, "I": 102, "\u0446": 39, "k": 132, "4": 92, "\u0431": 31, "V": 125, "x": 144, "\u041c": 56, "A": 130, "\u043e": 5, "c": 106, ",": 21, "N": 142, "\u0429": 149, "\u044b": 23, "p": 91, "\u0414": 58, "9": 85, "\u201c": 121, "\u0436": 34, "[": 112, "\u0421": 47, "F": 152, "\u0301": 159, "\u0443": 19, "h": 107, "1": 68, "\u2014": 42, "\u042e": 114, "S": 126, "u": 104, ">": 26, "\u0419": 120, "\u043b": 12, ")": 73, "\u0426": 108, "K": 162, "\u0448": 36, "m": 109, "\u0411": 60, "6": 100, "\u0433": 28, "\u2019": 160, "X": 122, "!": 52, "z": 157, "\u041e": 48, "C": 135, "\u2026": 62, "\u0440": 13, "e": 80, ".": 29, "\u042b": 133, "P": 139, "\u044d": 43, "r": 95, ";": 84, "\u0416": 99, "\u201e": 146, "\u0438": 8, "]": 111, "\u0401": 167, "\u0423": 77, "H": 119, "\u0445": 35, "j": 166, "3": 88, "\u0430": 7, "U": 163, "w": 127, "\u041b": 69, "\u043d": 9, "b": 124, "\u00bb": 64, "+": 165, "\u0428": 97, "M": 134, "\u044a": 78, "o": 89, "\u0413": 67, "8": 94, "\u0435": 6, "#": 168, "|": 15, "\u0420": 65, "E": 143, "\u0442": 10, "g": 117, "0": 79, "\u2013": 49, "\u042d": 75, "R": 147, "\u00ab": 63, "\u044f": 22, "t": 93, "\u0418": 55, "=": 158, "\u043a": 16, "_": 136, "(": 76, "\u0425": 82, "J": 164, "\u2581": 4, "\u0447": 32, "l": 103, "\u2116": 150, "\u0410": 54, "5": 90, "\u0432": 14, "W": 156, "y": 116, "\u041d": 45, "B": 141, "\u043f": 20, "d": 105, "-": 40, "O": 154, "\u044c": 24, "q": 161, "\u0415": 70, ":": 59, "\u201d": 137, "\u0437": 30, "%": 155, "\u0422": 57, "G": 153, "\u00a0": 38, "\u0444": 53, "i": 83, "2": 81, "\u042f": 61, "T": 138, "\u00ad": 148, "\u0451": 66, "v": 128, "\u041a": 50, "?": 51, "\u043c": 17, "\u2022": 151, "a": 86, "*": 96, "\u045e": 113, "\u0427": 74, "L": 145, "n": 25, "\u0449": 41, "\u0412": 44, "7": 101, "\u2581<": 169, "n|": 170, "\u2581<|": 171, "n|>": 172, "\u2581<|n|>": 173, "\u2581\u043f": 174, "\u2581\u0441": 175, "\u2581\u043d": 176, "\u2581\u0432": 177, "\u0442\u043e": 178, "\u2581\u043e": 179, "\u2581\u0438": 180, "\u043d\u043e": 181, "\u043a\u043e": 182, "\u0440\u0430": 183, "\u0441\u0442": 184, "\u0440\u043e": 185, "\u0435\u043d": 186, "\u0430\u043b": 187, "\u2581\u043f\u043e": 188, "\u0433\u043e": 189, "\u043a\u0430": 190, "\u2581\u0434": 191, "\u2581\u043c": 192, "\u0440\u0435": 193, "\u043b\u0438": 194, "\u2581\u0431": 195, "\u2581\u043d\u0435": 196, "\u2581\u043d\u0430": 197, "\u0435\u0442": 198, "\u043b\u043e": 199, "\u0440\u0438": 200, "\u2581\u0442": 201, "\u0442\u044c": 202, "\u043b\u0430": 203, "\u043d\u0438": 204, "\u2581\u0437": 205, "\u2581\u0447": 206, "\u0432\u043e": 207, "\u043d\u0430": 208, "\u0441\u044f": 209, "\u2581\u0443": 210, "\u0432\u0430": 211, "\u0435\u0440": 212, "\u043d\u044b": 213, "\u043b\u044c": 214, "\u043a\u0438": 215, "\u0435\u043c": 216, "\u0434\u0430": 217, "\u2581\u0437\u0430": 218, "\u2581\u043a": 219, "\u043b\u0435": 220, "\u0441\u044c": 221, "\u2581\u043a\u043e": 222, "\u0440\u0443": 223, "\u2581\u0442\u043e": 224, "\u0442\u0435": 225, "\u2581\u0435": 226, "\u043c\u0438": 227, "\u0434\u0438": 228, "\u0432\u0438": 229, "\u0442\u0438": 230, "\u2581\u0447\u0442\u043e": 231, "\u043d\u0443": 232, "\u2581\u043a\u0430": 233, "\u043d\u0435": 234, "\u0442\u0430": 235, "\u2581\u0440\u0430": 236, "\u2581\u0412": 237, "\u0435\u043d\u0438": 238, "\u0436\u0435": 239, "\u2581\u0431\u044b": 240, "\u2581\u041d": 241, "\u0434\u0435": 242, "\u0434\u043e": 243, "\u0445\u043e": 244, "\u2581\u041f": 245, "\u2581\u044d": 246, "\u2581\u2014": 247, "\u2581\u043f\u0440\u043e": 248, "\u2581\u043e\u0442": 249, "\u2581\u0432\u043e": 250, "\u2581\u0441\u043e": 251, "\u043c\u043e": 252, "\u0432\u0435": 253, "\u2581\u0433": 254, "\u2581\u0421": 255, "\u043b\u044f": 256, "\u2581\u043f\u0440\u0438": 257, "\u2581\u0434\u043e": 258, "\u0441\u0435": 259, "\u2581\u043c\u043e": 260, "\u2581\u044f": 261, "\u0447\u0438": 262, "\u043c\u0430": 263, "\u2581\u041e": 264, "\u0436\u0438": 265, "\u2581\u0432\u044b": 266, "\u0448\u0438": 267, "\u2581\u0430": 268, "\u2581\u041a": 269, "\u2581\u0433\u043e": 270, "\u043f\u043e": 271, "\u0440\u044b": 272, "\u0431\u043e": 273, "\u0448\u0435": 274, "\u043a\u0443": 275, "\u2581\u0442\u0430": 276, "\u2581-": 277, "\u2581\u041c": 278, "\u0447\u0435": 279, "\u2581\u044d\u0442\u043e": 280, "\u0430\u043b\u0438": 281, "\u2581\u0418": 282, "\u043b\u0443": 283, "\u2581\u043e\u0431": 284, "\u2581\u0410": 285, "\u0435\u0440\u0435": 286, "\u0434\u0443": 287, "\u2581\u0422": 288, "\u2581\u043d\u0438": 289, "\u2581\u0438\u0437": 290, "\u0441\u0442\u0438": 291, "\u2581\u0414": 292, "\u0441\u0442\u043e": 293, "\u2581\u043d\u043e": 294, "\u0447\u0430": 295, "\u0441\u0442\u0430": 296, "\u0430\u043b\u0430": 297, "\u0441\u0438": 298, "\u043c\u0435": 299, "\u0437\u0430": 300, "\u2581\u043e\u043d": 301, "\u043d\u043e\u0439": 302, "\u0449\u0435": 303, "\u0441\u0442\u044c": 304, "\u043b\u044e": 305, "\u2581\u043a\u0430\u043a": 306, "\u2581\u2013": 307, "\u2581\u0432\u0441\u0435": 308, "\u0441\u043a\u043e": 309, "\u043c\u0443": 310, "\u043d\u044f": 311, "\u0441\u043e": 312, "\u0435,": 313, "\u0433\u0430": 314, "\u00a0\u2014": 315, "\u2581\u0440\u0430\u0437": 316, "\u2581\u2014\u00a0": 317, "\u2581\u0431\u043e": 318, "\u0432\u044b": 319, "\u2581\u0441\u0442": 320, "\u043c,": 321, "\u0449\u0438": 322, "\u0439,": 323, "\u0440\u044f": 324, "\u2581\u0442\u0435": 325, "\u2581\u0435\u0433\u043e": 326, "\u2581\u043f\u043e\u0434": 327, "\u2581\u041f\u043e": 328, "\u0433\u0434\u0430": 329, "\u0432\u0435\u0440": 330, "\u043b\u0441\u044f": 331, "\u043d\u043e\u0433\u043e": 332, "\u2581\u0434\u0435": 333, "\u0433\u0438": 334, "\u043d\u044b\u0439": 335, "\u2581\u0441\u0432\u043e": 336, "\u2581\u0411": 337, "\u043f\u0438": 338, "\u0430\u043b\u044c": 339, "\u043f\u0430": 340, "\u0442\u0435\u043b\u044c": 341, "\u2581\u0441\u0435": 342, "\u0441\u043a\u0438": 343, "\u2581\u043f\u0440\u0435": 344, "\u2581\u042f": 345, "\u2581\u0436\u0435": 346, "\u2581\u00ab": 347, "\u2581\u043b\u0438": 348, "\u2581\u0445\u043e": 349, "\u043a\u0430\u0437": 350, "\u2581\u0432\u0435": 351, "\u0435\u043d\u044c": 352, "\u0441\u0430": 353, "\u0442\u044b": 354, "\u0446\u0438": 355, "\u0432\u0443": 356, "\u2581\u0431\u0435": 357, "\u0431\u0438": 358, "\u0448\u0430": 359, "\u0431\u0435": 360, "\u2581\u0441\u0430": 361, "\u0430\u043b\u043e": 362, "\u043d\u044b\u0435": 363, "\u0435\u043d\u043d\u043e": 364, "\u0431\u044b": 365, "\u043b\u044b": 366, "\u0436\u0430": 367, "\u2581\u0413": 368, "\u043b\u044c\u043a\u043e": 369, "\u044f,": 370, "\u0442\u044c\u0441\u044f": 371, "\u2581\u0434\u0430": 372, "\u2581\u0440\u0435": 373, "\u0435\u0442\u0441\u044f": 374, "\u2581\u043a\u043e\u0442\u043e": 375, "\u0442\u0443": 376, "\u0446\u0430": 377, "\u043d\u044b\u0445": 378, "\u044e\u0442": 379, "\u2581\u0431\u0443": 380, "\u2581\u043c\u0435": 381, "\u0448\u044c": 382, "\u0434\u044b": 383, "\u0446\u0435": 384, "\u2581\u0420": 385, "\u2581\u0444": 386, "\u043c.": 387, "\u0435\u043c\u0443": 388, "\u2581\u043f\u0435\u0440\u0435": 389, "\u2581\u043c\u0430": 390, "\u2581\u0442\u0430\u043a": 391, "\u0432\u0435\u0442": 392, "\u2581\u0441\u0442\u043e": 393, "\u043a\u043e\u0439": 394, "\u2581\u0417": 395, "\u2581\u041b": 396, "\u2581\u0440\u0443": 397, "\u2581\u0432\u0430": 398, "\u0435\u043d\u0438\u044f": 399, "\u25811": 400, "\u2581\u041d\u0430": 401, "\u2581\u0432\u0438": 402, "\u0436\u043d\u043e": 403, "\u2581\u0436\u0438": 404, "\u043f\u0435": 405, "\u2581\u0441\u0438": 406, "\u0432\u0430\u043b": 407, "\u2581\u043c\u0438": 408, "\u0442\u044c,": 409, "\u0441\u0442\u0432\u043e": 410, "\u0435.": 411, "\u2581\u042d": 412, "\u0435\u0439": 413, "\u2581\u0427": 414, "\u2581\u043b\u044e": 415, "\u2581\u043c\u0435\u043d": 416, "\u043c\u044b": 417, "\u2581\u0431\u044b\u043b\u043e": 418, "\u2581\u0440\u0430\u0441": 419, "\u0434\u044c": 420, "\u2581\u041d\u043e": 421, "\u2581\u0441\u0442\u0430": 422, "\u0431\u0430": 423, "\u2581\u043f\u0430": 424, "\u2581(": 425, "\u0433\u0443": 426, "\u2581\u0434\u0440\u0443": 427, "\u2581\u043f\u043e\u0441": 428, "\u2581\u0436": 429, "\u0437\u043e": 430, "\u2581\u0447\u0435": 431, "\u0442,": 432, "\u2581\u0445": 433, "\u0441\u043b\u0438": 434, "\u00a0\u2013": 435, "\u2581\u043e\u043d\u0430": 436, "\u2581\u043c\u044b": 437, "\u043f\u0440\u043e": 438, "\u0434\u0435\u0442": 439, "\u2581\u0415": 440, "\u0440\u0435\u043c": 441, "\u2581\u041a\u0430": 442, "\u0437\u0438": 443, "..": 444, "\u2581\u2013\u00a0": 445, "\u2581\u0442\u044b": 446, "\u043d\u043e,": 447, "\u2581\u041d\u0435": 448, "\u2581\u0437\u043d\u0430": 449, "\u2581\u0423": 450, "\u0435\u043d\u0438\u0435": 451, "\u043d\u0430\u044f": 452, "\u2581\u0441\u0443": 453, "\u0441\u044c,": 454, "\u2581\u041e\u043d": 455, "\u043f\u0443": 456, "\u2581\u041a\u043e": 457, "\u0439.": 458, "\u043b\u0435\u0442": 459, "\u043d\u044b\u043c": 460, "\u2581\u043c\u0435\u043d\u044f": 461, "\u0432,": 462, "\u044e,": 463, "\u2581\u0432\u0441": 464, "\u2581\u043b\u0435": 465, "\u0431\u0443": 466, "\u2581\u043c\u043d\u0435": 467, "\u2581\u0440\u043e": 468, "\u2581\u043e\u0434": 469, "\u0441\u0442\u0432": 470, "\u2581\u0434\u0443": 471, "\u2581\u0448": 472, "\u043b\u0435\u043d": 473, "\u0431\u044f": 474, "\u2581\u0432\u043e\u0437": 475, "\u2581\u0438\u0441": 476, "\u0445\u043e\u0434\u0438": 477, "\u0432\u0448\u0438": 478, "\u0445,": 479, "\u0432\u0430\u0442\u044c": 480, "\u2581\u043a\u0443": 481, "\u043d\u044c": 482, "\u043b\u043e\u0432\u0435": 483, "\u2581\u0412\u043e": 484, "\u2581\u0442\u043e\u043b\u044c\u043a\u043e": 485, "\u2581\u0431\u044b\u043b": 486, "\u0445\u0430": 487, "\u0432\u043d\u043e": 488, "\u2581\u0441\u043a\u0430\u0437": 489, "\u2581\u0434\u043b\u044f": 490, "\u0441\u0443": 491, "\u043a\u0435": 492, "\u043a,": 493, "\u0442\u0441\u044f": 494, "\u2581\u0432\u0437": 495, "\u043d\u043e\u0432": 496, "\u043b,": 497, "\u043f\u0440\u0430": 498, "\u043e\u0431": 499, "\u2581\u0431\u043e\u043b\u044c": 500, "\u0447\u043d\u043e": 501, "\u043b\u0430\u0441\u044c": 502, "\u2581\u0414\u0430": 503, "\u2581\u0435\u0435": 504, "\u0432\u043e\u0440\u0438": 505, "\u2581\u043a\u043e\u0442\u043e\u0440\u044b": 506, "\u2581\u043f\u0443": 507, "\u0449\u0430": 508, "\u2581\u0435\u0449\u0435": 509, "\u043c\u0435\u043d": 510, "\u2581\u0433\u043b\u0430": 511, "\u0434\u044f": 512, "\u2581\u043e\u043d\u0438": 513, "\u043d\u0443\u043b": 514, "\u2581\u0447\u0430": 515, "\u0441\u043a\u0430": 516, "\u2581\u0425": 517, "\u2581\u043a\u043e\u0433\u0434\u0430": 518, "\u0440\u043e\u0432": 519, "\u0436\u0435\u0442": 520, "\u2581\u0441\u043b\u043e": 521, "\u2581\u0443\u0436\u0435": 522, "\u0437\u044b": 523, "\u2581\u0432\u0440\u0435\u043c": 524, "\u2581\u0433\u043e\u043b\u043e": 525, "\u2581\u0438\u0445": 526, "\u043d\u0443\u044e": 527, "\u2581\u0442\u0443": 528, "\u2581\u043f\u0440\u0435\u0434": 529, "\u043c\u0435\u0440": 530, "\u043b\u0438\u0441\u044c": 531, "...": 532, "\u043c\u0438,": 533, "\u043c\u043e\u0442": 534, "\u2581\"": 535, "\u043a\u0440\u044b": 536, "\u2581\u041c\u0430": 537, "\u0442\u0435\u043b\u044c\u043d\u043e": 538, "\u2581\u0422\u0430": 539, "\u2581\u0447\u0435\u043b\u043e\u0432\u0435": 540, "\u0442\u044f": 541, "\u0440\u0430\u043d": 542, "\u0437\u0443": 543, "\u043a\u043e\u043c": 544, "\u2581\u0438\u043b\u0438": 545, "\u043a\u043e\u0432": 546, "\u0432\u0430\u043b\u0438": 547, "\u2581\u0417\u0430": 548, "\u0442\u043e\u043c": 549, "\u2581\u043f\u0440\u0430": 550, "\u2581\u043f\u0438": 551, "\u0430\u043b\u0441\u044f": 552, "\u0440\u043e\u043c": 553, "\u0442.": 554, "\u2581\u0447\u0443": 555, "\u043a\u0430,": 556, "\u043d\u0438\u044f": 557, "\u043f\u0435\u0440": 558, "\u0441\u0442\u0443": 559, "\u0432\u044f": 560, "\u2581\u043c\u0443": 561, "\u2581\u0441\u043b\u0443": 562, "\u2581\u0447\u0442\u043e\u0431\u044b": 563, "\u2581\u041c\u043e": 564, "\u0437\u043d\u0430": 565, "\u043d\u0438\u0435": 566, "\u2581\u043a\u043e\u043d": 567, "\u0432\u043b\u044f": 568, "\u044e\u0449\u0438": 569, "\u2581\u0422\u043e": 570, "\u0442\u044c.": 571, "\u0432\u0430\u044f": 572, "\u043d\u0438\u043c\u0430": 573, "\u2581\u0434\u043e\u043b": 574, "\u2581\u042d\u0442\u043e": 575, "\u043e\u043d": 576, "\u0433\u043e,": 577, "\u0434\u0438\u043d": 578, "\u0441\u0442\u0432\u0430": 579, "\u0441\u044b": 580, "\u043a\u0438,": 581, "\u043a.": 582, "\u0433\u043b\u044f": 583, "\u0441\u0442\u0435": 584, "\u0434\u0435\u043b": 585, "\u2581\u0435\u043c\u0443": 586, "\u0432\u043e\u0439": 587, "\u2581\u0441\u0430\u043c\u043e": 588, "\u0447\u0443": 589, "\u0435\u043d\u0430": 590, "\u043d\u043e\u0435": 591, ",\u00a0\u2014": 592, "\u2581\u0438\u043c": 593, "\u2581\u0431\u0430": 594, "\u043e\u0440": 595, "\u2581\u0424": 596, "\u043f\u044b": 597, "\u2581\u0441\u043a\u0430\u0437\u0430\u043b": 598, "\u0441\u043f\u043e": 599, "\u043b\u043e\u0441\u044c": 600, "\u0447\u044c": 601, "\u0433\u0440\u0430": 602, "\u043d\u043e\u043c": 603, "\u0447\u0435\u0441\u043a\u0438": 604, "\u0441\u0442\u0432\u0438": 605, "\u043c\u0438.": 606, "\u2581\u043f\u043e\u0441\u043b\u0435": 607, "\u2581\u043d\u0430\u0441": 608, "\u0436\u0435\u043d": 609, "\u2581\u043a\u0440\u0430": 610, "\u2581\u043f\u0435\u0440": 611, "\u2581\u0441\u0432\u043e\u0438": 612, "\u2581\u043e\u0441\u0442\u0430": 613, "\u25812": 614, "\u2581\u0431\u0435\u0437": 615, "\u0441\u0442\u0440\u043e": 616, "\u2581\u0436\u0438\u0437": 617, "\u2581\u0433\u043e\u0432\u043e\u0440\u0438": 618, "\u2581\u0435\u0441\u043b\u0438": 619, "\u0435\u043c,": 620, "\u2581\u0427\u0442\u043e": 621, "\u0448\u043e": 622, "\u2581\u0441\u043b\u0435": 623, "\u2581\u0432\u0435\u0440": 624, "\u0435\u0442,": 625, "\u044e.": 626, "\u0441\u0442\u0432\u0435\u043d": 627, "\u0443,": 628, "\u2581\u0438\u043d": 629, "\u0446\u044b": 630, "\u2581\u043f\u0435": 631, "\u043a\u0430.": 632, "\u043a\u0442\u043e": 633, "\u2581\u0447\u0435\u043c": 634, "\u2581\u043e\u0431\u0440\u0430": 635, "\u2581\u043f\u043b\u0430": 636, "\u2581\u044d\u0442\u0438": 637, "\u0445\u0438": 638, "\u0441\u0442\u043e\u044f": 639, "\u2581\u0431\u044b\u043b\u0430": 640, "\u0441\u043a\u043e\u0439": 641, "\u2581\u043b\u043e": 642, "\u2581\u0434\u0430\u0436\u0435": 643, "\u0447\u0435\u043d\u044c": 644, "\u043c\u0435\u0442": 645, "\u0448\u0435\u043b": 646, "\u2581\u0441\u0442\u0440\u0430": 647, "\u0445.": 648, "\u00bb.": 649, "\u2581\u043d\u0435\u0433\u043e": 650, "\u0430\u043d": 651, "\u0436\u0434": 652, "\u0446\u0438\u0438": 653, "\u2581\u043c\u043e\u0436\u0435\u0442": 654, "\u0441\u043d\u043e": 655, "\u0441\u043a": 656, "\u0446\u043e": 657, "\u0440\u0443\u0433": 658, "\u0436\u0430\u043b": 659, "\u2581\u0411\u043e": 660, "\u2581\u0412\u044b": 661, "\u0441\u0442\u044b": 662, "\u2581\u043b\u0430": 663, "\u2581\u0420\u0430": 664, "\u2581\u043f\u043e\u043b": 665, "\u2581\u0443\u0441": 666, "\u043a\u0430\u0437\u0430": 667, ".\u00a0\u2014": 668, "\u0433\u043b\u0430": 669, "\u2581\u0440\u0430\u0431\u043e": 670, "\u0438\u0437": 671, "\u044f\u0442": 672, "\u0441\u0442\u0440\u0435": 673, "\u043d\u044b\u043c\u0438": 674, "\u043d\u0438\u043a": 675, "\u2581\u0433\u0434\u0435": 676, "\u0444\u0438": 677, "\u0434\u043d\u043e": 678, "\u0442\u043e\u043c\u0443": 679, "\u0432\u0430\u0435\u0442": 680, "\u0432\u0430\u043b\u0430": 681, "\u0447\u0435\u0433\u043e": 682, "\u0432\u0430\u043d": 683, "\u0430\u043b,": 684, "\u2581\u0435\u0441\u0442\u044c": 685, "\u0431\u0440\u0430": 686, "\u2581\u043f\u043e\u0447": 687, "\u2581\u041d\u0438": 688, "\u0432.": 689, "\u043a\u0440\u0430": 690, "\u2581\u0431\u044b\u043b\u0438": 691, "\u0440\u044c": 692, "\u043f\u0435\u0440\u044c": 693, "\u2581\u043f\u043e\u043b\u0443": 694, "\u2581\u0433\u043b\u0430\u0437\u0430": 695, "\u2581\u043a\u043e\u043c": 696, "\u0448\u0443": 697, "\u2581\u0441\u043a\u043e": 698, "\u043d\u0430,": 699, "\u0441\u0442\u0432\u0443": 700, "\u2581\u0431\u0443\u0434\u0435\u0442": 701, "\u2581\u043b\u0443": 702, "\u043a\u0438.": 703, "\u0435\u0448\u044c": 704, "\u043a\u0438\u0435": 705, "\u2581\u0441\u0435\u0431\u044f": 706, "\u044f.": 707, "\u2581\u0446": 708, "\u0441\u043a\u043e\u0433\u043e": 709, "\u2581\u041a\u0430\u043a": 710, "\u0430\u043b\u0435": 711, "\u2581\u041e\u043d\u0430": 712, "\u2581\u043e\u0447\u0435\u043d\u044c": 713, "\u2581\u0421\u043e": 714, "\u0434\u0435\u043b\u0430": 715, "\u0434\u0435\u0440": 716, "\u043d\u0443\u043b\u0441\u044f": 717, "\u2581\u0442\u0435\u043c": 718, "\u043d\u0435\u0439": 719, "\u044f\u0442\u044c": 720, "\u2581\u0422\u044b": 721, "\u2581\u041f\u0440\u0438": 722, "\u0432\u043e\u0440": 723, "\u0441\u043b\u0435": 724, "\u0440\u043e\u0439": 725, "\u2581\u043d\u0430\u0447": 726, "\u043b\u0438,": 727, "\u0430\u043b\u043e\u0441\u044c": 728, "\u0442\u0435\u0440": 729, "\u2581\u043a\u0430\u0436": 730, "\u043f\u043e\u043b": 731, "\u2581\u043a\u0442\u043e": 732, "\u0432\u043b": 733, "\u043f\u0440\u043e\u0441\u0438": 734, "\u2581\u041f\u0440\u043e": 735, "\u043c\u0430\u043d": 736, "\u043b.": 737, "\u2581\u043d\u0443": 738, "\u2581\u0428": 739, "\u043a\u0443,": 740, "\u2581\u0413\u043e": 741, "\u0436\u0443": 742, "\u2581\u0442\u0440\u0435": 743, "\u0442\u0440\u0430": 744, "\u044e\u0442\u0441\u044f": 745, "\u0435\u0433\u043e": 746, ").": 747, "\u043a\u043e\u0433\u043e": 748, "\u2581\u0432\u0440\u0435\u043c\u044f": 749, "\u2581\u0447\u0438": 750, "\u2581\u043a\u0438": 751, "\u043b\u0430,": 752, "\u2581*": 753, "\u2581\u043b\u0435\u0442": 754, "\u0435\u0437": 755, "\u2581\u043f\u043e\u0434\u043e": 756, "\u2581\u0414\u043e": 757, "\u043a\u0430\u044f": 758, "\u2581\u041c\u0438": 759, "\u0441\u0441\u0438": 760, "\u043d\u0435\u0442": 761, "\u043c\u043e\u0442\u0440\u0435": 762, "\u043d\u0430.": 763, "\u2581\u044d\u0442\u043e\u0433\u043e": 764, "\u2581\u0441\u043f\u043e": 765, "\u2581\u0416": 766, "\u2581\u0432\u043e\u0442": 767, "\u2581\u0412\u0430": 768, "\u0434\u0430,": 769, "\u043f\u0440\u0438": 770, "\u043f\u0440\u0435": 771, "\u0440\u043e\u0434": 772, "\u2581\u0412\u0441\u0435": 773, "\u0447\u0430\u0441": 774, "\u2581\u0441\u0435\u0440": 775, "\u2581\u043f\u043e\u043b\u043e": 776, "\u0435\u043d\u0438\u0438": 777, "\u0434\u043e\u043c": 778, "\u2581\u0442\u0440\u0443": 779, "\u2581\u0441\u043a": 780, "\u043d\u043e\u0432\u0438": 781, "\u043d,": 782, "\u043a\u0438\u0445": 783, "\u043a\u043e\u0435": 784, "\u2581\u0441\u0442\u043e\u0440\u043e": 785, "\u2581\u0447\u0435\u0440": 786, "\u0430\u043b\u0438\u0441\u044c": 787, "\u043d\u0434": 788, "\u2581\u0431\u043e\u043b\u044c\u0448\u0435": 789, "\u2581\u043d\u0430\u0434": 790, "\u2581\u0446\u0435": 791, "\u0432\u044b\u0439": 792, "\u2581\u0440\u0430\u0441\u0441": 793, "\u0435\u0440\u0435\u0437": 794, "\u2581\u0434\u0435\u043b\u0430": 795, "\u258119": 796, "\u2581\u041c\u044b": 797, "\u2581\u0434\u0440\u0443\u0433\u043e": 798, "\u2581\u043e\u0442\u0432\u0435\u0442": 799, "\u2581\u043f\u0440\u043e\u0441\u0442\u043e": 800, "\u2581\u043c\u043e\u0433": 801, "\u2581\u0448\u0430": 802, "\u2581\u0434\u0438": 803, "\u2581\u0434\u0435\u043d\u044c": 804, "\u0432\u0442\u043e": 805, "\u043d\u043e\u0432\u0430": 806, "\u0439\u0442\u0435": 807, "\u00bb,": 808, "\u0434\u043d\u0438": 809, "\u2581\u0436\u0435\u043d": 810, "\u043a\u0443.": 811, "\u2581\u0432\u0430\u0441": 812, "\u043a\u0438\u0439": 813, "\u0434\u0446\u0430": 814, "\u043b\u0435\u043a": 815, "\u2581\u041e\u0442": 816, "\u2581\u0442\u0435\u0431\u044f": 817, "\u0441\u0442\u0430\u0432\u0438": 818, "\u0430\u0440": 819, "\u0447\u0435\u043d": 820, "\u2581\u0412\u0435": 821, "\u0441\u043a\u0438\u0439": 822, "\u2581\u0445\u043e\u0440\u043e": 823, "\u043d.": 824, "\u043d\u043d\u043e": 825, "\u2581\u0425\u043e": 826, "\u043a\u0443\u044e": 827, "\u2581\u0441\u0432\u0435\u0442": 828, "\u0438\u043b": 829, "\u2581\u0441\u0435\u0431\u0435": 830, "\u2581\u0433\u0440\u0443": 831, "\u0442\u0438\u0432": 832, "\u2581\u043c\u043e\u0436\u043d\u043e": 833, "\u2581\u043d\u0430\u0434\u043e": 834, "\u2581\u043f\u043e\u043c\u043e": 835, "\u0431\u043e\u0439": 836, "\u043a\u0430\u0437\u044b": 837, "\u0449\u0443": 838, "\u2581\u044d\u0442\u043e\u0442": 839, "\u0442\u043e\u0432": 840, "\u043d\u0443\u043b\u0430": 841, "\u2581\u0442\u0438": 842, "\u0442\u0440\u0438": 843, "\u0440\u0435\u043d": 844, "\u0448\u043a\u0430": 845, "\u0448\u0435\u0439": 846, "\u2581\u043e\u0434\u0438\u043d": 847, "\u043d\u0438\u0438": 848, "\u2581\u043e\u043a": 849, "\u044e\u0449\u0435": 850, "\u0434\u0435\u0441\u044c": 851, "\u0441\u043e\u0431": 852, "\u2581\u0431\u043e\u043b\u0435": 853, "\u2581\u0420\u043e": 854, "\u2581\u0437\u0435\u043c": 855, "\u0430\u043b\u0430\u0441\u044c": 856, "\u0432\u044b\u0435": 857, "\u043a\u0438\u043c": 858, "\u2581\u043d\u0438\u0447\u0435\u0433\u043e": 859, "\u2581\u0442\u0435\u043f\u0435\u0440\u044c": 860, "\u2581\u0421\u0430": 861, "\u0437\u044f": 862, "\u2581\u044d\u0442\u043e\u043c": 863, "\u2581\u0412\u043e\u0442": 864, "\u0432\u0440\u0430": 865, "\u2581\u0434\u0432\u0430": 866, "\u0441\u043a\u043e\u043b\u044c\u043a\u043e": 867, "\u25813": 868, "\u2581\u0431\u044b\u0442\u044c": 869, "\u2581\u0444\u0438": 870, "\u2581\u0441\u043f\u0440\u043e\u0441\u0438": 871, "\u2581\u0442\u043e,": 872, "\u2581\u0448\u0435": 873, "\u0440\u0442\u0438": 874, "\u043d\u044b,": 875, "\u2581\u0442\u0443\u0442": 876, "\u2581\u043d\u0435\u043c": 877, "\u2581\u0442\u0430\u043c": 878, "\u2581\u00a0": 879, "\u0441\u0435\u043c": 880, "\u0448\u0435\u0433\u043e": 881, "\u2581\u0415\u0441\u043b\u0438": 882, "\u0436\u0434\u0430": 883, "\u2581\u043f\u0435\u0440\u0435\u0434": 884, "\u2581\u043a\u0440\u043e": 885, "\u0432\u043e\u043b\u044c": 886, "\u2581\u043f\u043e\u043d\u044f": 887, "\u2581\u0438,": 888, "\u2581\u043e\u0441": 889, "\u043c\u043d\u0438": 890, "\u0435\u0442\u0441\u044f,": 891, "\u2581\u0441\u043e\u0432": 892, "\u0434,": 893, "\u2581\u0433\u0443": 894, "\u2581\u043f\u043e\u043a\u0430": 895, "\u0446\u0443": 896, "\u0432\u0435\u0434": 897, "\u0438\u043d": 898, "\u2581\u0442\u043e\u0436\u0435": 899, "\u043b\u0435\u043c": 900, "\u0435\u0442\u0435": 901, "\u2581\u043f\u043e\u0437": 902, "\u0441\u0442\u0432\u0435\u043d\u043d\u043e": 903, "\u0433\u0435": 904, "\u0431\u043b\u0438": 905, "\u0442\u0440\u043e": 906, "\u044c\u044f": 907, "\u2581\u043d\u0438\u0445": 908, "\u2581\u0438\u043c\u0435": 909, "\u2581\u0422\u0430\u043a": 910, "\u2581\u041f\u0430": 911, "\u0432\u0430\u043b\u0441\u044f": 912, "\u2581\u043c\u043d\u043e\u0433\u043e": 913, "\u0440\u0435\u0434": 914, "\u2581\u0422\u0435": 915, "\u043b\u0438.": 916, "\u2581\u0442\u0435\u0431\u0435": 917, "\u043d\u0438\u043c": 918, "\u043d\u043e\u0441\u0442\u044c": 919, "\u0444\u0435": 920, "\u0435\u043d\u0435": 921, "\u2581\u0447\u0442\u043e-": 922, "\u0441\u0442\u0438,": 923, "\u2581\u0431\u0440\u043e": 924, "\u0431\u0443\u0434\u044c": 925, "\u2581\u0441\u0435\u0439": 926, "\u0441\u043b\u043e": 927, "\u2581\u043a\u043e\u0442\u043e\u0440\u044b\u0439": 928, "\u043a\u043b\u044e": 929, "\u0440\u0430\u044f": 930, "\u0435\u0432": 931, "\u2581\u0433\u043b\u0443": 932, "\u2581\u043f\u043e\u0442\u043e\u043c": 933, "\u0440\u043e\u0433\u043e": 934, "\u2581\u043a\u0440\u0438": 935, "\u2581\u0443\u0432\u0438": 936, "\u2581\u0447\u0435\u0440\u0435\u0437": 937, "\u043b\u0430\u0433\u043e": 938, "\u0440.": 939, "\u2581\u0447\u0443\u0432": 940, "\u2581\u043f\u043b\u043e": 941, "\u2581\u0436\u0438\u0437\u043d\u0438": 942, "\u2581\u041e\u043d\u0438": 943, "\u0435\u043d\u0438\u0435\u043c": 944, "\u2581\u043a\u043e\u0442\u043e\u0440\u044b\u0435": 945, "\u2581\u043e\u0431\u044a": 946, "\u2581\u0431\u0443\u0434\u0443": 947, "\u2581\u043a\u0440\u0435": 948, "\u0447\u043a\u0430": 949, "\u2581\u043e\u0441\u0442": 950, "\u043d\u043e.": 951, "\u2581\u043e\u0431\u043e": 952, "\u043e\u0431\u0440\u0430": 953, "\u0438\u0442": 954, "\u043d\u0435\u0446": 955, "\u2581\u0441\u043b\u0443\u0447\u0430": 956, "\u2581\u043c\u043e\u043b\u043e": 957, "\u2581\u0434\u0440\u0443\u0433\u0438": 958, "\u2581\u043d\u0438\u0431\u0443\u0434\u044c": 959, "\u2581\u0432\u0430\u043c": 960, "\u0436\u0434\u0443": 961, "\u0434\u043e\u043b": 962, "\u0440,": 963, "\u0441\u0442\u0440\u0430": 964, "\u043d\u0438\u043a\u0430": 965, "\u2581\u0434\u0435\u0442": 966, "\u2581\u043c\u043e\u0433\u0443": 967, "\u0447\u0435\u0442": 968, "\u2581\u041a\u043e\u0433\u0434\u0430": 969, "\u2581\u0441\u0440\u0430": 970, "\u2581\u0442\u0440\u0438": 971, "\u0441\u0442\u044f": 972, "\u0438,": 973, "\u2581\u0432\u0434": 974, "\u2581\u0445\u043e\u0442\u0435": 975, "\u2581\u043d\u0430\u043c": 976, "\u043a\u043e\u043d": 977, "\u0441\u0441": 978, "\u2581\u0441\u0432\u044f": 979, "\u0447\u0430\u043b": 980, "\u0442\u0435,": 981, "\u2581\u0431\u0443\u0434": 982, "\u2581\u0432\u0441\u0435\u0445": 983, "\u2581\u0441\u0435\u0439\u0447\u0430\u0441": 984, "\u0434\u043d\u044f": 985, "\u2581\u043d\u0435\u0442": 986, "\u2581\u0435\u0439": 987, "\u043d\u0435\u0435": 988, "\u2581\u043b\u0443\u0447": 989, "\u0440\u0430,": 990, "\u2581\u043e\u0442\u043a\u0440\u044b": 991, "\u0442\u0435\u0440\u0435": 992, "\u2581\u0432\u0437\u0433\u043b\u044f": 993, "\u2581\u043f\u043e\u0442\u043e\u043c\u0443": 994, "\u2581\u0441\u0432\u043e\u0435\u0439": 995, "\u043d\u0435\u0447": 996, "\u2581\u0437\u0434\u0435\u0441\u044c": 997, "\u044f\u0441": 998, "\u2581\u0434\u0435\u0439": 999, "\u2581\u043c\u0430\u043b": 1000, "\u0432\u043e\u0437": 1001, "\u2581\u0441\u043c\u0435": 1002, "\u2581\u0434\u0435\u043b\u043e": 1003, "\u0445\u0432\u0430": 1004, "\u2581\u041d\u0443": 1005, "\u0431\u0438\u0440\u0430": 1006, "!\u00a0\u2014": 1007, "\u0439\u0442\u0438": 1008, "\u2581\u0432\u0441\u044f": 1009, "\u0434\u0443\u043c": 1010, "?\u00a0\u2014": 1011, "\u2581\u0441\u0442\u043e\u044f": 1012, "\u2581\u043d\u0435\u0441\u043a\u043e\u043b\u044c\u043a\u043e": 1013, "\u0432\u044b\u0445": 1014, "\u043b\u0430.": 1015, "\u0441.": 1016, "\u043c\u043e\u0436\u043d\u043e": 1017, "\u2581\u0442\u043e\u0433\u043e,": 1018, "\u0432\u044c": 1019, "\u2581\u0436\u0438\u0437\u043d\u044c": 1020, "\u043b\u044b\u0448": 1021, "\u0432\u0430\u0442\u044c\u0441\u044f": 1022, "\u2581\u043a\u043e\u0440\u043e": 1023, "\u2581\u043a\u0440\u0443": 1024, "\u2581\u0441\u044b": 1025, "\u2581\u0432\u0441\u0435\u0433\u0434\u0430": 1026, "\u2581\u0432\u0435\u0434\u044c": 1027, "\u0434.": 1028, "\u043b\u0435\u0439": 1029, "\u0434\u0430.": 1030, "\u2581\u0442\u044f": 1031, "\u2581\u0431\u0440\u0430": 1032, "\u2581\u043f\u0440\u043e\u0438\u0437": 1033, "\u2581\u0433\u0440\u0430": 1034, "\u0432\u043e\u0433\u043e": 1035, "\u043a\u043e\u0433\u0434\u0430": 1036, "\u2581\u0432\u043c\u0435": 1037, "\u2581\u0442\u0440\u0430": 1038, "\u043d\u0435\u0441": 1039, "\u0442\u043d\u043e": 1040, "\u2581\u0441\u043b\u043e\u0432\u0430": 1041, "\u0434\u0435\u0439": 1042, "\u2581\u043f\u044b": 1043, "\u0441\u0442\u0435\u0440": 1044, "\u0435\u043d\u0438\u044f,": 1045, "\u2581\u043b\u0438\u0448\u044c": 1046, "\u043a\u0435,": 1047, "\u2581\u0436\u0435\u043d\u0449\u0438": 1048, "\u0448\u043b\u043e": 1049, "\u2581\u0438\u0441\u0442\u043e": 1050, "\u2581\u0412\u0438": 1051, "\u2581\u043e\u0433": 1052, "\u2581\u043c\u0438\u043d\u0443": 1053, "\u2581\u0441\u043a\u0430": 1054, "\u2581\u0442\u043e\u0433\u0434\u0430": 1055, "\u2581\u0442\u0432\u043e": 1056, "\u043f\u0443\u0441\u0442\u0438": 1057, "\u2581\u0432\u0441\u0442\u0440\u0435": 1058, "\u0440\u0442": 1059, "\u2581\u0431\u043e\u043b\u0435\u0435": 1060, "\u0432\u0430\u0440\u0438": 1061, "\u2581\u0434\u0432\u0438": 1062, "\u2581\u0442\u043e\u0442": 1063, "\u2581\u041b\u0438": 1064, "\u2581\u0440\u044b": 1065, "\u2581\u0434\u0435\u0440\u0435": 1066, "\u2581\u0434\u043e\u0440\u043e": 1067, "\u0441\u043a\u0430\u044f": 1068, "\u0441,": 1069, "\u0441\u0442\u0438.": 1070, "\u2581\u0441\u0430\u043c": 1071, "\u2581\u0441\u0432\u043e\u044e": 1072, "\u0442\u0435\u043b\u044f": 1073, "\u0448\u0435\u043d": 1074, "\u2581\u0441\u043f\u0438": 1075, "\u2581\u044d\u0442\u043e\u0439": 1076, "\u0432\u0435\u0440\u0438": 1077, "\u2581\u043d\u0435\u043e": 1078, "\u2581\u0441\u0430\u043c\u044b": 1079, "\u2581\u0441\u043e\u043b": 1080, "\u2581\u0434\u0443\u043c\u0430": 1081, "\u2581\u043f\u0440\u044f": 1082, "\u0448\u043b\u0438": 1083, "\u043f\u0440\u0430\u0432\u0438": 1084, "\u043d\u044e": 1085, "\u0441\u043a\u0438\u0445": 1086, "\u2581\u043d\u0435\u0439": 1087, "\u2581\u043f\u0440\u043e\u0438": 1088, "\u0440\u0430.": 1089, "\u2581\u0441\u043b\u0430": 1090, "\u2581\u0440\u044f": 1091, "\u2581\u0432\u0441\u0435\u0433\u043e": 1092, "\u0440\u044e": 1093, "\u043d\u044b.": 1094, "\u2581\u0441\u043a\u0430\u0437\u0430": 1095, "\u043c\u044f": 1096, "\u2581\u0441\u043d\u043e\u0432\u0430": 1097, "\u0434\u0435\u043b\u0438": 1098, "\u0432\u0435\u0441\u0442": 1099, "\u2581\u0438\u00a0": 1100, "\u2581\u0432\u0435\u043b\u0438": 1101, "\u2581\u0418\u0437": 1102, "\u2581\u043e\u0434\u043d\u0430": 1103, "\u0435\u0442.": 1104, "\u0448\u043a\u0438": 1105, "\u043d\u0430\u043b": 1106, "\u25814": 1107, "\u0431\u0440\u043e": 1108, "\u0442\u0430,": 1109, "\u2581\u0440\u0443\u043a\u0430": 1110, "\u0442\u0435\u043c": 1111, "\u0442\u0435\u0440\u0438": 1112, "\u044f\u0441\u044c": 1113, "\u0432\u0435\u0440\u044c": 1114, "\u0448\u043b\u0430": 1115, "\u2581\u043d\u0438\u043c": 1116, "\u2581\u0443\u043b\u044b": 1117, "\u2581\u0441\u0435\u043c": 1118, "\u2581\u0432\u044b\u0441\u043e": 1119, "\u2581\u043b\u044e\u0431\u0438": 1120, "\u0447\u0435\u043c": 1121, "\u0430\u043b\u0430,": 1122, "\u043b\u0438\u043d": 1123, "\u2581\u043e\u043f": 1124, "\u0432\u043e\u0434\u0438": 1125, "\u2581\u0440\u0435\u0448\u0438": 1126, "\u0432\u0448\u0438\u0441\u044c": 1127, "\u2581\u0433\u0430": 1128, "\u0432\u0430\u044e\u0442": 1129, "\u2581\u0431\u043b\u0430\u0433\u043e": 1130, "\u043b\u0435\u043d\u043d\u043e": 1131, "\u0445\u043e\u0434\u044f": 1132, "\u0442\u043e\u0439": 1133, "\u043d\u0443\u0442\u044c": 1134, "\u0432\u0448\u0438\u0439": 1135, "\u2581\u0432\u0434\u0440\u0443\u0433": 1136, "\u0447\u0438\u0442": 1137, "\u2581\u0443\u0434\u0430": 1138, "\u0434\u0435\u043d": 1139, "\u2581\u043b\u0435\u0433": 1140, "\u043a\u0442\u0438": 1141, "\u2581\u043a\u043d\u0438": 1142, "\u0434\u043e\u0432": 1143, "\u2581\u0441\u0434\u0435\u043b\u0430": 1144, "\u25815": 1145, "\u2581\u0432\u0441\u0451": 1146, "\u2581\u0441\u043e\u0432\u0435\u0440": 1147, "\u0435\u043d\u0438\u044f.": 1148, "\u2581\u043b\u044e\u0431\u043e": 1149, "\u0446\u0438\u044f": 1150, "\u0441\u0442\u0430\u0432\u043b\u044f": 1151, "\u0432\u0438\u0447": 1152, "\u0438\u043c": 1153, "\u2581\u0442\u043e\u043c,": 1154, "\u044f\u0432\u0438": 1155, "),": 1156, "\u2581\u0447\u0435\u0442": 1157, "\u2581\u0442\u043e\u043b": 1158, "\u2581\u0447\u0435\u0433\u043e": 1159, "\u2581\u0434\u0435\u0440": 1160, "\u2581\u0441\u0442\u0443": 1161, "\u2581\u0430\u0432\u0442\u043e": 1162, "\u0434\u0430\u043b": 1163, "\u2581\u043a\u0430\u043a\u043e\u0439": 1164, "\u0432\u043e\u0435": 1165, "\u043e\u043b\u043e": 1166, "\u2581\u0432\u0441\u0435\u043c": 1167, "\u2581\u043e\u0431\u0435": 1168, "\u2581\u041a\u0443": 1169, "\u2581\u043f\u0440\u043e\u0434\u043e\u043b": 1170, "\u2581\u0441\u0443\u0449\u0435": 1171, "\u2581\u0441\u0442\u0430\u043b": 1172, "\u2581\u0441\u043f": 1173, ".\u00a0": 1174, "\u2581\u0432\u043e\u043b": 1175, "\u0434\u0435\u0442\u044c": 1176, "\u043a\u043b\u0430": 1177, "\u2581\u043a\u043e\u043c\u043d\u0430": 1178, "\u0443\u0442": 1179, "\u2581\u043a\u0430\u0440": 1180, "\u0432\u0430\u0435\u0442\u0441\u044f": 1181, "\u2581\u0411\u0435": 1182, "\u2581\u0441\u043e\u0431": 1183, "\u2581\u043b\u0438\u0446\u043e": 1184, "\u2581\u0442\u0430\u043a\u043e\u0439": 1185, "\u2581\u0441\u043e\u0432\u0441\u0435\u043c": 1186, "\u2581\u0432\u043e\u0441": 1187, "\u2581\u0430\u043d": 1188, "\u2581\u043f\u043e\u0447\u0442\u0438": 1189, "\u043d\u043e\u0439,": 1190, "\u043a\u0435.": 1191, "\u2581\u00a0\u00a0": 1192, "\u2581\u0410\u043d": 1193, "\u0440\u0435\u0434\u0438": 1194, "\u0435\u043d\u0438\u0435,": 1195, "\u2581\u043c\u0443\u0436": 1196, "\u2581\u0444\u0430": 1197, "\u0430\u043b\u044c\u043d\u043e": 1198, "\u2581\u043c\u0435\u0436\u0434\u0443": 1199, "\u043d\u0438\u0439": 1200, "\u0441\u0442\u0443\u043f": 1201, "\u2581\u041b\u0435": 1202, "\u2581\u043b\u044e\u0434\u0438": 1203, "\u0434\u043d\u0430": 1204, "\u2581\u0443\u0436": 1205, "\u0435\u043d\u044b": 1206, "\u2581\u043d\u0438\u043a\u043e\u0433\u0434\u0430": 1207, "\u2581\u044d\u0442\u0430": 1208, "\u2581\u0434\u0435\u0439\u0441\u0442\u0432\u0438": 1209, "\u0447\u0438\u0442\u0430": 1210, "\u0447\u043a\u0438": 1211, "\u2581\u0445\u043e\u0442\u044f": 1212, "\u2581\u0414\u0435": 1213, "\u043d\u043e\u0441\u0438": 1214, "\u2581\u043f\u043b\u0435": 1215, "\u043b\u0438\u0432\u043e": 1216, "\u0448\u0430\u044f": 1217, "\u2581\u0448\u0438": 1218, "\u0441\u0442\u0432\u0435": 1219, "\u2581\u041d\u0443,": 1220, "\u2581\u0434\u044b": 1221, "\u044e\u0449\u0438\u0439": 1222, "\u2581\u0433\u043e\u0440": 1223, "\u2581\u0441\u0432\u043e\u0439": 1224, "\u0432\u044b\u043c": 1225, "\u0432\u0430\u043d\u0438\u044f": 1226, "\u2581\u0431\u043b\u0438": 1227, "\u2581\u0437\u0430\u043c\u0435\u0442": 1228, "\u2581\u0441\u043f\u0440\u043e\u0441\u0438\u043b": 1229, "\u043d\u044b\u0439,": 1230, "\u2581\u0434\u043e\u043c\u0430": 1231, "\u043c\u0435\u043d\u0438": 1232, "\u043c\u0443,": 1233, "\u2581\u043c\u0430\u0448\u0438": 1234, "\u2581\u041f\u0443": 1235, "\u0437\u0435": 1236, "\u2581\u043f\u043e\u0434\u043d\u044f": 1237, "\u043d\u0435\u043c": 1238, "\u043b\u043e\u0436\u0438": 1239, "\u0442\u044c\u0441\u044f,": 1240, "\u2581\u043d\u0438\u043a\u0430": 1241, "\u2581\u0432\u0442\u043e": 1242, "\u2581\u0441\u0442\u0435": 1243, "\u2581\u041c\u043d\u0435": 1244, "\u0434\u0440\u0430": 1245, "\u0430\u043b\u0438,": 1246, "\u2581\u043f\u043e\u043d\u0438\u043c\u0430": 1247, "\u0448\u0438\u0445": 1248, "\u0432\u0435\u0437": 1249, "\".": 1250, "\u2581\u043c\u043e\u043b": 1251, "\u0436\u0435\u043d\u0438\u0435": 1252, "\u2581\u0441\u043c\u0435\u0440": 1253, "\u0440\u043e\u0435": 1254, "\u0441\u043b\u0430": 1255, "\u0441\u043a\u0438\u0435": 1256, "\u2581\u0443\u0434\u0438": 1257, "\u0434\u043e\u0439": 1258, "\u0438.": 1259, "\u2581\u0441\u043f\u0430": 1260, "\u2581\u0426": 1261, ",\u00a0\u2013": 1262, "\u2581\u0411\u0443": 1263, "\u2581\u043f\u043e\u0445\u043e": 1264, "\u2581\u044e": 1265, "\u2581\u0441\u043b\u0435\u0434\u0443": 1266, "\u2581\u0442\u0435\u0440": 1267, "\u044c\u044e": 1268, "\u0445\u043e\u0434\u0438\u0442": 1269, "\u0440\u0433\u0430": 1270, "\u0432\u0435\u0440\u0445": 1271, "\u2581\u0432\u043e\u043f\u0440\u043e": 1272, "\u043d\u0435,": 1273, "\u2581\u0431\u0443\u0434\u0442\u043e": 1274, "\u2581\u041f\u0435\u0442": 1275, "\u0442\u0440\u0435": 1276, "\u0441\u043f\u0435": 1277, "\u2581\u043c\u043e\u0439": 1278, "\u2581\u0447\u0435\u043b\u043e\u0432\u0435\u043a": 1279, "\u0435\u0440\u0442": 1280, "\u2581\u043d\u0435\u0435": 1281, "\u0447\u0438\u043d\u0430": 1282, "\u043f\u043b\u043e": 1283, "\u2581\u043a\u043e\u0440": 1284, "\u0436\u0434\u044b": 1285, "\u0441\u0442\u044c,": 1286, "\u0442\u0430.": 1287, "\u0436\u0434\u0435": 1288, "\u0434\u0430\u0442\u044c": 1289, "\u2581\u0432\u0440\u0430": 1290, "\u0440\u0443\u0436\u0438": 1291, "\u043d\u0443,": 1292, "\u043f\u0435\u0440\u0435": 1293, "\u0441\u0442\u044c\u044e": 1294, "\u0442\u0430\u043d": 1295, "\u2581\u0432\u043e\u0439": 1296, "\u2581\u0441\u043a\u0430\u0437\u0430\u043b\u0430": 1297, "\u2581\u041c\u0435": 1298, "\u043d\u0435\u0447\u043d\u043e,": 1299, "\u2581\u0432\u00a0": 1300, "\u2581\u043c\u043d\u043e": 1301, "\u0447\u0435\u0440": 1302, "\u0447\u0430\u0441\u0442": 1303, "\u043b\u0441\u044f,": 1304, "\u0442\u044c\u0441\u044f.": 1305, "\u2581\u0432\u0437\u044f": 1306, "\u2581\u0441\u0432\u043e\u0435\u0433\u043e": 1307, "\u2581\u043e\u0431\u044b": 1308, "\u2581\u0441\u043c\u043e": 1309, "\u2581\u041b\u044e": 1310, "\u2581\u0441\u0438\u043b\u044c": 1311, "\u2581\u0443\u0441\u043f\u0435": 1312, "\u2581\u0433\u043e\u043b\u043e\u0432\u0443": 1313, "\u2581\u043c\u0430\u043b\u0435\u043d\u044c": 1314, "\u2581\u0445\u043e\u0440\u043e\u0448\u043e": 1315, "\u2581\u0441\u043c\u043e\u0442\u0440\u0435": 1316, "\u0449\u0435\u043d": 1317, "\u2581\u0432\u0440\u0435\u043c\u0435\u043d\u0438": 1318, "\u2581\u0432\u043b\u0430": 1319, "\u2581\u0432\u043d\u0443": 1320, "!..": 1321, "\u258118": 1322, "\u2581\u043a\u0440\u044b": 1323, "\u0446\u0438\u043e\u043d": 1324, "\u2581\u0432\u0435\u0441\u044c": 1325, "\u043a\u043d\u0443\u043b": 1326, "\u2581\u0421\u0438": 1327, "\u043a\u043b\u043e": 1328, "\u2581\u043f\u043e-": 1329, "\u2581\u0433\u043e\u0440\u043e": 1330, "\u0442\u0430\u043b": 1331, "\u2581\u0443\u043b\u044b\u0431": 1332, "\u2581\u0438\u0441\u0442\u043e\u0440\u0438": 1333, "\u2581\u0434\u0432\u0443": 1334, "\u0435\u043d\u0438\u0439": 1335, "\u0443\u043c": 1336, "\u2581\u043e\u0434\u043d\u043e": 1337, "\u2581\u0441\u0440\u0430\u0437\u0443": 1338, "\u2581\u0434\u043e\u043b\u0436": 1339, "\u0441\u043a\u043e\u043c": 1340, "\u2581\u0440\u0438": 1341, "\u2581\u043d\u0443\u0436\u043d\u043e": 1342, "\u043a\u043e\u043d\u0435\u0446": 1343, "\u0432\u043e\u0440\u044f": 1344, "\u0434\u0430\u0440": 1345, "\u0435\u043c\u044b": 1346, "\u2581\u0445\u0443": 1347, "\u2581\u043f\u043e\u044d": 1348, "\u2581\u0443\u0431\u0438": 1349, "\u2581\u043d\u0435\u0441": 1350, "\u2581\u0441\u043b\u0438": 1351, "\u2581\u043f\u043e\u0447\u0435\u043c\u0443": 1352, "\u0431\u043b\u044e": 1353, "\u043a\u0430\u043c\u0438": 1354, "\u2581\u043f\u043e\u043b\u0443\u0447\u0438": 1355, "\u2581\u0431\u0438": 1356, "\u2581\u0441\u0432\u043e\u0438\u0445": 1357, "\u0442\u044b,": 1358, "\u0441\u043b\u0443": 1359, "\u2581\u043c\u0435\u0434": 1360, "\u2581\u0441\u043f\u0435": 1361, "\u2581\u0415\u0433\u043e": 1362, "\u2581\u0442\u0435\u0445": 1363, "\u2581\u043b\u0443\u0447\u0448\u0435": 1364, "\u2581\u0442\u0435\u043b\u0435": 1365, "\u2581\u0434\u0440\u0443\u0433": 1366, "\u043a\u043e,": 1367, "\u2581\u0441\u043b\u043e\u0432\u043d\u043e": 1368, "\u2581\u0431\u0435\u0440\u0435": 1369, "\u0442\u044b\u0439": 1370, "\u0430\u043b\u043e\u0441\u044c,": 1371, "\u2581\u043d\u0435\u043f\u043e": 1372, "00": 1373, "\u0433\u043e\u0432\u043e\u0440\u0438": 1374, "\u043c\u043e\u0442\u0440\u0438": 1375, "\u0432\u0430\u043d\u0438": 1376, "\u0432\u0443\u044e": 1377, "\u2581\u0411\u0430": 1378, "\u0434\u043d\u043e,": 1379, "\u2581\u0441\u043e\u0437": 1380, "\u2581\u0414\u0430,": 1381, "\u2581\u0433\u0440\u043e": 1382, "\u2581\u0434\u0430\u043b\u044c": 1383, "\u0435\u043d\u0438\u0435.": 1384, "\u0447\u0430\u043b\u0430": 1385, "\u2581\u0434\u0432\u0435\u0440\u044c": 1386, "\u2581\u043d\u0435\u0431\u043e": 1387, "\u0435\u043c\u043e": 1388, "\u2581\u0441\u0432\u0438": 1389, "\u2581\u0420\u0430\u0437": 1390, "\u2581\u0440": 1391, "\u043d\u0443\u043b\u0430\u0441\u044c": 1392, "\u2581\u043e\u043d,": 1393, "\u0435\u043c.": 1394, "\u2581\u0432\u0435\u0442": 1395, "\u0441\u0441\u043e": 1396, "\u0435\u043d\u0438\u044e": 1397, "\u0440\u0435\u0439": 1398, "\u2581\u041b\u0430": 1399, "\u0436\u0438\u0434\u0430": 1400, "\u043b\u0435\u0437": 1401, "\u2581\u041e\u0434\u043d\u0430": 1402, "\u2581\u0441\u0434\u0435\u043b": 1403, "\u0432\u043e\u0434": 1404, "\u2581\u0442\u043e\u0433\u043e": 1405, "\u043a\u0440\u0435": 1406, "\u2581\u043c\u043e\u0438": 1407, "\u0441\u0442\u0443\u043f\u0438": 1408, "\u2581\u0432\u043d\u0438\u043c\u0430": 1409, "\u043a\u043e\u0439,": 1410, "\u043f\u043b\u0430": 1411, "\u0430\u043b\u044c\u0447\u0438": 1412, "\u2581\u0432\u0438\u0434\u0438": 1413, "\u0434\u0446\u0430\u0442\u044c": 1414, "\u043f\u0438\u0441\u0430": 1415, "\u2581\u043d\u0435\u0434\u043e": 1416, "\u0447\u043e": 1417, "\u2581\u0444\u043e\u0440": 1418, "\u043f\u044b\u0442": 1419, "\u0449\u0451": 1420, "\u043a\u043e\u0442\u043e": 1421, "\u0432\u043b\u0435\u043d": 1422, "\u2581\u043e\u043a\u0430\u0437": 1423, "\u2581\u041d\u0435\u0442,": 1424, "\u2581\u0435\u0451": 1425, "\u2581\u0443\u043b\u0438": 1426, "\u043a\u0430\u043d": 1427, "\u2581\u043f\u0440\u0430\u0432\u0438": 1428, "\u043b\u043e\u043c": 1429, "\u043a\u043e\u0432,": 1430, "\u2581\u043f\u0440\u0438\u043d\u044f": 1431, "\u043d\u0443.": 1432, "\u043b\u044b\u0439": 1433, "\u0449\u0430\u044f": 1434, "\u0445\u043e\u0434": 1435, "\u2581\u043e\u0431\u0440\u0430\u0437\u043e": 1436, "\u2581\u043a\u0430\u0437": 1437, "\u2581\u043a\u043b\u0430": 1438, "\u043d\u0438\u0437": 1439, "\u044e\u0449\u0438\u0435": 1440, "\u0448\u0435\u043d\u043d\u043e": 1441, "\u2581\u0442\u0430\u043a\u0438": 1442, "\u0432\u0430,": 1443, "\u2581\u0422\u043e\u043b\u044c\u043a\u043e": 1444, "\u0435\u0445": 1445, "\u0444\u043e\u0440": 1446, "\u2581\u043d\u0430\u0443": 1447, "\u0441\u0442\u043e\u0439": 1448, "\u2581\u0441\u0432\u043e\u0435": 1449, "\u0442\u0438\u043b": 1450, "\u043b\u043e\u0432": 1451, "\u2581\u043e\u0431\u0449\u0435": 1452, "\u0434\u0435\u043b\u044c": 1453, "\u2581\u043a\u043e\u043b": 1454, "\u2581\u0437\u043d": 1455, "\u0436\u043e": 1456, "\u043d\u0435\u043d": 1457, "\u0441\u043e\u043c": 1458, "\u0434\u0443,": 1459, "\u2581\u0421\u0442\u0430": 1460, "\u2581\u043f\u0430\u043b\u044c": 1461, "\u2581\u044d\u0442\u0443": 1462, "\u0448\u043a\u043e\u043c": 1463, "\u2581\u043d\u0430\u0448": 1464, "\u2581\u0431\u044b\u0441\u0442\u0440\u043e": 1465, "\u2581\u043f\u043e\u043b\u0438": 1466, "\u0446\u0430,": 1467, "\u2581\u043f\u0440\u0430\u0432": 1468, "\u2581\u043d\u043e\u0447\u044c": 1469, "\u0436\u0435\u043d\u0438\u044f": 1470, "\u2581\u0441\u0442\u0438": 1471, "\u0440\u0443\u044e": 1472, "\u2581\u0440\u0443\u0441": 1473, "\u2581\u043c\u0435\u0442": 1474, "\u0433,": 1475, "\u2581\u0441\u0442\u0440\u0430\u043d": 1476, "\u2581\u0432\u043e\u0437\u043c\u043e\u0436\u043d\u043e": 1477, "\u0440\u044f\u0434": 1478, "\u2581\u0436\u0430": 1479, "\u043c\u0438\u043d\u0430": 1480, "\u0441\u043e\u0432": 1481, "\u2581\u0442\u0440\u043e": 1482, "\",": 1483, "\u2581\u043d\u0430\u0434\u0435": 1484, "\u2581\u0431\u044b\u0442\u044c,": 1485, "\u0434\u043e\u0445": 1486, "\u2581\u043a\u0443\u0434\u0430": 1487, "\u0442\u043e\u0440": 1488, "\u2581\u0438\u043d\u0442\u0435\u0440\u0435": 1489, "\u2581\u043f\u0440\u044f\u043c\u043e": 1490, "\u2581\u0441\u043f\u0440\u0430": 1491, "\u2581\u0436\u0435\u043b\u0430": 1492, "\u2581\u043a\u043e\u0442\u043e\u0440\u043e\u0439": 1493, "\u043d\u0435\u0433\u043e": 1494, "\u0436\u0430\u0442\u044c": 1495, "\u2581\u0442\u0430\u043a,": 1496, "\u043b\u0441\u044f.": 1497, "\u2581\u0440\u0430\u0437\u0433\u043e": 1498, "\u0444\u043e": 1499, "\u2581\u043c\u044f": 1500, "\u043f\u043e\u043c\u043d\u0438": 1501, "\u2581\u043d\u0430\u0437\u0430": 1502, "\u2581\u0430\u0440": 1503, "\u2581\u0445\u0430": 1504, "\u043e\u0431\u0449\u0435": 1505, "\u2581\u0434\u043e\u043b\u0436\u0435\u043d": 1506, "\u2581\u0436\u0435,": 1507, "\u044e\u0449\u0438\u0445": 1508, "\u2581\u043d\u0435\u0443": 1509, "\u0434\u0432\u0438": 1510, "\u2581\u044d\u043a": 1511, "\u2581\u042e": 1512, "\u2581\u0434\u0435\u0441\u044f": 1513, "\u2581\u0432\u044b\u0440\u0430": 1514, "\u2581\u0438\u0437-": 1515, "\u2581\u0445\u043e\u043b\u043e": 1516, "\u0447\u043d\u043e\u0439": 1517, "\u043b\u043e,": 1518, "\u2581\u043f\u0430\u0440": 1519, "\u2581\u043e\u0431\u043b\u0430": 1520, "\u2581\u043f\u043e\u0439": 1521, "\u0448\u044c,": 1522, "\u0441\u0441\u0430": 1523, "\u0441\u043a\u043e\u0435": 1524, "\u043f\u0440\u044f": 1525, "\u2581\u044f,": 1526, "\u2581\u0444\u043e": 1527, "\u2581\u0434\u0435\u0432\u0443": 1528, "\u043d\u0442": 1529, "\u2581\u0446\u0430": 1530, "\u2581\u043f\u0440\u0435\u043a\u0440\u0430": 1531, "\u0443\u0440": 1532, "\u0449\u0438\u0439": 1533, "\u2581\u0443\u0433\u043e": 1534, "\u2581\u0420\u0435": 1535, "\u2581\u043d\u0430\u0437\u044b": 1536, "\u2581\u0443\u043c": 1537, "\u2581\u0441\u0432\u0435": 1538, "\u2581\u00a0\u00a0\u00a0": 1539, "\u0431\u043e\u0440": 1540, "\u043d\u0443\u0432": 1541, "\u2581\u0432\u043e\u0437\u0434\u0443": 1542, "\u0432\u0430\u043b\u0438\u0441\u044c": 1543, "\u0441\u0442\u0430\u043b": 1544, "\u2581\u0436\u0438\u0432\u043e": 1545, "\u2581\u043f\u043e\u0437\u0432\u043e": 1546, "\u2581\u043c\u0435\u0441\u0442\u043e": 1547, "\u0432\u0448\u0438\u0435": 1548, "\u0441\u0438\u043b\u0438": 1549, "\u043d\u0435.": 1550, "\u2581\u0431\u043e\u043b\u044c\u0448\u043e": 1551, "\u0434\u0438\u0442\u0435": 1552, "\u2581\u0438\u043c\u0435\u043d\u043d\u043e": 1553, "\u2581\u043f\u043e\u0441\u043b\u0435\u0434": 1554, "\u0447\u0435\u0441\u043a\u043e\u0439": 1555, "\u0432\u0430\u043d\u0438\u0435": 1556, "\u044e\u0441\u044c": 1557, "\u2581\u0411\u044b": 1558, "\u2581\u043f\u043e\u0441\u043c\u043e\u0442\u0440\u0435": 1559, "\u0437\u044c": 1560, "\u043d\u043d\u044b\u0439": 1561, "\u043c\u043e\u0439": 1562, "\u2581\u0440\u0443\u043a\u0438": 1563, "\u2581\u0434\u043e\u043b\u0433\u043e": 1564, "\u0433.": 1565, "\u2581\u0447\u0442\u043e,": 1566, "\u0432\u0435\u043b\u0438": 1567, "\u2581\u043f\u043e\u0431\u0435": 1568, "\u2581\u0442\u043e\u0440": 1569, "\u2581\u043a\u043e\u0442\u043e\u0440\u0430\u044f": 1570, "\u2581\u044f\u0437\u044b": 1571, "\u2581\u0441\u0442\u0440\u0435": 1572, "\u2581\u0441\u0435\u0433\u043e": 1573, "\u0444\u0430": 1574, "\u25816": 1575, "\u2581\u041a\u0442\u043e": 1576, "\u0440\u0430\u0437": 1577, "\u043d\u0446\u0435": 1578, "\u0448\u0438\u0439": 1579, "\u2581\u0410\u043b\u0435\u043a": 1580, "\u043d\u043e\u0439.": 1581, "\u2581\u0417\u043d\u0430": 1582, "\u0432\u043e\u043c": 1583, "\u0442\u043d\u0438": 1584, "\u044b,": 1585, "\u2581\u0437\u0430\u0431\u044b": 1586, "\u2581\u043a\u0430\u0436\u0434\u044b": 1587, "\u2581\u043b": 1588, "\u2581\u043d\u0430\u0441\u0442\u043e\u044f": 1589, "\u0441\u0442\u044c.": 1590, "\u2581\u0438\u0441\u043f\u043e": 1591, "\u0434\u044b,": 1592, "\u0442\u0438\u044f": 1593, "\u0440\u0438\u043b": 1594, "\u2581\u0433\u043b\u044f": 1595, "\u2581\u041f\u043e\u0441\u043b\u0435": 1596, "\u2581\u044d\u0442\u0438\u0445": 1597, "\u2581\u0437\u0435": 1598, "\u0433\u0430,": 1599, "\u0436\u0430\u043b\u0430": 1600, "\u2581\u043e\u0442\u0432\u0435": 1601, "\u0435\u0442\u044c": 1602, "\u2581\u0443\u0433": 1603, "\u043f\u0430\u043b": 1604, "\u2581\u0441\u043e\u0433\u043b\u0430": 1605, "\u2581\u0434\u0440\u0443\u0433\u043e\u0439": 1606, "\u2581\u0434\u0432\u0435": 1607, "\u2581\u043e\u043f\u044f\u0442\u044c": 1608, "\u0432\u0448\u0438\u0445": 1609, "\u2581\u0441\u0442\u0440\u043e": 1610, "\u2581\u0432\u043d\u0435": 1611, "\u2581\u0420\u0443": 1612, "\u0434\u0438\u0442\u044c": 1613, "\u0442\u0435\u0446": 1614, "\u043a\u043e\u043c,": 1615, "\u0435\u0442\u0438": 1616, "\u2581\u0433\u0438": 1617, "\u0441\u043a\u043e\u043b\u044c": 1618, "\u0447\u0442\u043e": 1619, "\u0434\u0443.": 1620, "\u044f\u0441\u043d\u0438": 1621, "\u2581\u0440\u0430\u0431\u043e\u0442\u0430": 1622, "\u0435\u0448\u044c,": 1623, "\u2581\u043f\u0440\u043e\u0442\u0438\u0432": 1624, "\u2581\u0446\u0432\u0435\u0442": 1625, "\u0447\u043d\u044b\u0439": 1626, "\u0432\u043d\u0438": 1627, "\u2581\u0443\u0437": 1628, "\u0433\u0440\u0435": 1629, "\u2581\u0442\u044f\u0436\u0435": 1630, "\u2581\u0422\u0435\u043f\u0435\u0440\u044c": 1631, ".\u00a0\u2013": 1632, "\u0440\u0430\u0431": 1633, "\u2581\u0447\u0443\u0432\u0441\u0442\u0432\u043e": 1634, "\u2581\u0441\u043f\u043e\u0441\u043e\u0431": 1635, "\u2581\u0437\u0430\u043f\u0430": 1636, "\u2581\u0434\u0443\u043c": 1637, "\u2581\u0443\u0442": 1638, "\u2581\u0432\u043c\u0435\u0441\u0442\u0435": 1639, "\u0433\u043b\u0438": 1640, "\u2581\u0447\u0443\u0442\u044c": 1641, "\u043d\u044b\u0435,": 1642, "\u0440\u0430\u0432\u0438": 1643, "\u2581\u0442\u0430\u043a\u043e\u0435": 1644, "\u0434\u0440\u043e": 1645, "\u2581I": 1646, "\u0441\u044f,": 1647, "\u2581\u0437\u0432\u0443": 1648, "\u2581\u043d\u0430\u0445\u043e\u0434\u0438": 1649, "\u2581\u0441\u0432\u043e\u0438\u043c": 1650, "\u2581\u043e\u0447\u0435": 1651, "\u0447\u0435\u043d\u0438\u0435": 1652, "\u2581\u0445\u043e\u0437\u044f": 1653, "\u0441\u0442\u043d\u043e": 1654, "\u0432\u043b\u0435": 1655, "\u043a\u0440\u0443\u0433": 1656, "\u2581\u0438\u0437\u0432\u0435\u0441\u0442": 1657, "\u2581\u041b\u0443": 1658, "\u2581\u0441\u0442\u0430\u0440\u0438": 1659, "\u2581\u043e\u0441\u043e\u0431": 1660, "\u2581--": 1661, "\u0448\u0443\u044e": 1662, "\u0448\u0438\u043c": 1663, "\u2581\u0434\u0430\u043b\u0435": 1664, "\u2581\u043d\u0438\u043a\u0442\u043e": 1665, "\u2581\u043c\u0430\u0442\u0435\u0440\u0438": 1666, "\u2581\u043a\u043e\u0442\u043e\u0440\u044b\u0445": 1667, "\u043a\u0440\u0438": 1668, "\u2581\u0432\u0441\u044e": 1669, "\u0440\u0430\u043a": 1670, "\u0434\u0438\u043b": 1671, "\u0442\u044c?": 1672, "\u2581\u0421\u0435": 1673, "\u0442\u043e\u0433\u043e": 1674, "\u2581\u0449\u0435": 1675, "\u2581\u0441\u044e": 1676, "\u0433\u0438,": 1677, "\u043d\u044b\u043c,": 1678, "\u0447\u0438\u043b": 1679, "\u2581\u043d\u0435\u043a\u043e\u0442\u043e": 1680, "\u0446\u0435\u043d": 1681, "\u043c\u0430,": 1682, "\u2581\u0441\u0435\u0440\u0434": 1683, "\u0442\u0435\u043d": 1684, "\u2581\u041c\u043e\u0436\u0435\u0442": 1685, "\u2581\u043e\u0441\u0442\u0430\u043d\u043e\u0432\u0438": 1686, "\u2581\u0431\u0435\u0441": 1687, "\u2581\u041f\u0438": 1688, "\u2581\u043e\u0442\u0432\u0435\u0442\u0438\u043b": 1689, "\u0442\u0438,": 1690, "\u2581\u0433\u043e\u0442\u043e": 1691, "\u2581\u0442\u0430\u043a\u0436\u0435": 1692, "\u2581\u043e\u0434\u043d\u043e\u0439": 1693, "\u2581\u0441\u0435\u0433\u043e\u0434\u043d\u044f": 1694, "\u2581\u0441\u043e\u0441\u0442\u043e\u044f": 1695, "\u2581\u0443\u0431\u0435": 1696, "\u2581\u0421\u0435\u0440": 1697, "\u2581\u0434\u043e\u0441\u0442\u0430": 1698, "\u2581\u0430\u043a": 1699, "\u2581\u0414\u0443": 1700, "\u043a\u0443\u0441": 1701, "\u2581\u0421\u0443": 1702, "\u2581\u0435\u0449\u0451": 1703, "\u043d\u0435\u0440": 1704, "\u0432\u0430\u043b\u043e": 1705, "\u2581\u043d\u0435\u043e\u0431": 1706, "\u0447\u0435\u0441\u043a\u0438\u0445": 1707, "\u0441\u043a\u0443\u044e": 1708, "\u2581\u0443\u0436\u0430": 1709, "\u0445\u0443": 1710, "\u0442\u044b.": 1711, "!\u00a0\u2013": 1712, "\u2581\u0441\u043b\u0438\u0448\u043a\u043e\u043c": 1713, "\u0447\u043a\u0443": 1714, "\u2581\u043f\u0440\u043e\u0438\u0441": 1715, "\u043b\u044c,": 1716, "\u2581\u0440\u0430\u0434\u043e": 1717, "\u2581\u0433\u043e\u0434\u0430": 1718, "\u0434\u043e\u0440\u043e": 1719, "\u0448\u0438\u0435": 1720, "\u043e\u0442": 1721, "\u2581\u041a\u0438": 1722, "\u0432\u0430.": 1723, "\u2581\u043d\u0435\u00a0": 1724, "\u2581\u0440\u0430\u0432\u043d\u043e": 1725, "\u0441\u0438\u043b": 1726, "\u2581\u0441\u043b\u044b\u0448": 1727, "\u043b\u043b\u0438": 1728, "\u2581\u0432\u043e\u043b\u043e": 1729, "\u2581\u0433\u0440\u0435": 1730, "\u2581\u043c\u0430\u043b\u044c\u0447\u0438": 1731, "\u2581\u0441\u043e\u0431\u043e\u0439": 1732, "\u043a\u043e\u0432.": 1733, "\u0447\u0438\u0442,": 1734, "\u0434\u0435\u043c": 1735, "\u043f\u0435\u0440\u0430": 1736, "\u0447\u0443\u0432": 1737, "\u0442\u044b\u0435": 1738, "\u2581\u041c\u0443": 1739, "\u2581\u043c\u0435\u043d\u044f,": 1740, "\u0432\u0435\u043b": 1741, "\u2581\u0437\u0430\u043c\u0435": 1742, "\u043a\u0430\u0445": 1743, "\u2581\u043e\u0431\u0438": 1744, "\u043a\u0442\u043e\u0440": 1745, "\u2581\u043c\u0430\u043b\u043e": 1746, "\u2581\u043f\u043e\u0434\u0443\u043c": 1747, "\u2581\u043c\u043e\u043c\u0435\u043d": 1748, "\u0434\u0438,": 1749, "\u2581\u043a\u043e\u0442\u043e\u0440\u043e\u0433\u043e": 1750, "\u0441\u0430,": 1751, "\u2581\u043f\u043e\u0440": 1752, "\u043d\u043e\u0448": 1753, "\u2581\u0446\u0438": 1754, "\u0441\u0442\u0432\u0430,": 1755, "\u2581\u043e\u043d\u043e": 1756, "\u2581\u041f\u043e\u0447": 1757, "\u2581\u0433\u043e\u0432\u043e\u0440\u0438\u0442": 1758, "\u0448\u043d\u043e": 1759, "\u2581\u043d\u0430\u0437": 1760, "\u0447\u0430\u0442": 1761, "\u0440\u044b,": 1762, "\u043a\u0430\u043b": 1763, "\u2581\u0432\u043f\u0435\u0440\u0435": 1764, "\u2581\u043d\u0435\u043c\u043d\u043e\u0433\u043e": 1765, "\u0442\u0435\u0440\u0430": 1766, "\u043b\u0430\u0433\u0430": 1767, "\u043b\u043e\u0432\u0438": 1768, "\u043b\u044c\u0437\u043e": 1769, "\u043a\u0443\u0434\u0430": 1770, "\u2581\u0441\u043e\u0432\u0435\u0440\u0448\u0435\u043d\u043d\u043e": 1771, "\u2581\u0438\u0433\u0440\u0430": 1772, "\u043d\u043d\u044b\u0435": 1773, "\u2581\u0431\u043b\u0435": 1774, "\u2581\u0445\u043e\u0442\u044c": 1775, "\u043a\u0440\u043e": 1776, "\u0441\u0442\u043e\u0440\u043e": 1777, "\u2581\u041f\u0435\u0440\u0435": 1778, "\u2581\u0443\u0447\u0438": 1779, "\u0432\u0435\u0441\u0442\u0438": 1780, "\u0431\u0435,": 1781, "\u2581\u043e\u0434\u043d\u043e\u0433\u043e": 1782, "\u2581\u0433.": 1783, "\u2581\u0441\u0430\u043c\u043e\u043c": 1784, "\u2581\u0438\u043d\u043e": 1785, "\u2581\u043f\u043e\u0442\u043e": 1786, "\u2581\u041f\u043e\u0434": 1787, "\u0434\u0435\u0440\u0436\u0438": 1788, "\u0432\u0430\u043b\u0430\u0441\u044c": 1789, "\u0434\u0438\u0442": 1790, "\u2581\u043a\u0432\u0430": 1791, "er": 1792, "\u2581\u043e\u0440\u0433\u0430": 1793, "\u2581\u0441\u043a\u043e\u0440\u043e": 1794, "\u2581\u041f\u043e\u0442\u043e\u043c": 1795, "\u0447\u043d\u044b\u0445": 1796, "\u0440\u043e\u0432\u0430\u043d": 1797, "\u2581\u0441\u0442\u0430\u043b\u043e": 1798, "\u2581\u043d\u0430\u043f\u0440\u0430": 1799, "\u2581\u0433\u0435": 1800, "\u043b\u043e\u0439": 1801, "\u2581\u0441\u0430\u043c\u0430": 1802, "\u25817": 1803, "\u2581\u0442\u043e\u0447\u043d\u043e": 1804, "\u0434\u043e\u0431": 1805, "\u0433\u0440\u0443": 1806, "\u0447\u043d\u044b\u0435": 1807, "\u2581\u0442\u044b\u0441\u044f": 1808, "\u043d\u043e\u043a": 1809, "\u2581\u043e\u0433\u0440\u043e\u043c": 1810, "\u2581\u043f\u043e\u043a\u0430\u0437": 1811, "\u2581\u043a\u0440\u0430\u0441": 1812, "!\u00bb": 1813, "\u2581\u043e\u0441\u043e": 1814, "\u0432\u043e\u043b\u044c\u043d\u043e": 1815, "\u2581\u043e\u0441\u043d\u043e": 1816, "\u043a\u043e\u043b\u0430": 1817, "\u0446\u0430.": 1818, "\u043a\u043e\u0439.": 1819, "\u043a\u043e\u043b\u043e": 1820, "\u2581\u044f\u0432\u043b\u044f": 1821, "\u2581\u044f.": 1822, "\u2581\u043c\u0435\u0441\u0442\u0430": 1823, "\u0442\u0443,": 1824, "\u2581\u043d\u0430\u043a\u043e\u043d\u0435\u0446": 1825, "\u2581\u043a\u043e\u0433\u043e": 1826, "\u2581\u0441\u0447\u0438\u0442\u0430": 1827, "\u0434\u0443\u043c\u0430": 1828, "\u2581\u041c\u0430\u0440": 1829, "\u2581\u0445\u0432\u0430": 1830, "\u2581\u0410\u0440": 1831, "\u0441\u043a\u0443": 1832, "\u2581\u0433\u043e\u0432\u043e\u0440\u044f": 1833, "\u0431\u044f,": 1834, "\u2581\u0433\u043e\u0441\u043f\u043e": 1835, "\u2581\u0432\u043e\u043e\u0431\u0449\u0435": 1836, "\u2581\u043e\u043f\u0440\u0435": 1837, "\u0447\u0430\u044f": 1838, "\u2581\u0443\u0432\u0435\u0440": 1839, "\u2581\u0435\u0433\u043e,": 1840, "\u0436\u0430\u043b\u0438": 1841, "\u2581\u0432\u0438\u0434\u0435": 1842, "\u0447\u0435\u0441\u043a\u043e\u0433\u043e": 1843, "\u2581\u0434\u043d\u044f": 1844, "\u2581\u043a\u0430\u043a\u043e\u0439-": 1845, "\u2581\u0441\u0432\u043e\u0431\u043e": 1846, "\u2581\u0434\u0432\u0443\u0445": 1847, "\u043b\u044b\u0435": 1848, "\u043b\u043e.": 1849, "\u043d\u043e\u0441\u0442\u0438": 1850, "\u2581\u043d\u0435\u043e\u0431\u0445\u043e\u0434\u0438": 1851, "\u2581\u044d\u0442\u0438\u043c": 1852, "\u2581\u0422\u0438": 1853, "\u2581\u043f\u043e\u0434\u043e\u0431": 1854, "\u0451\u043c": 1855, "\u0441\u0442\u0435\u0439": 1856, "\u2581\u0441\u043d\u0430": 1857, "\u2581\u0442\u0438\u0445\u043e": 1858, "\u2581\u043a\u043e\u043d\u0435\u0447\u043d\u043e,": 1859, "\u2581\u0447\u0435\u0442\u044b": 1860, "\u0432\u0438\u043b": 1861, "\u2581\u0414\u043b\u044f": 1862, "\u2581\u043f\u043e\u0434\u0430": 1863, "\u2581\u0441\u043e\u0431\u0438\u0440\u0430": 1864, "\u2581\u043f\u043e\u0440\u0430": 1865, "\u2581\u043e\u0442\u043b\u0438": 1866, "\u0434\u0430\u043b\u0438": 1867, "\u2581\u041f\u0435\u0440": 1868, "\u2581\u0432\u043e\u0440\u043e": 1869, "\u2581\u043c\u044b\u0441": 1870, "\u0432\u0441\u0435": 1871, "\u0447\u0435\u0441\u043a\u0438\u0435": 1872, "\u2581\u0432\u043e\u043a\u0440\u0443\u0433": 1873, "\u2581\u0443\u0441\u0442\u0430": 1874, "\u2581\u0446\u0435\u043d": 1875, "\u2581\u043a\u043e\u043c\u0430\u043d": 1876, "\u0442\u0438\u0442\u044c": 1877, "\u2581\u043e\u043f\u0430": 1878, "\u2581\u043f\u043e\u044f\u0432\u0438": 1879, "\u043a\u043e\u043c.": 1880, "\u0442\u0441\u044f,": 1881, "\u2581\u043f\u0438\u0441\u0430": 1882, "\u2581\u043c\u043e\u0435\u0439": 1883, "\u0447\u0435\u0441\u043a\u0438\u0439": 1884, "\u0440\u043e\u0434\u0435": 1885, "\u2581\u043d\u0430\u0432\u0435\u0440": 1886, "\u2581\u0433\u043e\u0440\u043e\u0434": 1887, "\u0432\u0430\u0439": 1888, "\u2581\u043e\u0434\u0435": 1889, "\u0432\u0442\u0440\u0430": 1890, "\u2581\u0437\u043e\u043b\u043e": 1891, "\u2581\u0437\u0430\u043a\u0440\u044b": 1892, "\u0440\u0430\u0432": 1893, "\u0451\u0442": 1894, "\u0431\u0435\u0440": 1895, "\u2581\u043f\u043e\u0440\u043e": 1896, "\u2581\u0438\u0434\u0435": 1897, "?\u00a0\u2013": 1898, "\u2581\u0441\u043c\u044b": 1899, "\u2581\u043c\u043e\u0440": 1900, "\u2581\u0441\u043f\u043e\u043a\u043e\u0439": 1901, "\u0447\u0435\u0441\u0442\u0432\u043e": 1902, "\u0440\u0435\u0437": 1903, "\u0442\u0443\u0440": 1904, "\u0440\u044b\u0435": 1905, "\u0441\u0430.": 1906, "\u0432\u0430\u043b,": 1907, "\u0441\u0435\u043d": 1908, "\u043a\u043d\u0443": 1909, "\u0442\u0430\u043b\u0438": 1910, "\u2581\u0421\u043a\u043e": 1911, "\u0449\u0435\u0439": 1912, "\u2581\u043d\u0435\u043b\u044c": 1913, "\u0435\u0442\u0441\u044f.": 1914, "\u2581\u0418\u0432\u0430": 1915, "\u043b\u0435\u043d\u0438\u044f": 1916, "\u2581\u0427\u0435": 1917, "\u2581\u043e\u0449\u0443": 1918, "\u2581\u0418\u043d": 1919, "\u2581\u043f\u043e\u0432\u0435\u0440": 1920, "\u2581\u043b\u044e\u0434\u0435\u0439": 1921, "\u0432\u0448\u0435\u0433\u043e": 1922, "\u2581\u043f\u0438\u0441\u044c": 1923, "\u2581\u043a\u0430\u0436\u0434\u044b\u0439": 1924, "\u2581\u043a\u043e\u043b\u043e": 1925, "\u044e\u0442,": 1926, "\u0449\u0438\u0445": 1927, "\u0430,": 1928, "\u0432\u043b\u0435\u043d\u0438\u044f": 1929, "\u2581\u0441\u043e\u0437\u0434\u0430": 1930, "\u2581\u0434\u0430\u0432\u043d\u043e": 1931, "\u2581\u0414\u0438": 1932, "\u2581\u043f\u044f": 1933, "\u0440\u044b\u0439": 1934, "\u2581\u0432\u043e\u0437\u0432\u0440\u0430": 1935, "\u0442\u043e\u043a": 1936, "\u2581\u043c\u0435\u0441\u0442": 1937, "\u2581\u0422\u043e\u0433\u0434\u0430": 1938, "\u2581\u043f\u044f\u0442\u044c": 1939, "\u25818": 1940, "\u2581\u0434\u0435\u043b\u0435": 1941, "\u2581\u043a\u0430\u043a\u0438\u0435": 1942, "\u2581\u0424\u0435": 1943, "\u2581\u043a\u0442\u043e-": 1944, "\u0436\u0435,": 1945, "\u2581\u0437\u0430\u043d\u044f": 1946, "\u2581\u043f\u043e\u0436\u0430\u043b": 1947, "\u2581\u0445\u043e\u0442\u0435\u043b": 1948, "\u2581\u043e\u0442\u043d\u043e\u0448": 1949, "\u2581\u0441\u043b\u043e\u0432\u043e": 1950, "\u2581\u0441\u043f\u0443": 1951, "\u043d\u043e\u0435,": 1952, "\u0430\u043b.": 1953, "\u0445\u0440\u0430": 1954, "\u2581\u0441\u0430\u043c\u0438": 1955, "\u0446\u044b,": 1956, "\u0447\u0430\u0442\u044c": 1957, "\u2581\u043f\u0440\u043e\u0442\u0438": 1958, "\u0449\u0438\u0435": 1959, "\u0434\u044b.": 1960, "\u2581\u0445\u043e\u0447\u0443": 1961, "\u2581\u0431\u0435\u0441\u043f\u043e": 1962, "\u2581\u0441\u043e\u0431\u0430": 1963, "\u2581\u0447\u0438\u0442\u0430": 1964, "\u2581\u0442\u043e\u043c": 1965, "\u2581\u0443\u043d\u0438": 1966, "\u2581\u043e\u043d.": 1967, "\u043d\u043d\u043e\u0439": 1968, "\u0432\u0430\u0442\u044c,": 1969, "\u2581\u0441\u043e\u0431\u0441\u0442\u0432\u0435\u043d": 1970, "\u044c\u0435": 1971, "\u0433\u0430.": 1972, "\u043a\u043e\u043c\u0443": 1973, "\u2581\u0410\u043d\u0434": 1974, "\u0433\u0438\u0435": 1975, "\u2581\u043d\u0430\u0447\u0430\u043b": 1976, "\u0441\u0443\u0442": 1977, "\u2581\u043f\u043e\u043c\u0435": 1978, "\u2581\u043a\u0430\u043c": 1979, "\u043d\u0438\u043a\u0438": 1980, "\u2581\u043f\u0440\u0438\u0445\u043e\u0434\u0438": 1981, "\u2581\u0440\u0430\u0434\u0438": 1982, "\u0435\u043d\u043d\u043e\u0435": 1983, "\u0441\u0442\u0440\u0430\u043d": 1984, "\u0432\u0438\u0442\u044c": 1985, "\u043c\u0430.": 1986, "\u043b\u044b\u0445": 1987, "\u0445\u043e\u0432": 1988, "\u0447\u0430\u043b\u0438": 1989, "\u0442\u0443.": 1990, "\u2581\u043c\u0435\u0441\u044f": 1991, "\u2581\u0442\u043e\u043d": 1992, "\u0447\u043d\u043e\u0433\u043e": 1993, "\u044f\u0445": 1994, "\u0448\u0435,": 1995, "\u2581\u043f\u043e\u0442\u0435\u0440": 1996, "\u2581\u043d\u0435\u0442,": 1997, "\u2581\u0420\u043e\u0441\u0441\u0438": 1998, "\u2581\u0440\u044f\u0434\u043e\u043c": 1999, "\u0434\u0432\u0430": 2000, "\u2581\u0440\u0430\u0441\u043f\u043e": 2001, "\u043c\u0435\u0440\u0438": 2002, "\u2581\u0437\u043d\u0430\u044e,": 2003, "\u0433\u043b\u044f\u0434\u044b": 2004, "\u2581\u043d\u0435\u043f\u0440\u0438": 2005, "\u0432\u0430\u044e": 2006, "\u043d\u0438\u0446\u0430": 2007, "\u0436\u0438\u0442": 2008, "\u2581\u043c\u043e\u044f": 2009, "\u2581\u043a\u043e\u0442\u043e\u0440\u0443\u044e": 2010, "\u0440\u0435,": 2011, "\u0447\u0438\u043d": 2012, "\u2581\u0447\u0435\u043b\u043e\u0432\u0435\u043a\u0430": 2013, "\u2581\u0433\u043b\u0430\u0437": 2014, "\u2581\u041f\u043e\u0447\u0435\u043c\u0443": 2015, "\u2581\u0412\u0435\u0434\u044c": 2016, "\u2581\u0430\u0434": 2017, "\u0442\u0435.": 2018, "\u2581\u0441\u0430\u043c\u043e\u0433\u043e": 2019, "\u0447\u0438\u0442\u044c": 2020, "\u0447\u0430\u0441\u0442\u044c": 2021, "\u2581\u0441\u0442\u0430\u043b\u0438": 2022, "\u2581\u043f\u043e\u043a\u043e": 2023, "\u0449\u0443\u044e": 2024, "\u2581\u0440\u0443\u043a\u0443": 2025, "\u2581\u043f\u043e\u0432\u0442\u043e": 2026, "\u2581\u0413\u0430": 2027, "\u0448\u0435\u0435": 2028, "\u2581\u0441\u043d\u0435": 2029, "\u0449\u0435\u0433\u043e": 2030, "\u2581\u0434\u0435\u0439\u0441\u0442\u0432\u0438\u0442\u0435\u043b\u044c\u043d\u043e": 2031, "\u2581\u043f\u043e\u043c\u043e\u0449": 2032, "\u0441\u0442\u0432\u0430.": 2033, "\u0446\u0438\u044e": 2034, "\u2581\u041e\u0431": 2035, "\u2581\u0434\u0440\u043e": 2036, "\u2581\u0413\u043b\u0430": 2037, "\u2581\u043c\u044b\u0441\u043b\u0438": 2038, "\u2581\u043d\u0430\u0440\u043e": 2039, "\u2581\u0443\u043f\u043e": 2040, "\u2581\u043a\u043e\u043d\u0446\u0435": 2041, "\u044e\u0449\u0435\u0439": 2042, "\u0440\u043e\u043a": 2043, "\u0442\u0430\u044f": 2044, "\u0446,": 2045, "\u2581\u043d\u0430\u0447\u0438\u043d\u0430": 2046, "\u0435\u0442\u0435,": 2047, "\u2581\u0443\u0437\u043d\u0430": 2048, "\u2581\u0448\u043a\u043e": 2049, "\u043a\u0438\u043c\u0438": 2050, "\u2581\u0437\u043b\u043e": 2051, "\u2581\u043e\u0441\u043e\u0431\u0435\u043d\u043d\u043e": 2052, "\u0434\u0443\u0442": 2053, "\u044e\u0449\u0435\u0433\u043e": 2054, "\u2581\u0438\u0441\u0447\u0435": 2055, "\u0442\u0435\u043b\u0438": 2056, "\u2581\u043b\u044e\u0434\u0435": 2057, "\u0433\u0443,": 2058, "\u044b.": 2059, "\u0442\u044b\u0445": 2060, "\u043d\u043d\u044b\u0445": 2061, "\u043b\u044c.": 2062, "\u2581\u0440\u0435\u0437": 2063, "\u2581\u0437\u0430\u0442\u0435\u043c": 2064, "\u0441\u0442\u0443\u043f\u0430": 2065, "\u0435\u043a": 2066, "\u0432\u0435\u043d": 2067, "\u043d\u0430\u044f,": 2068, "\u044f\u0437\u0430": 2069, "\u258110": 2070, "\u2581\u043e\u0442\u043e": 2071, "\u2581\u043c\u0438\u0440": 2072, "\u0432\u0430\u043b\u043e\u0441\u044c": 2073, "\u043d\u044b\u043c.": 2074, "\u043d\u0438,": 2075, "\u2581\u043b\u0438\u0431\u043e": 2076, "\u2581\u0434\u0440\u0430": 2077, "\u2581i": 2078, "\u0441\u043a\u0438\u043c": 2079, "\u2581\u043d\u0430\u00a0": 2080, "\u043c\u0443.": 2081, "\u2581\u043e\u0431\u043d\u0430": 2082, "\u043d\u0438\u044f,": 2083, "\u2581\u0437\u0430\u0434\u0430": 2084, "\u2581\u0413\u0434\u0435": 2085, "\u2581\u0433\u043e\u0441\u0443": 2086, "\u0441\u044e": 2087, "\u2581\u0437\u0430\u043a\u043e": 2088, "\u0434\u043e\u0432\u0430": 2089, "\u2581\u0441\u043e\u0431\u0440\u0430": 2090, "\u2581\u0431\u043e\u0433\u0430": 2091, "\u2581\u041b\u043e": 2092, "\u2581\u043f\u0440\u0438\u0437\u043d\u0430": 2093, "\u2581\u0434\u043e\u043b\u0436\u043d\u044b": 2094, "\u2581\u0433\u043e\u043b\u043e\u0441": 2095, "\u2581H": 2096, "\u2581\u0432\u0435\u0441\u0435": 2097, "\u043d\u043a": 2098, "\u2581\u0437\u043e": 2099, "\u2581\u0432\u0441\u0435,": 2100, "\u2581\u0441\u0440\u0435\u0434\u0438": 2101, "\u0441\u0442\u0440\u0443": 2102, "\u044f\u043d": 2103, "\u0432\u043e\u0440\u043e": 2104, "\u2581p": 2105, "?..": 2106, "\u2581\u043a\u043e\u0441": 2107, "\u0432\u0430\u044f\u0441\u044c": 2108, "\u043c\u043e\u043b": 2109, "\u0432\u0430\u0442\u044c.": 2110, "\u0448\u0430\u0442\u044c": 2111, "\u2581\u0445\u0438": 2112, "\u2581\u0433\u043b\u0443\u0431\u043e": 2113, "\u2581\u0437\u0430\u0431\u043e": 2114, "\u2581\u041f\u0440\u0435": 2115, "\u0430\u043b\u044c\u043d\u044b\u0435": 2116, "\u2581\u043e\u0433\u043e": 2117, "\u0436\u0438\u043b": 2118, "\u2581\u0447\u0430\u0441\u0442\u043e": 2119, "\u0430.": 2120, "\u2581\u0448\u0438\u0440\u043e": 2121, "\u0447\u0435\u043d\u0438\u044f": 2122, "\u2581\u043f\u0440\u0438\u0433\u043e": 2123, "\u043d\u0435\u0447\u043d\u043e": 2124, "\u2581\u0432\u0438\u0434": 2125, "\u2581\u0437\u0443": 2126, "\u2581\u0440\u043e\u0434": 2127, "\u2581\u0432\u0435\u0447\u0435": 2128, "\u2581\u0434\u043e\u043b\u0436\u043d\u043e": 2129, "\u043f\u0438\u0441": 2130, "\u2581-\u00a0": 2131, "\u2581\u0441\u043b\u0443\u0447\u0438": 2132, "\u2581\u0441\u0442\u0430\u0440": 2133, "\u0430\u043b\u0430.": 2134, "\u2581\u0434\u043e\u043c\u043e": 2135, "\u0447\u0430\u0439": 2136, "\u043f\u043e\u043b\u043d\u0438": 2137, "\u2581\u0434\u0440\u0435": 2138, "\u2581\u0441\u043a\u043e\u043b\u044c\u043a\u043e": 2139, "\u2581\u0437\u0430\u043c\u0435\u0442\u0438": 2140, "\u0446\u0438\u0438,": 2141, "\u0433\u0438.": 2142, "\u0441\u0442\u0432\u0438\u0435": 2143, "\u2581\u0443\u043c\u0435": 2144, "\u043b\u0438\u0441\u044c,": 2145, "\u2581\u043a\u043e\u0440\u0430\u0431": 2146, "\u2581\u043e\u0442\u0432\u0435\u0442\u0438": 2147, "\u2581\u0432\u0438\u0434\u0435\u043b": 2148, "\u0442\u0441\u044f.": 2149, "?!": 2150, "\u2581\u0434\u043b\u0438\u043d": 2151, "\u2581\u0443\u043f\u0440\u0430": 2152, "\u0442\u043a\u0438": 2153, "\u0448\u043a\u0443": 2154, "\u2581\u0413\u043e\u0441\u043f\u043e": 2155, "\u0433\u043d\u0443": 2156, "\u2581\u041e\u0434\u043d\u0430\u043a\u043e": 2157, "\u2581\u0441\u043a\u0440\u044b": 2158, "\u2581\u043a\u043e\u0442\u043e\u0440\u043e\u0435": 2159, "\u2581\u0432\u043e\u0437\u0440\u0430": 2160, "\u2581\u0448\u0443": 2161, "\u2581\u0441\u0440\u0435\u0434": 2162, "\u2581\u043c\u0435\u0447": 2163, "\u2581\u043c\u043e\u0433\u0443\u0442": 2164, "\u2581\u0442\u0430\u043a\u0438\u0435": 2165, "\u0435\u043b\u044c": 2166, "\u0451\u043b": 2167, "\u2581\u043f\u0440\u0438\u0432\u044b": 2168, "\u2581\u043f\u0440\u0435\u0436\u0434\u0435": 2169, "\u2581\u043f\u0440\u043e\u0431": 2170, "\u2581\u043e\u0434\u0438": 2171, "\u2581\u0420\u0438": 2172, "\u2581\u0441\u043e\u043e\u0431": 2173, "\u2581\u043d\u0430\u0448\u0438": 2174, "\u0442\u0435\u043b\u0435\u0439": 2175, "\u2581\u0441\u0438\u0441\u0442": 2176, "\u2581\u0412\u0435\u0440": 2177, "\u043c\u0435\u0440,": 2178, "\u043b\u0435\u043d\u0438\u0435": 2179, "\u0446\u0435,": 2180, "\u2581\u0440\u0430\u0441\u0441\u043a\u0430\u0437\u044b": 2181, "\u2581\u0434\u0432\u043e": 2182, "an": 2183, "\u2581\u043a\u0430\u043f\u0438": 2184, "\u2581\u0431\u0443\u043c\u0430": 2185, "\u2581\u0447\u0435\u0442\u044b\u0440\u0435": 2186, "\u2581\u043f\u0440\u043e\u0448\u043b\u043e": 2187, "\u2581\u0437\u0432\u0435\u0437": 2188, "\u2581\u0442\u0430\u0439": 2189, "\u0432\u0430\u0440": 2190, "\u2581\u0441\u0443\u0449\u0435\u0441\u0442\u0432\u043e": 2191, "\u2581\u0440\u043e\u0434\u0438": 2192, "\u0442\u0438\u043b\u0441\u044f": 2193, "\u0434\u0435\u0440\u0436\u0430": 2194, "\u2581\u0435\u0434\u0438\u043d": 2195, "\u0432\u043b\u0435\u043d\u0438\u0435": 2196, "\u2581\u0440\u0430\u0437\u0443": 2197, "\u2581\u043f\u0440\u043e\u0441": 2198, "\u0435\u0440\u043a": 2199, "\u2581\u0443\u0434\u0438\u0432\u0438": 2200, "\u043b\u0435\u0442\u0435": 2201, "\u2581\u043e\u0442\u0435\u0446": 2202, "\u0445\u043e\u0442": 2203, "\u0432\u044b,": 2204, "\u2581\u0441\u043e\u0441\u0435": 2205, "\u043b\u0435\u043d\u044b": 2206, "\u2581\u043f\u043e\u044f": 2207, "\u0432\u043e\u0437\u044c": 2208, "\u043b\u043e\u0441\u044c,": 2209, "\u2581\u0441\u043e\u0437\u043d\u0430": 2210, "\u2581\u043c\u043d\u043e\u0439": 2211, "\u2581\u0442\u043e\u043c\u0443": 2212, "\u2581\u0441\u0442\u0440\u0430\u0448": 2213, "\u2581\u043d\u0435\u0442.": 2214, "\u2581\u0441\u0442\u0430\u0442\u044c": 2215, "\u2581\u043f\u0440\u0438\u0448": 2216, "\u2581\u043a\u0440\u0430\u0441\u0438": 2217, "\u0441\u0442\u0432\u0443\u0435\u0442": 2218, "\u2581\u043a\u0440\u0430\u0439": 2219, "\u2581\u043f\u0440\u0435\u0434\u043f\u043e": 2220, "\u2581\u043d\u0435\u0438\u0437": 2221, "\u2581\u0417\u0435\u043c": 2222, "\u043d\u0438\u0435,": 2223, "\u2581\u043e\u0431\u044f\u0437\u0430": 2224, "\u2581\u0434\u043e\u0431": 2225, "\u2581\u0432\u0441\u043f\u043e\u043c\u043d\u0438": 2226, "\u043a\u0441\u0438": 2227, "\u0447\u0435\u043c,": 2228, "\u2581\u043c\u0435\u0434\u043b\u0435\u043d\u043d\u043e": 2229, "\u2581t": 2230, "\u2581\u0434\u0440\u0443\u0433\u0438\u0445": 2231, "\u2581\u0441\u0435\u0440\u0434\u0446\u0435": 2232, "\u0442\u043e\u0447\u043d\u043e": 2233, "\u043d\u0438\u043a\u043e\u0432": 2234, "\u2581\u043d\u0430\u043f\u043e": 2235, "\u2581\u043e\u0444\u0438": 2236, "\u2581\u044f\u0440": 2237, "\u2581\u0442\u0430\u043a\u0438\u043c": 2238, "\u2581\u0432\u043e\u0441\u043a": 2239, "\u25819": 2240, "\u2581\u0441\u0442\u043e\u0438\u0442": 2241, "\u2581\u0431\u0443\u0434\u0443\u0442": 2242, "\u2581\u043f\u0440\u0435\u0434\u0441\u0442\u0430\u0432\u043b\u044f": 2243, "\u0432\u043b\u0438": 2244, "\u2581\u043f\u0440\u043e\u0442\u044f": 2245, "\u2581\u0412\u043e\u0437": 2246, "\u043d\u043a\u0430": 2247, "en": 2248, "\u2581\u0440\u0430\u0441\u0441\u043a\u0430\u0437": 2249, "\u0434\u0435\u0448\u044c": 2250, "\u2581\u043c\u0433": 2251, "\u2581\u0441\u0432\u0435\u0440": 2252, "\u0441\u0441\u0435": 2253, "\u043b\u0430\u0441\u044c,": 2254, "\u2581\u0433\u043e\u0440\u044f": 2255, "\u0449\u0435\u043c": 2256, "\u2581\u043f\u044f\u0442": 2257, "\u2581\u0437\u0430\u043a\u043e\u043d": 2258, "\u044e\u0449\u0438\u043c": 2259, "\u2581\u043c\u043d\u0435,": 2260, "\u0442\u0435\u043b\u044c\u043d\u044b\u0439": 2261, "\u2581\u0441\u0443\u0434\u044c": 2262, "\u2581\u0431\u0440\u043e\u0441\u0438": 2263, "\u2581\u0440\u0430\u0437\u043b\u0438": 2264, "\u043d\u043a\u0438": 2265, "\u2581\u0441\u043e\u0432\u0435\u0442": 2266, "\u0440\u043e\u0432\u044c": 2267, "\u0443.": 2268, "\u0441\u044f.": 2269, "\u2581\u043f\u043e\u0441\u043b\u0435\u0434\u043d\u0438": 2270, "\u0440\u0435\u0435": 2271, "\u2581\u043d\u0430\u0431\u043b\u044e": 2272, "\u2581\u0441\u0442\u0430\u043d\u043e\u0432\u0438": 2273, "\u2581\u0440\u0430\u0437\u0432\u0438": 2274, "\u2581\u0441\u043a\u0430\u0437\u0430\u0442\u044c,": 2275, "\u0441\u0442\u0432\u043e\u043c": 2276, "\u0442\u0440\u0443": 2277, "\u043d\u0435\u0435,": 2278, "\u0440\u043e\u044f\u0442": 2279, "\u2581\u0437\u0430\u0432\u0438": 2280, "\u0433\u043e\u043c": 2281, "\u2581\u0432\u043d\u0443\u0442": 2282, "\u2581\u043a\u0440\u043e\u043c\u0435": 2283, "\u043b\u044c\u0442\u0430": 2284, "\u0430\u043b\u044c\u043d\u043e\u0439": 2285, "\u2581\u0433\u043e\u0432\u043e\u0440\u0438\u043b": 2286, "\u2581\u043d\u0443\u0436": 2287, "\u0433\u0430\u043b": 2288, "\u2581\u043d\u0435\u0437\u0430": 2289, "\u043b\u043e\u0436": 2290, "\u2581\u0441\u043e\u0431\u043e": 2291, "\u2581\u043f\u0435\u0440\u0432\u044b\u0439": 2292, "\u2581\u0441\u0434\u0435\u043b\u0430\u0442\u044c": 2293, "\u0447\u0430\u0435\u0442": 2294, "es": 2295, "\u0446\u0435\u0432": 2296, "\u2581\u0442\u043e\u0439": 2297, "\u043a\u043e\u043c\u044b": 2298, "\u2581\u043d\u0435\u0431\u043e\u043b\u044c": 2299, "\u2581\u043f\u0440\u0435\u0434\u0441\u0442\u0430\u0432\u0438": 2300, "\u043b\u0435,": 2301, "\u2581\u0442\u0435\u043c,": 2302, "\u2581\u043f\u043e\u043c": 2303, "\u2581\u0440\u0435\u0448": 2304, "\u2581\u0422\u0430\u043c": 2305, "\u2581\u0440\u0443\u043a\u043e": 2306, "\u043d\u0438\u044f.": 2307, "\u0440\u0438\u0442\u044c": 2308, "\u2581\u0442\u044b,": 2309, "\u2581\u041a\u0430\u0440": 2310, "\u0432\u0448\u0435\u0439": 2311, "on": 2312, "\u0451\u0440": 2313, "\u2581\u043a\u0430\u043a-": 2314, "\u2581\u0441\u0435\u043c\u044c": 2315, "\u0440\u0438\u0438": 2316, "\u2581\u0434\u0435\u0432\u043e": 2317, "\u2581\u0434\u0432\u0435\u0440\u0438": 2318, "\u2581\u0441\u043f\u0440\u0430\u0448\u0438": 2319, "\u2581\u0431\u043e\u044f": 2320, "\u0446\u0438\u0438.": 2321, "\u2581\u0425\u0430": 2322, "\u2581\u0435\u0433\u043e.": 2323, "\u2581\u043f\u043e\u0441\u0442\u043e\u044f": 2324, "\u2581\u043d\u0435\u0432\u0435": 2325, "\u2581\u043c\u0435\u043d\u044f.": 2326, "\u0448\u043a\u0430,": 2327, "\u2581\u0441\u044a": 2328, "\u2581\u0424\u0438": 2329, "\u043a\u043e.": 2330, "\u2581\u043a\u0430\u0440\u0442\u0438": 2331, "\u2581\u043c\u043e\u0433\u043b\u0430": 2332, "\u0433\u0440\u0430\u0444\u0438": 2333, "\u043a\u043b\u044f": 2334, "\u2581\u0434\u0430\u043b\u044c\u0448\u0435": 2335, "\u2581\u041c\u043e\u0441\u043a": 2336, "\u0432\u0448\u0438\u0441\u044c,": 2337, "\u0449\u0435\u043d\u0438\u0435": 2338, "\u258120": 2339, "\u2581\u0434\u043e\u0431\u0430": 2340, "\u2581\u0438\u0441\u0447\u0435\u0437": 2341, "\u2581\u0411\u043e\u043b\u044c": 2342, "\u2581\u0441\u0442\u043e\u043b": 2343, "\u0442\u0438.": 2344, "\u0440\u0438\u044f": 2345, "\u2581\u0415\u0449\u0435": 2346, "\u043d\u0438\u0445": 2347, "\u2581\u0445\u0440\u0430": 2348, "\u2581\u0440\u0430\u0437\u043e": 2349, "\u2581\u0441\u043a\u0443": 2350, "\u043d\u0438\u0435.": 2351, "\u043b\u043e\u0433\u0438": 2352, "\u2581\u0437\u0430\u0449\u0438": 2353, "\u2581\u043f\u043e\u0441\u0442\u0435": 2354, "\u0441\u0442\u0432\u043e,": 2355, "\u2581\u0425\u043e\u0440\u043e": 2356, "\u0432\u0430\u044e\u0442\u0441\u044f": 2357, "\u043b\u0435\u0433": 2358, "\u2581\u043f\u0440\u0435\u0432\u0440\u0430": 2359, "\u2581\u0441\u0442\u0430\u043b\u0430": 2360, "\u0447\u0443\u0432\u0441\u0442\u0432\u043e": 2361, "\u2581\u041d\u0438\u043a\u043e\u043b\u0430": 2362, "\u043b\u0438\u0441\u044c.": 2363, "\u2581\u043f\u0442\u0438": 2364, "\u043d\u0438\u0446\u0435": 2365, "\u0436\u044c": 2366, "\u2581\u0441\u043f\u0435\u0446\u0438": 2367, "\u2581\u043c\u0430\u0440": 2368, "\u2581\u0445\u0443\u0434\u043e": 2369, "\u0435\u043d\u044f": 2370, "\u0440\u044b.": 2371, "\u2581\u041d\u0435\u0442": 2372, "\u2581\u0432\u044b\u0441": 2373, "\u2581\u0433\u043b\u0430\u0432": 2374, "\u2581\u043c\u043e\u043b\u0447\u0430": 2375, "\u0440\u0435\u043c\u0435\u043d\u043d\u043e": 2376, "\u2581\u043d\u0435\u043b\u044c\u0437\u044f": 2377, "\u2581\u0414\u0436": 2378, "\u2581\u043d\u0435\u043c\u0443": 2379, "\u0432\u0438\u043d": 2380, "\u2581\u0440\u0430\u043d\u044c": 2381, "\u2581\u043e\u0442\u043f\u0440\u0430\u0432\u0438": 2382, "\u0434\u043d\u044b\u0439": 2383, "\u2581\u0434\u0435\u043b": 2384, "\u2581\u0414\u0436\u0435": 2385, "\u2581\u0437\u0432\u043e": 2386, "\u2581\u043d\u0435\u043c\u0435": 2387, "\u2581\u0437\u0430\u0432\u0442\u0440\u0430": 2388, "\u2581\u043c\u0433\u043d\u043e\u0432": 2389, "\u0440\u043e\u0432\u0430": 2390, "\u2581\u0410\u043b\u0435\u043a\u0441\u0430": 2391, "\u0433\u0440\u0430\u043c": 2392, "\u043d\u0430\u043c\u0438": 2393, "\u0430\u043b\u044c\u043d\u044b\u0445": 2394, "\u2581\u041a\u0440\u0430": 2395, "\u2581\u043d\u0430\u0440\u0443": 2396, "\u043d\u043e\u0432\u044c": 2397, "\u0431\u0440\u044f": 2398, "\u0436\u0435\u043b\u0438": 2399, "\u0433\u043e\u0432": 2400, "\u2581\u0434\u043e\u0431\u0440\u043e": 2401, "\u2581\u0445\u0430\u0440\u0430\u043a": 2402, "\u0442\u044b\u043c": 2403, "\u2581\u0441\u043e\u043c": 2404, "\u044c\u0435\u0437": 2405, "\u2581\u043b\u044e\u0431\u043e\u0432\u044c": 2406, "\u2581\u0441\u0435\u0440\u0435": 2407, "\u2581\u0443\u0432\u0438\u0434\u0435\u043b": 2408, "\u2581\u0441\u0442\u0430\u0440\u0430": 2409, "\u0432\u0440\u043e": 2410, "\u2581\u043a\u0430\u043a\u0430\u044f": 2411, "\u2581\u0431\u043b\u0438\u0437": 2412, "\u0442\u0435\u043b\u044c\u043d\u043e,": 2413, "\u043b\u0438\u043a": 2414, "\u2581\u0418\u043b\u0438": 2415, "\u0432\u043e\u0440\u0430": 2416, "\u2581\u043f\u0440\u043e\u0446\u0435": 2417, "\u043f\u043e\u043b\u043d\u044f": 2418, "\u2581\u043f\u043e\u043f\u0430": 2419, "\u2581\u043f\u0435\u0441": 2420, "\u043c\u0438\u0440\u0430": 2421, "\u2581\u0435\u0434\u0432\u0430": 2422, "\u2581\u0438\u0441\u043a\u0443\u0441": 2423, "\u0438\u0445": 2424, "\u0436\u0438\u0442\u044c": 2425, "\u0434\u0435\u043b\u044f": 2426, "\u043c\u043e\u0442\u0440\u044f": 2427, "\u2581\u0440\u0430\u0437\u0432\u0435": 2428, "\u2581\u0436\u0435\u043b": 2429, "\u2581\u041f\u0435": 2430, "\u2581\u043d\u0435\u043e\u0431\u0445\u043e\u0434\u0438\u043c\u043e": 2431, "\u0433\u0430\u044f": 2432, "\u2581\u043f\u0430\u0440\u0430": 2433, "\u0434\u0435\u0441\u044f": 2434, "\u043f\u043e\u043b\u043d\u0435": 2435, "\u043c\u0430\u0442\u0440\u0438": 2436, "\u2581\u0421\u0435\u0439": 2437, "\u2581\u043a\u0430\u0436\u0434\u043e": 2438, "\u258115": 2439, "\u2581\u043a\u0430\u0436\u0435\u0442\u0441\u044f,": 2440, "\u2581\u043c\u043e\u0436\u0435\u0442,": 2441, "\u2581\u0441\u043b\u0443\u0447\u0430\u0439": 2442, "\u0436\u0435\u0448\u044c": 2443, "\u2581\u043a\u043e\u0440\u0438": 2444, "\u0435\u043c\u0430": 2445, "\u2581\u0430\u043b": 2446, "\u2581\u0432\u043d\u0438\u0437": 2447, "\u0440\u043e\u0432\u0430\u0442\u044c": 2448, "\u2581\u043f\u0440\u043e\u0438\u0437\u043e": 2449, "\u2581\u043d\u0435\u043d\u0430": 2450, "\u2581\u043d\u0430\u0448\u0435\u0439": 2451, "\u2581\u0422\u0443\u0442": 2452, "\u043d\u0438\u0446\u044b": 2453, "\u0445\u043e\u043c": 2454, "\u0435\u0442\u0430": 2455, "\u2581\u0441\u0442\u043e\u044f\u043b": 2456, "\u0442\u043e\u043c,": 2457, "\u2581\u043c\u0435\u043d\u0435": 2458, "\u2581\u0432\u0435\u0447\u0435\u0440": 2459, "\u2581\u0410\u043b\u0435\u043a\u0441\u0430\u043d\u0434": 2460, "\u2581\u043f\u0440\u0435\u0436": 2461, "\u2581\u043f\u0440\u0438\u0437": 2462, "\u2581\u043c\u043e\u0433\u043b\u0438": 2463, "\u2581\u0443\u0441\u0442\u0440\u043e": 2464, "\u2581\u043d\u0438\u043c\u0438": 2465, "\u2581\u043f\u0440\u043e\u0444\u0435": 2466, "\u0448\u0435\u0434": 2467, "\u0448\u0435\u043c": 2468, "\u0446.": 2469, "\u0446\u043e\u0432": 2470, "\u2581\u0442\u0430\u043a\u043e\u0433\u043e": 2471, "\u0436\u0434\u0435\u043d": 2472, "\u2581\u0421\u0442\u043e": 2473, "\u2581\u0418\u043c": 2474, "\u0441\u0438\u0442": 2475, "\u0447\u0438\u0432\u043e": 2476, "\u2581\u043d\u043e\u0433\u0430": 2477, "\u0449\u0435\u043d\u0438\u044f": 2478, "\u2581\u043e\u0434\u043d\u0443": 2479, "\u043f\u0440\u0430\u0432": 2480, "\u2581\u0443\u0434\u043e": 2481, "\u2581\u0441\u0442\u0435\u043d": 2482, "\u2581\u043c\u0443\u0437\u044b": 2483, "\u2581\u0432\u0441\u0435\u0439": 2484, "\u2581\u043c\u0443\u0436\u0447\u0438": 2485, "\u043b\u0430\u0434": 2486, "\u2581\u0433\u0440\u044f": 2487, "\u0442\u043e\u0447": 2488, "\u2581\u043e\u043a\u0440\u0443": 2489, "\u2581\u043a\u043e\u0442\u043e\u0440\u043e\u043c": 2490, "\u2581\u0447\u0435\u043b\u043e\u0432\u0435\u043a,": 2491, "\u2581\u043c\u0435\u043d\u044c": 2492, "\u043b\u044c\u043d\u043e": 2493, "\u2581\u043e\u0442\u0440\u0430": 2494, "\u0439\u0434\u0435\u0442": 2495, "\u2581\u043e\u043a\u043e\u043d": 2496, "\u0437\u0443\u043b\u044c\u0442\u0430": 2497, "\u043b\u0430\u0441\u044c.": 2498, "\u0433\u0443.": 2499, "\u2581\u043d\u0430\u0437\u0430\u0434": 2500, "\u2581\u0433\u043e\u043b\u0443": 2501, "\u043f\u043b\u044b": 2502, "\u2581\u0433\u0440\u043e\u043c": 2503, "\u0435\u043d\u0435\u0440\u0430": 2504, "\u0442\u0438\u0439": 2505, "\u043b\u0438\u0442": 2506, "\u0440\u043e\u0432.": 2507, "\u2581\u043a\u043e\u043b\u0435": 2508, "\u2581\u0441\u0442\u043e\u0440\u043e\u043d\u0443": 2509, "\u2581\u043f\u0440\u0435\u043a\u0440\u0430\u0441": 2510, "\u043b\u0435\u0434": 2511, "\u2581\u043b\u0438\u0442\u0435\u0440\u0430": 2512, "\u2581\u0438\u0434\u0435\u0442": 2513, "\u044e\u0449\u0435\u0435": 2514, "\u2581\u0441\u043c\u043e\u0442\u0440\u0438": 2515, "\u2581\u043c\u043e\u0435\u0433\u043e": 2516, "\u2581\u0443\u0434": 2517, "\u2581\u0438\u0441\u043f\u044b": 2518, "\u2581\u0441\u0447\u0430\u0441\u0442\u044c": 2519, "\u043f\u044f": 2520, "\u2581\u0434\u043e\u0441\u0442\u0438": 2521, "\u0430\u043b\u044c\u043d\u044b\u0439": 2522, "\u0440\u0435.": 2523, "\u2581\u0441\u0432\u043e\u0435\u043c": 2524, "\u2581\u043d\u044b": 2525, "\u2581\u0431\u043e\u043b\u044c\u0448\u043e\u0439": 2526, "\u2581\u0447\u0442\u043e\u0431": 2527, "\u2581\u0441\u043b\u0443\u0447\u0430\u0435": 2528, "\u2581\u041a\u043e\u043d": 2529, "\u043b\u0435\u0442\u0430": 2530, "\u0436\u0435\u043d\u0438\u0438": 2531, "\u2581\u043e\u0448\u0438": 2532, "\u0447\u0430\u0441\u0442\u043b\u0438": 2533, "\u0441\u0442\u0430,": 2534, "\u0440\u043e\u043d": 2535, "\u2581\u041f\u043e\u044d": 2536, "\u0434\u044f\u0442": 2537, "\u2581\u0441\u043a\u0430\u0437\u0430\u0442\u044c": 2538, "\u043b\u044c\u0437\u0443": 2539, "\u043f\u0440\u043e\u0447\u0435\u043c,": 2540, "\u2581\u043a\u0432\u0430\u0440\u0442\u0438": 2541, "\u2581\u043f\u0440\u043e\u0442\u0438\u0432\u043e": 2542, "\u2581\u043e\u043f\u0443": 2543, "\u043f\u044c": 2544, "\u2581\u0434\u0435\u043b\u0430\u0442\u044c": 2545, "\u2581\u0441\u043b\u044b": 2546, "in": 2547, "\u043d\u0430\u0445": 2548, "\u043b\u0451": 2549, "\u2581\u0433\u043e\u0441\u0443\u0434\u0430\u0440": 2550, "\u2581\u0438\u0434": 2551, "\u0436\u0435\u043c": 2552, "\u2581\u043a\u0440\u0435\u043f": 2553, "\u2581\u0432\u044b\u0433\u043b\u044f": 2554, "\u2581\u0432\u0435\u0440\u043d\u0443": 2555, "\u2581\u0432\u0441\u0435-": 2556, "\u2581\u0441\u043e\u0433\u043b\u0430\u0441\u0438": 2557, "\u2581\u0442\u0430\u043a\u0438\u0445": 2558, "\u2581\u043f\u043e\u044d\u0442\u043e\u043c\u0443": 2559, "\u2026\u00bb": 2560, "\u2581\u0438\u0441\u0442\u0438": 2561, "\u2581\u0434\u0435\u0440\u0435\u0432": 2562, "\u2581\u0444\u0443": 2563, "\u2581\u0427\u0443": 2564, "\u0434\u043d\u043e\u0439": 2565, "\u2581s": 2566, "\u2581\u043a\u0430\u043a\u043e\u0435": 2567, "\u2581\u0447\u0430\u0441\u0442\u044c": 2568, "\u2581\u043d\u0430\u0438": 2569, "\u043b\u0438\u044f": 2570, "\u2581\u043c\u043e\u0435": 2571, "\u2581\u0442\u0435\u043b\u043e": 2572, "\u2581\u043d\u0435\u0432\u043e\u0437": 2573, "\u0449\u0435\u0435": 2574, "\u2581\u043f\u0440\u0438\u0447\u0438": 2575, "\u0440\u0443,": 2576, "\u0447\u0438,": 2577, "\u0441\u044b,": 2578, "\u2581\u043b\u0430\u0434\u043e": 2579, "\u2581\u0433\u0430\u0437": 2580, "\u2581\u0433\u043e\u043b\u043e\u0432\u043e": 2581, "\u0435\u0434\u0438": 2582, "\u2581\u0441\u00a0": 2583, "\u0432\u044b\u043c\u0438": 2584, "\u2581\u0414\u0430\u0436\u0435": 2585, "\u2581\u0437\u0430\u043f\u0438": 2586, "\u2581\u0434\u0440\u0443\u0433\u0438\u0435": 2587, "\u0440\u0438\u0439": 2588, "\u2581\u0432\u043d\u043e\u0432\u044c": 2589, "\u2581\u044d\u0442\u043e\u043c\u0443": 2590, "\u2581\u0441\u0435\u043a\u0443": 2591, "\u2581\u0437\u0430\u0441": 2592, "\u043b\u044c\u044f": 2593, "\u2581\u0421\u0435\u0439\u0447\u0430\u0441": 2594, "\u043d\u0438\u043b": 2595, "\u043a\u0430\u043c": 2596, "\u2581\u043f\u043e\u0447\u0443\u0432\u0441\u0442\u0432\u043e": 2597, "\u0431\u0440\u0438": 2598, "\u2581\u0433\u0440\u0443\u043f": 2599, "\u2581\u043c\u0438\u043d\u0443\u0442": 2600, "\u043d\u0430\u0447\u0435": 2601, "\u2581\u0440\u0430\u0441\u0441\u043a\u0430": 2602, "\u043a\u043e\u0432\u0430": 2603, "\u043b\u0430\u044f": 2604, "\u043b\u0430\u043d": 2605, "\u2581\u0445\u043b\u0435": 2606, "\u2581\u043d\u0435\u043e\u0436\u0438\u0434\u0430": 2607, "\u2581\u0442\u043e\u0432\u0430\u0440\u0438": 2608, "\u2581\u0441\u0434\u0435\u043b\u0430\u043b": 2609, "\u0447\u043d\u0430\u044f": 2610, "\u0440\u043e\u043c,": 2611, "\u2581\u0441\u043e\u043b\u0434\u0430": 2612, "\u2581\u0441\u0430\u043c\u043e\u0439": 2613, "\u043d\u0438\u0442\u044c": 2614, "\u2581\u043e\u043d\u0430,": 2615, "\u0442\u043e\u0432,": 2616, "\u2581\u0441\u0445\u0432\u0430": 2617, "\u043d\u0438\u043a,": 2618, "\u2581\u043f\u043e\u0441\u0442\u0430": 2619, "\u2581\u0442\u0430\u043c,": 2620, "\u0445\u0435": 2621, "\u2581\u043f\u043b\u0430\u043d\u0435\u0442": 2622, "\u043b\u043e\u0441\u044c.": 2623, "\u2581\u0437\u0435\u043c\u043b\u044e": 2624, "\u2581\u0442\u0435\u043c\u043d\u043e": 2625, "\u0447\u0435\u0439": 2626, "\u0436\u0434\u0435\u043d\u0438\u044f": 2627, "\u2581\u043d\u0430\u0440\u043e\u0434": 2628, "\u0437\u0430\u0442\u044c": 2629, "\u2581\u0427\u0430": 2630, "\u0431\u0432\u0438": 2631, "\u0442\u0438\u0435": 2632, "\u0430\u043b\u0438.": 2633, "\u0432\u0430\u0439\u0442\u0435": 2634, "\u043d\u043e\u0433\u043e,": 2635, "\u2581\u0413\u0443": 2636, "\u043d\u0438.": 2637, "\u0448\u0435\u043c\u0443": 2638, "\u2581.": 2639, "\u043f\u0440\u0438\u043c\u0435\u0440,": 2640, "\u2581\u0432\u043e\u0441\u0442\u043e": 2641, "\u043d\u0438\u0435\u043c": 2642, "\u0440\u043e\u0432,": 2643, "\u2581\u0410.": 2644, "\u043d\u0443\u043b\u0438": 2645, "\u043d\u044f\u044f": 2646, "\u2581\u043f\u0440\u0430\u0432\u043e": 2647, "\u2581\u0417\u0434\u0435\u0441\u044c": 2648, "\u2581\u043c\u0435\u0440": 2649, "\u2581\u0421\u0442": 2650, "\u043f\u043b\u0438": 2651, "\u0434\u0430\u0435\u0442": 2652, "\u2581\u0413\u0435": 2653, "\u2581\u0441\u0430\u043c\u044b\u0439": 2654, "\u0433\u043b\u043e": 2655, "\u2581\u043f\u043e\u0442\u0440\u0435": 2656, "\u043d\u0446\u0438": 2657, "\u0435\u0439.": 2658, "\u2581\u0438\u043d\u043e\u0433\u0434\u0430": 2659, "\u2581\u0437\u043d\u0430\u043b,": 2660, "\u043d\u043e\u0441\u0442\u044c\u044e": 2661, "\u043c\u0435\u044f": 2662, "\u0434\u043e\u043a": 2663, "\u2581\u0441\u043a\u0432\u043e\u0437\u044c": 2664, "\u2581X": 2665, "\u2581\u044d\u0442\u043e,": 2666, "\u2581\u0432\u0437\u044f\u043b": 2667, "\u2581\u043a\u0438\u0432": 2668, "\u2581\u0447\u0430\u0441\u0442\u0438": 2669, "\u2581\u0431\u0435\u0437\u043e": 2670, "\u0434\u0435,": 2671, "\u2581\u0444\u0440\u0430\u043d": 2672, "\u2581\u043f\u043b\u043e\u0445\u043e": 2673, "\u2581\u0431\u0435\u0437\u0443": 2674, "\u2581\u0443\u0447": 2675, "\u2581\u0441\u0430\u043c\u043e\u0435": 2676, "\u0440\u0438\u0442": 2677, "\u2581\u043e\u0441\u0442\u0440\u043e": 2678, "\u2581\u043f\u0440\u0438\u0434": 2679, "\u2581\u043f\u0440\u043e\u0438\u0437\u043d\u0435\u0441": 2680, "\u2581\u0432\u0441\u043a\u043e": 2681, "\u2581\u043f\u0441\u0438": 2682, "\u258112": 2683, "\u2581\u043f\u044b\u0442\u0430": 2684, "\u2581\u0441\u043a\u0430\u0437\u0430\u043b:": 2685, "\u0432\u043d\u043e\u0435": 2686, "\u2581\u043a\u043d\u044f": 2687, "\u2581\u0441\u0442\u043e\u0440\u043e\u043d\u044b": 2688, "\u2581\u0437\u0430\u043a\u043b\u044e": 2689, "\u0434\u043e\u043c,": 2690, "\u0430\u043d\u0442\u0430": 2691, "\u2581\u0440\u0435\u0437\u0443\u043b\u044c\u0442\u0430": 2692, "\u0431\u0435\u043d": 2693, "\u2581\u043f\u043e\u0432\u0435": 2694, "\u2581\u0434\u043e\u0432\u043e\u043b\u044c\u043d\u043e": 2695, "\u2581\u0433\u043e\u0432\u043e\u0440": 2696, "\u043c\u0438\u043d": 2697, "\u0432\u0448\u0430\u044f": 2698, "\u2581\u0442\u0430\u043a\u0430\u044f": 2699, "\u0446\u0435\u043c": 2700, "\u0433\u0435\u043d": 2701, "\u0449\u0438\u043c": 2702, "\u2581\u043f\u0440\u0438\u0431\u043b\u0438": 2703, "\u2581\u0441\u043c\u0443": 2704, "\u2581\u043e\u0445\u043e": 2705, "\u0448\u0438\u043d": 2706, "\u044e\u0442.": 2707, "\u2581\u0432\u044b\u0448\u0435\u043b": 2708, "\u2581\u043f\u043e\u0441\u043c\u043e\u0442\u0440\u0435\u043b": 2709, "\u2581\u0427\u0435\u0440\u0435\u0437": 2710, "\u2581a": 2711, "\u2581\u043d\u0430\u043f\u0438\u0441\u0430": 2712, "\u2581\u043a\u0430\u0431\u0438": 2713, "\u0440\u0435\u043c\u0435\u043d": 2714, "\u2581\u0441\u0432\u043e\u0438\u043c\u0438": 2715, "\u0430\u043b\u0441\u044f,": 2716, "\u2581\u043c\u0435\u0440\u0442": 2717, "\u2581\u0431\u044b\u043b\u043e,": 2718, "\u2581\u043d\u0435\u0431\u0435": 2719, "\u2581\u043e\u043a\u043e\u043b\u043e": 2720, "\u0434\u043d\u043e.": 2721, "\u2581\u0436\u0438\u0442\u044c": 2722, "\u2581\u0434\u0443\u0448\u0438": 2723, "\u043a\u043b\u0438": 2724, "\u2581\u041d\u0430\u0434\u043e": 2725, "\u043b\u044f,": 2726, "\u2581\u0431\u044b\u043b\u043e.": 2727, "\u043c\u0430\u0445": 2728, "\u2581\u0443\u0447\u0430": 2729, "\u2581\u043f\u043e\u0441\u0442\u0430\u0432\u0438": 2730, "\u0442\u0430\u043b\u044c": 2731, "\u043b\u0435.": 2732, "\u0447\u043d\u044b\u043c": 2733, "\u043c\u044b\u0448": 2734, "\u2581\u043f\u043e\u0442\u0435\u0440\u044f": 2735, "\u2581\u043f\u043e\u043f\u044b\u0442": 2736, "\u0440\u0438\u043d": 2737, "\u2581\u043f\u043e\u0436\u0430\u043b\u0443": 2738, "\u2581\u043c\u0438\u043c\u043e": 2739, "\u2581\u0432\u043f\u043e\u043b\u043d\u0435": 2740, "\u0440\u0435\u0442": 2741, "?\u00bb": 2742, "\u2581\u0437\u0430\u0445\u043e": 2743, "\u2581\u043f\u043e\u043c\u043d\u0438": 2744, "\u2581\u043b\u044e\u0431\u0432\u0438": 2745, "\u2581\u043f\u043e\u0441\u0435": 2746, "\u2581\u0443\u0442\u0440\u0430": 2747, "\u2581\u043d\u043e\u0433\u0438": 2748, "\u2581\u044d\u043d\u0435\u0440": 2749, "\u0447\u0438\u043a": 2750, "\u2581\u043b\u043e\u0448\u0430": 2751, "\u0442\u0435\u043b\u044c\u043d\u043e\u0439": 2752, "\u2581\u0412\u043b\u0430": 2753, "\u0432\u0438\u043b\u0438": 2754, "\u043d\u044b\u0445,": 2755, "\u2581\u043f\u043e\u0434\u0443\u043c\u0430\u043b": 2756, "\u043b\u043a\u0430": 2757, "\u2581\u0438\u0441\u043f\u0443": 2758, "\u043d\u0435\u0432": 2759, "\u0442\u043e\u043d": 2760, "\u2581\u041a\u0440\u043e": 2761, "\u2581\u043f\u0440\u043e\u0431\u043b\u0435\u043c": 2762, "\u0437\u0430\u043d": 2763, "\u2581[": 2764, "\u2581\u0422\u0443": 2765, "\u2581\u0434\u043e\u043c": 2766, "\u043d\u043e\u043c\u0443": 2767, "\u0447\u0438\u0435": 2768, "\u2581\u0438\u0441\u043f\u043e\u043b\u044c\u0437\u043e": 2769, "\u2581\u0434\u043e\u043b\u0436\u043d\u0430": 2770, "\u043d\u0435\u043d\u0438\u044f": 2771, "\u2581\u0441\u043f\u0440\u043e\u0441\u0438\u043b\u0430": 2772, "\u043a\u0442": 2773, "\u2581\u043f\u0440\u044b": 2774, "\u0444\u043e\u0440\u043c\u0430": 2775, "\u2581\u043f\u0440\u0430\u043a\u0442\u0438": 2776, "\u0440\u0438\u043a": 2777, "\u0435\u043d\u0438\u0439,": 2778, "\u2581\u043b\u0435\u0433\u043a\u043e": 2779, "\u2581\u0437\u0430\u0447\u0435\u043c": 2780, "\u2581\u043f\u044b\u0442": 2781, "\u0447\u0435\u043d\u044b": 2782, "\u043c\u0435\u043d\u044f": 2783, "\u2581\u0438\u043c\u0435\u0435\u0442": 2784, "\u0442\u044c\u044f": 2785, "\u2581\u043f\u043e\u0438": 2786, "\u0436\u0443,": 2787, "\u2581\u044d\u043b\u0435\u043a": 2788, "\u2581\u041a\u043e\u043d\u0435\u0447\u043d\u043e,": 2789, "\u0440\u043e\u0441": 2790, "\u2581\u043e\u0436\u0438": 2791, "\u0435-": 2792, "\u2581\u0436\u0435\u043d\u0430": 2793, "\u0432\u043e\u0431\u043e": 2794, "\u2581\u043a\u0430\u043a\u0438\u043c": 2795, "\u2581\u0438\u0437\u0443": 2796, "\u2581c": 2797, "\u2581\u0432\u0441\u0442\u0430": 2798, "\u043d\u044e\u044e": 2799, "\u043b\u043e\u043a": 2800, "\u0433\u043d\u0443\u043b": 2801, "\u044e\u0441\u044c,": 2802, "\u2581\u043c\u043e\u043c\u0435\u043d\u0442": 2803, "\u0441\u0442,": 2804, "\u043b\u0435\u0439,": 2805, "\u2581d": 2806, "\u0442\u0435\u0439": 2807, "\u0447\u0435\u0441\u043a\u0430\u044f": 2808, "\u2581\u0444\u0438\u0437\u0438": 2809, "\u0437\u043e\u0440": 2810, "\u2581\u0431\u0443\u043a": 2811, "\u2581\u0441\u0438\u043b\u044b": 2812, "\u0442\u0435\u043b\u044c\u043d\u044b\u0435": 2813, "\u043c\u043e\u043c": 2814, "\u043b\u0435\u0435": 2815, "\u043d\u043e\u043c,": 2816, "\u2581\u0437\u0430\u043d\u0438\u043c\u0430": 2817, "\u2581\u0432\u0437\u0433\u043b\u044f\u0434": 2818, "\u2581\u0443\u0441\u0442": 2819, "\u2581\u0443\u043c\u0435\u0440": 2820, "\u0447\u0435\u0448\u044c": 2821, "\u2581\u0432\u0437\u0434\u043e\u0445": 2822, "\u2581\u043f\u043e\u0448\u0435\u043b": 2823, "\u0446\u0443,": 2824, "\u0440\u044b\u0445": 2825, "\u0442\u0430\u043c\u0438": 2826, "\u2581\u043d\u0430\u0439\u0442\u0438": 2827, "\u2581\u0434\u0440\u0443\u0433\u0443": 2828, "\u2581\u043d\u0430\u0447\u0430\u043b\u0430": 2829, "\u043f\u043d\u043e": 2830, "\u2581\u0427\u0435\u0440": 2831, "\u043f\u043b\u044f": 2832, "\u2581\u043c\u044f\u0433": 2833, "\u2581\u043b\u044e\u0434\u0435\u0439,": 2834, "\u2581\u043a\u043e\u0433\u0434\u0430-": 2835, "\u2581\u043a\u043b\u0438": 2836, "\u2581\u043a\u043e\u0440\u043e\u0442": 2837, "\u043a\u0430\u043c\u0438,": 2838, "\u2581\u0434\u044f": 2839, "\u2581\u043e\u0440": 2840, "p\u043e": 2841, "\u043d\u0443\u0442": 2842, "\u2581\u0433\u043e\u0432\u043e\u0440\u0438\u0442\u044c": 2843, "\u2581\u043c\u0435\u0440\u0435": 2844, "\u2581\u0441\u0432\u043e\u0435\u043c\u0443": 2845, "\u043d\u0438\u044e": 2846, "\u043f\u0435\u0447\u0430\u0442": 2847, "\u2581\u0448\u043e": 2848, "\u2581\u0441\u043d\u044f": 2849, "\u0441\u0442\u0432\u0438\u044f": 2850, "\u2581\u0441\u044e\u0434\u0430": 2851, "\u2581\u043c\u0440\u0430": 2852, "\u2581\u0436\u0443\u0440": 2853, "\u0441\u0442\u043e\u043c": 2854, "\u0440\u0430\u0431\u043e": 2855, "\u258117": 2856, "\u2581\u0441\u0435\u0440\u044c\u0435\u0437": 2857, "\u2581\u0440\u0435\u0431\u044f": 2858, "\u0442\u0443\u0430": 2859, "\u2581\u0441\u043e\u043b\u043d": 2860, "\u2581\u043a\u043e\u0442\u043e\u0440\u044b\u043c": 2861, "\u2581\u041f\u043e\u044d\u0442\u043e\u043c\u0443": 2862, "\u2581\u043e\u0431\u044a\u044f\u0441\u043d\u0438": 2863, "\u2581\u0421\u043b\u0443": 2864, "\u2581\u043b\u044c": 2865, "\u0433\u0440\u043e": 2866, "\u2581\u043d\u0430\u043f\u0440\u044f": 2867, "\u2581\u0434\u043e\u043c\u0435": 2868, "\u0445\u0430,": 2869, "\u2581\u0432\u0440\u043e\u0434\u0435": 2870, "\u0447\u0435\u0440\u0430": 2871, "\u0442\u0435\u043b": 2872, "\u0434\u043e\u043c.": 2873, "\u2581\u043f\u0440\u0438\u043c\u0435\u0440": 2874, "\u2581\u043e\u043f\u0443\u0441\u0442\u0438": 2875, "\u2581\u044f\u0432\u043b\u044f\u0435\u0442\u0441\u044f": 2876, "\u2581\u0441\u0443\u043c": 2877, "\u2581\u043f\u0443\u0441\u0442\u044c": 2878, "\u2581\u043d\u043e\u0440": 2879, "\u0441\u0442\u0432\u0435\u043d\u043d\u044b\u0439": 2880, "\u2581\u043d\u0430\u0447\u0430\u043b\u044c": 2881, "\u0442\u0443\u044e": 2882, "\u044d\u043d": 2883, "\u2581\u0441\u0442\u043e\u043b\u044c": 2884, "\u0434\u043a\u043e": 2885, "\u2581\u0433\u043e\u0434\u0443": 2886, "\u2581\u043f\u043e\u043d\u044f\u043b,": 2887, "\u2581\u043b\u0438\u0447\u043d\u043e": 2888, "\u2581\u043d\u0440\u0430\u0432\u0438": 2889, "\u2581\u0441\u043d\u0438": 2890, "\u2581S": 2891, "\u2581\u0430\u0431": 2892, "\u2581\u0440\u0430\u043d\u044c\u0448\u0435": 2893, "\u2581\u043a\u043b\u044e": 2894, "\u2581\u0438\u0437\u043e\u0431\u0440\u0430": 2895, "\u2581\u043f\u043e\u0440\u044f\u0434": 2896, "\u0441\u0442\u043e\u0432": 2897, "\u2581\u0437\u043d\u0430\u043b": 2898, "\u0436\u043a\u0438": 2899, "\u2581\u043f\u0443\u0441\u0442\u044b": 2900, "\u0432\u043e\u043b\u044e": 2901, "\u2581\u0433\u0434\u0435-": 2902, "\u0435\u0432\u0438\u0447": 2903, "\u0440\u0430\u043c\u0438": 2904, "\u0430\u043b\u0441\u044f.": 2905, "\u043d\u0435\u043c\u0443": 2906, "\u0436\u0438\u043c": 2907, "\u2581\u0421\u043f\u0430": 2908, "\u2581\u0441\u043a\u043b\u043e": 2909, "\u0440\u0430\u0445": 2910, "\u043e\u0442\u0432\u0435\u0442": 2911, "\u2581\u0433\u043e\u0440\u0435": 2912, "\u0431\u0440\u0435": 2913, "\u2581\u043d\u0430\u0448\u0435\u0433\u043e": 2914, "\u0441\u043a\u043e\u043c\u0443": 2915, "\u2581\u0432\u043a\u043b\u044e": 2916, "\u2581\u043e\u0431\u0440\u0430\u0437\u043e\u043c": 2917, "\u2581\u043b\u0438\u0446\u0430": 2918, "\u043b\u043a\u0438": 2919, "\u2581\u043e\u0431\u044a\u044f\u0441": 2920, "\u2581\u0442\u043e\u0431\u043e\u0439": 2921, "\u2581\u043a\u0430\u0437\u0430\u043b\u043e\u0441\u044c,": 2922, "\u0441\u044c.": 2923, "\u2581\u0436\u0438\u0432\u043e\u0442": 2924, "\u0441\u043e\u043a": 2925, "\u2581\u0434\u0443\u0448\u0435": 2926, "\u2581\u043f\u043e\u043a\u0440\u044b": 2927, "\u0415\u041d": 2928, "\u2581\u043e\u0431\u043d\u0430\u0440\u0443\u0436\u0438": 2929, "\u0444\u0435\u0440": 2930, "\u2581\u0443\u043a\u0440\u0430": 2931, "\u0441\u0442\u0432\u0435\u043d\u043d\u043e\u0439": 2932, "\u2581\u0437\u0430\u0433\u043e": 2933, "\u043d\u043d\u043e\u0433\u043e": 2934, "\u2581\u0434\u043e\u0441\u0442\u0430\u0442\u043e\u0447\u043d\u043e": 2935, "\u043a\u043d\u043e\u0432": 2936, "\u2581\u0444\u0438\u0433\u0443": 2937, "\u2581\u0433\u043e\u043b\u043e\u0432\u0435": 2938, "\u2581\u0441\u0447\u0430\u0441\u0442\u043b\u0438": 2939, "\u2581\u043f\u043e\u0437\u0430": 2940, "\u2581\u0433\u043e\u0441\u0442\u0438": 2941, "\u2581\u0434\u0435\u043d\u0435": 2942, "\u2581\u0432\u043e\u0432\u0441\u0435": 2943, "\u2581\u043a\u043e\u043b\u0438": 2944, "\u2581\u043e\u0441\u0442\u043e\u0440\u043e": 2945, "\u0448\u0430,": 2946, "\u2581\u0440\u0443\u043a\u043e\u0439": 2947, "\u2581\u0435\u0434\u0438": 2948, "\u2581\u043f\u043e\u0433\u043e": 2949, "\u0444\u043e\u043d": 2950, "\u2581\u0441\u0442\u0440\u0443": 2951, "\u2581\u201c": 2952, "\u2581\u0413\u0440\u0438": 2953, "\u0439\u043e": 2954, "\u2581\u0437\u0434\u0435": 2955, "\u0447\u0435\u0441\u043a\u043e\u0435": 2956, "\u2581\u0431\u043e\u0440": 2957, "\u2581\u0432\u0440\u0435\u043c\u0435\u043d": 2958, "\u2581\u0445\u0440\u0438": 2959, "\u0449\u0435\u043c\u0443": 2960, "\u0441\u043b\u0435\u0434\u043e": 2961, "\u043d\u044e,": 2962, "\u2581\u043e\u0434\u0438\u043d\u043e": 2963, "\u2581\u0425\u043e\u0440\u043e\u0448\u043e": 2964, "\u0431\u044b,": 2965, "\u0442\u0430\u0442\u044c": 2966, "\u0438\u0442\u044c": 2967, "\u2581\u0432\u044b\u0437": 2968, "\u2581\u0448\u0435\u043b": 2969, "\u0432\u0435\u0439": 2970, "\u2581\u043a\u0443\u043b\u044c": 2971, "\u043d\u044f\u0442": 2972, "\u0435\u0445\u0430\u043b": 2973, "\u2581\u0438\u0441\u043a\u043b\u044e": 2974, "\u0441\u0442\u0432\u043e.": 2975, "\u2581\u043f\u0440\u043e\u0437": 2976, "\u0440\u0438\u043e": 2977, "\u2581\u0448\u0442\u0430": 2978, "\u2581\u0442\u0432\u0435\u0440": 2979, "\u2581\u0441\u0435\u0431\u044f,": 2980, "\u0437\u0435\u043c": 2981, "\u2581\u043f\u043e\u043b\u043e\u0432\u0438": 2982, "\u0441\u043a\u043e\u043b\u044c\u043a\u0443": 2983, "\u0442\u0430\u0449\u0438": 2984, "\u2581\u0441\u043e\u0431\u044b": 2985, "\u2581\u0433\u043e\u0434": 2986, "\u043c\u0430\u044f": 2987, "\u2581\u0435\u0435,": 2988, "\u2581\u0438\u0437\u043c\u0435\u043d\u0438": 2989, "\u2581\u043f\u043b\u043e\u0449\u0430": 2990, "\u2581\u043c\u043e\u044e": 2991, "\u2581\u0428\u0430": 2992, "\u2581\u0441\u043c\u043e\u0442\u0440\u0435\u043b": 2993, "\u0430\u043b\u0443": 2994, "\u2581\u0434\u0440\u0443\u0437": 2995, "\u2581\u043f\u0440\u0438\u044f\u0442": 2996, "\u2581\u043d\u0430\u0439": 2997, "\u0432\u0448\u0438\u0439\u0441\u044f": 2998, "\u2581\u0441\u043b\u0435\u0434\u0443\u0435\u0442": 2999, "\u2581\u0437\u043d\u0430\u0447\u0438\u0442,": 3000, "\u2581\u043f\u043e\u043b\u0438\u0442\u0438": 3001, "\u2581\u0441\u0438\u0434\u0435\u043b": 3002, "\u2581\u0432\u0438\u0434\u0435\u0442\u044c": 3003, ".,": 3004, "\u2581\u043f\u0440\u043e\u0432\u043e": 3005, "\u2581\u0441\u0438\u043c": 3006, "or": 3007, "\u2581\u0434\u0432\u043e\u0440": 3008, "\u043a\u0430\u0442\u044c": 3009, "\u2581\u0431\u0430\u043d": 3010, "\u0432\u044b.": 3011, "\u2581\u0442\u0443\u0434\u0430": 3012, "\u0442\u0438\u043d": 3013, "\u2581\u041f\u043e\u043a\u0430": 3014, "\u2581\u043f\u043e\u043f\u0440\u043e": 3015, "\u0440\u0443.": 3016, "\u2581\u0447\u0435\u043b\u043e\u0432\u0435\u043a\u0430,": 3017, "\u2581\u0432\u0442\u043e\u0440\u043e\u0439": 3018, "\u043b\u0435\u043d\u0430": 3019, "\u0432\u0448\u0438\u043c": 3020, "\u2581\u043e\u0442\u043a\u0443\u0434\u0430": 3021, "\u2581\u0432\u0438\u0434\u0438\u043c\u043e": 3022, "\u2581\u043a\u0430\u0447\u0435": 3023, "\u2581\u043f\u043e\u043a\u0430\u0437\u044b": 3024, "\u0441\u043d\u043e,": 3025, "\u2581\u0436\u0435\u043d\u0449\u0438\u043d\u0430": 3026, "\u2581\u0440\u0435\u0448\u0438\u043b": 3027, "\u0448\u043a\u0430.": 3028, "\u0442\u043e\u043c.": 3029, "\u043d\u044f,": 3030, "\u043b\u043e\u0436\u0438\u043b": 3031, "\u043a\u0430\u0437\u0430\u043b": 3032, "\u0430\u043b\u044c\u043d\u043e\u0433\u043e": 3033, "\u2581\u0418\u0432\u0430\u043d": 3034, "\u2581\u0437\u043d\u0430\u044e": 3035, "\u2581\u0415\u043c\u0443": 3036, "\u0441\u0442\u0430\u0432": 3037, "\u0442\u043e\u0432.": 3038, "\u2581\u0417\u0430\u0442\u0435\u043c": 3039, "\u2581\u043f\u043e\u0432\u0435\u0440\u0445": 3040, "\u0434\u0446\u0430\u0442\u0438": 3041, "\u2581\u0432\u043d\u0443\u0442\u0440\u0435\u043d": 3042, "\u2581\u0444\u043e\u0442\u043e": 3043, "\u2581\u0443\u0441\u043b\u043e\u0432\u0438": 3044, "\u2581\u0447\u0443\u0432\u0441\u0442\u0432\u0443": 3045, "\u2581\u0443\u0441\u043f\u043e": 3046, "\u2581\u0431\u043e\u043b\u0435\u0437": 3047, "\u043d\u0430\u0434": 3048, "\u2581\u043f\u0440\u0438\u0448\u043b\u043e\u0441\u044c": 3049, "\u2581\u0433\u043b\u0430\u0437\u0430,": 3050, "\u2581\u0438\u043d\u0430\u0447\u0435": 3051, "\u0447\u0435\u043a": 3052, "\u0435\u043d\u0438\u044e,": 3053, "\u0436\u043d\u044b\u0435": 3054, "\u2581\u0443\u0441\u043b\u044b\u0448": 3055, "\u2581\u0432\u0441\u043f\u043e": 3056, "\u2581\u043e\u0436\u0438\u0434\u0430": 3057, "\u0447,": 3058, "\u2581\u0432\u0434\u043e": 3059, "\u2581A": 3060, "\u043f\u043b\u0435": 3061, "\u0434\u0430\u044f": 3062, "\u0442\u0435\u043b\u044c\u043d\u043e\u0433\u043e": 3063, "\u2581\u043a\u0440\u0443\u043f": 3064, "\u2581\u043a\u043e\u043c\u0443": 3065, "\u2581\u0441\u043e\u0445\u0440\u0430": 3066, "\u0434\u0438.": 3067, "\u2581\u043a\u043e\u043c\u043f\u0430": 3068, "\u0433\u0438\u0445": 3069, "\u043f\u0438\u043b": 3070, "\u2581\u0438\u043c\u044f": 3071, "\u2581\u041e\u0434\u0438\u043d": 3072, "\u2581\u043c\u043e\u0437": 3073, "\u2581\u043d\u0438\u0437": 3074, "\u0433\u0430\u043d": 3075, "\u0442\u0438\u043b\u0438": 3076, "\u0441\u0451": 3077, "\u2581\u0437\u0430\u0434\u0443\u043c": 3078, "\u2581\u041c\u043e\u0436\u0435\u0442,": 3079, "\u2581\u0421\u0435\u043c": 3080, "\u2581\u0432\u043e\u043f\u0440\u043e\u0441": 3081, "\u0432\u0443\u0442": 3082, "\u2581\u043e\u0442\u043d\u043e\u0441\u0438": 3083, "\u2581\u0440\u0430\u0437\u0440\u0435": 3084, "\u043f\u0430\u043d": 3085, "\u2581\u0433\u0435\u043d\u0435\u0440\u0430": 3086, "\u0441\u0438\u0442\u044c": 3087, "\u2581\u0445\u043e\u0442\u0435\u043b\u043e\u0441\u044c": 3088, "\u2581\u043b\u0435\u0441\u0442": 3089, "\u258111": 3090, "\u2581\u0432\u043e\u0441\u043f\u043e": 3091, "\u043b\u0435\u0432": 3092, "\u2581\u0437\u043d\u0430\u0447\u0438": 3093, "\u0434\u0438\u043b\u0438": 3094, "\u2581\u0436\u0438\u0437\u043d\u0438.": 3095, "\u0447.": 3096, "\u0441\u043b\u0435\u043d": 3097, "\u0436\u043d\u044b\u0439": 3098, "\u2581\u0432\u044b\u0431\u0440\u0430": 3099, "\u0447\u043d\u043e\u0435": 3100, "\u0434\u043a\u0438": 3101, "\u0446\u0443.": 3102, "\u2581\u041a\u043e\u0440\u043e": 3103, "\u2581\u0441\u0442\u043e\u043b\u044c\u043a\u043e": 3104, "\u043d\u043e\u0432,": 3105, "\u2581\u0412\u0435\u043b\u0438": 3106, "\u2581\u043d\u0430\u0448\u0438\u0445": 3107, "\u2581\u043c\u0435\u043b": 3108, "\u2581\u043f\u043e\u043a\u0430\u0437\u0430": 3109, "\u043d\u0435\u043d\u0438\u0435": 3110, "\u0431\u043e\u0440\u043e": 3111, "\u2581\u043a\u0443\u0440": 3112, "\u2581\u0412.": 3113, "\u0436\u043d\u043e\u0439": 3114, "\u2581\u041f\u0440\u0435\u0434": 3115, "\u2581\u043c\u0435\u043d\u0435\u0435": 3116, "\u2581\u043c\u0435\u0441\u0442\u0435": 3117, "\u2581\u043f\u0440\u0430\u0437": 3118, "he": 3119, "\u0435\u043d,": 3120, "\u0446\u044c": 3121, "\u2581\u0441\u043e\u043e\u0442\u0432\u0435\u0442": 3122, "\u2581\u0432\u044b\u0448\u0435": 3123, "\u0436\u0430\u0439": 3124, "\u2581\u043a\u0440\u043e\u0432\u044c": 3125, "\u2581\u0430\u043f": 3126, "\u2581\u0421\u043b\u043e": 3127, "\u2581\u043f\u0435\u0447": 3128, "\u0432\u043e,": 3129, "\u2581\u043f\u0440\u0435\u0434\u0441\u0442\u0430": 3130, "\u2581\u043f\u043b\u0435\u0447\u0430": 3131, "\u2581\u043f\u043e\u043b\u044f": 3132, "\u2581\u0447\u0435\u0442\u0432\u0435\u0440": 3133, "\u2581\u0422\u0435\u043c": 3134, "\u0442\u0438\u0442\u0435": 3135, "\u0441\u043e\u043d": 3136, "\u2581\u043f\u043e\u0442\u043e\u043c\u0443,": 3137, "\u2581\u0441\u0438\u043b\u0430": 3138, "\u0442\u043e\u0435": 3139, "\u2581\u0438\u0431\u043e": 3140, "\u043d\u0438\u043a.": 3141, "\u0431\u044c": 3142, "\u2581\u0413\u0435\u0440": 3143, "\u043b\u043e\u0441\u043e": 3144, "\u043f\u043e\u0440": 3145, "\u2581\u041f\u0443\u0441\u0442\u044c": 3146, "\u2581\u043d\u0435\u0440": 3147, "\u2581\u041c\u0438\u0445\u0430": 3148, "\u2581\u043f\u0440\u043e\u0434\u0430": 3149, "\u2581\u042d\u0442\u043e\u0442": 3150, "\u043c\u0430\u043d\u0430": 3151, "\u2581\u0442\u0440\u0435\u0445": 3152, "ar": 3153, "\u0447\u0435\u0433\u043e,": 3154, "\u2581\u0443\u0442\u0440\u043e": 3155, "\u2581\u0437\u0438": 3156, "\u2581\u0421\u043e\u043b": 3157, "\u2581200": 3158, "\u2581\u0432\u043e\u0437\u043d\u0438\u043a": 3159, "\u2581\u043a\u0440\u0430\u0441\u043e": 3160, "\u2581\u0424\u0440\u0430\u043d": 3161, "\u2581\u0432\u0440\u0435\u043c\u044f,": 3162, "\u2581\u0418,": 3163, "\u2581\u0434\u0432\u0430\u0434\u0446\u0430\u0442\u044c": 3164, "\u043d\u0435\u0439,": 3165, "\u0441\u043d\u043e\u0439": 3166, "\u0434\u0435.": 3167, "\u2581\u043f\u0440\u043e\u0434\u043e\u043b\u0436\u0430\u043b": 3168, "\u2581\u0432\u043c\u0435\u0441\u0442\u043e": 3169, "\u043a\u0440\u0443": 3170, "\u0441\u0438\u0431\u043e": 3171, "\u2581\u043c\u043e\u0438\u0445": 3172, "\u2581\u0442\u0440\u0435\u0442\u044c": 3173, "\u2581\u043f\u0435\u0440\u0435\u0434\u0430": 3174, "\u043b\u044b\u043c": 3175, "\u2581\u0431\u0430\u0431\u0443": 3176, "\u0448\u0438\u043b": 3177, "\u0431\u043d\u043e": 3178, "\u2581\u0437\u0430\u0441\u0442\u0430\u0432\u0438": 3179, "\u2581\u0434\u0435\u044f": 3180, "\u2581\u0434\u0435\u0441\u044f\u0442\u044c": 3181, "\u2581\u0433\u043b\u0443\u0431\u0438": 3182, "\u2581\u0445\u043e\u0437\u044f\u0439": 3183, "\u2581\u0431\u0435\u043b\u043e": 3184, "\u2581\u043d\u043e\u0432\u043e": 3185, "\u043f\u0430\u043b\u0438": 3186, "\u2581\u0434\u0432\u0438\u0436": 3187, "\u2581\u0436\u0438\u0437\u043d\u0438,": 3188, "\u043a\u043b\u0430\u0434\u044b": 3189, "\u2581\u043a\u0440\u0443\u0433": 3190, "\u2581\u043e\u0440\u0443\u0436\u0438": 3191, "\u2581\u043e\u0440\u0433\u0430\u043d\u0438": 3192, "\u0440\u0435\u043c\u044f": 3193, "\u0445\u043e\u0434\u0438\u043b": 3194, "\u0442\u0438\u043b\u0430": 3195, "\u0432\u0430\u044f,": 3196, "\u2581\u041c\u0435\u043d\u044f": 3197, "\u0448\u043a\u0435": 3198, "\u043c\u044b,": 3199, "\u2581\u0438\u0437\u0434\u0430": 3200, "\u2581\u0417\u0430\u0447\u0435\u043c": 3201, "\u043d\u043e\u043c\u0438": 3202, "\u043a\u0435\u0442": 3203, "\u2581\u043e\u0434\u043d\u043e\u043c": 3204, "\u2581\u0441\u0438\u043b\u044c\u043d\u043e": 3205, "\u2581\u0432\u0435\u0441\u044c\u043c\u0430": 3206, "\u0442\u043a\u0430": 3207, "\u0441\u0442\u0430\u043d": 3208, "\u2581\u043f\u0440\u0438\u0440\u043e": 3209, "\u2581\u043e\u0433\u0440\u0430": 3210, "\u0447\u043d\u043e,": 3211, "\u043c\u0430\u0442\u0438": 3212, "\u0433\u0430\u0442\u044c": 3213, "\u043c\u043e\u0432": 3214, "\u2581\u0443\u0434\u043e\u0432\u043e\u043b\u044c": 3215, "\u2581\u043e\u0442\u0434\u0430": 3216, "\u25810": 3217, "\u0446\u0435\u0439": 3218, "\u0432\u0430\u043b.": 3219, "\u2581\u0432\u043e\u0437\u044c": 3220, "\u2581\u2026": 3221, "\u043b\u044e\u0431\u0438": 3222, "\u2581\u043f\u043e\u0433\u0438": 3223, "\u0434\u043e\u0432\u0438": 3224, "\u043a\u0442\u0430": 3225, "\u2581\u0441\u0442\u043e\u0438": 3226, "\u0442\u0435\u043b\u044c\u043d\u044b\u0445": 3227, "\u2581\u043f\u0430\u0440\u0443": 3228, "\u2581\u0425\u0440\u0438": 3229, "\u2581\u043c\u0438\u043b\u043b\u0438": 3230, "\u0447\u0438.": 3231, "\u2581\u0445\u043b\u043e": 3232, "\u2581\u043e\u0434\u043d\u0438\u043c": 3233, "\u2581\u0415\u0435": 3234, "\u2581\u043f\u0440\u0438\u0448\u0435\u043b": 3235, "\u2581\u0433\u0435\u0440\u043e": 3236, "\u0435\u043d\u0438\u0439.": 3237, "\u0445\u043b\u043e": 3238, "\u2581\u043b\u044e\u0434\u044f": 3239, "\u0448\u043a\u0438,": 3240, "\u0434\u0430\u043b\u0430": 3241, "\u0445\u0430\u0442\u044c": 3242, "\u0447\u043d\u0443\u044e": 3243, "\u2581\u041f\u0440\u0430\u0432": 3244, "\u2581\u0433\u043e\u043b\u043e\u0432\u043e\u0439": 3245, "\u2581\u041d\u0435\u0443": 3246, "\u2581\u043f\u0438\u0441": 3247, "\u2581\u0443\u0434\u0430\u043b\u043e\u0441\u044c": 3248, "\u2581\u0432\u043e\u0435\u043d": 3249, "\u043b\u0435\u0439.": 3250, "\u2581m": 3251, "\u0442\u043e\u0440\u0430": 3252, "\u2581\u0441\u0435\u0431\u0435,": 3253, "\u2581\u0427\u0442\u043e\u0431\u044b": 3254, "\u2581\u0414\u0440\u0443": 3255, "\u2581\u043e\u0441\u0443": 3256, "\u2581\u043f\u0440\u0438\u043d\u0438\u043c\u0430": 3257, "\u0440\u043e\u043c.": 3258, "\u0437\u0438\u043b": 3259, "\u043d\u0443\u043b\u0438\u0441\u044c": 3260, "\u2581\u044d\u043d\u0435\u0440\u0433\u0438": 3261, "\u2581\u0416\u0438": 3262, "\u0447\u043a\u0430,": 3263, "\u0440\u0430\u043b\u044c": 3264, "\u2581\u043e\u043d\u0430.": 3265, "\u2581\u0443\u0431\u0438\u0439": 3266, "\u2581\u0441\u043a\u0430\u0437\u0430\u043b,": 3267, "\u2026\u00a0\u2014": 3268, "\u2581\u0430\u043d\u0433\u043b\u0438": 3269, "\u258116": 3270, "\u0445\u0430.": 3271, "\u0445\u043e\u0434\u044f\u0442": 3272, "\u2581\u043e\u0442\u0432\u0435\u0440": 3273, "\u0435\u0440\u0443": 3274, "\u2581\u041d\u0430\u043a\u043e\u043d\u0435\u0446": 3275, "\u2581\u0421\u0442\u0435": 3276, "\u2581\u043d\u0435\u0434\u0435": 3277, "\u2581\u043f\u043e\u0434\u043e\u0437": 3278, "\u2581M": 3279, "\u2581\u0432\u043e\u0434\u043e": 3280, "\u2581\u0443\u0441\u0438\u043b\u0438": 3281, "\u2581\u0431\u0443\u0442\u044b": 3282, "\u043a\u043d\u0443\u043b\u0430": 3283, "\u2581\u0421\u043a\u0430": 3284, "\u0442\u044b\u043c\u0438": 3285, "\u2581\u0445\u043e\u0447\u0435\u0442": 3286, "\u043d\u0435\u0442\u0441\u044f": 3287, "\u2581\u043a\u043e\u0440\u0438\u0434\u043e": 3288, "\u043f\u0443\u0441\u043a\u0430": 3289, "\u2581\u043f\u0440\u0435\u0434\u0443": 3290, "\u0434\u044c,": 3291, "\u043d\u0443\u043b\u0441\u044f,": 3292, "\u0442\u0435\u043b\u044c\u043d\u043e\u0435": 3293, "\u0441\u0442\u0440\u0438": 3294, "\u2581\u043d\u0435\u0432\u043e\u0437\u043c\u043e\u0436\u043d\u043e": 3295, "\u0436\u043d\u044b\u0445": 3296, "\u2581\u043d\u0438\u043a\u0430\u043a": 3297, "\u043b\u0443\u044e": 3298, "\u043d\u0443\u043b\u0441\u044f.": 3299, "\u2581\u0434\u0430\u043b\u0435\u043a\u043e": 3300, "\u2581\u0427\u0435\u043b\u043e\u0432\u0435": 3301, "\u043d\u0430\u0434\u043b\u0435": 3302, "\u043f\u0430\u043b\u0430": 3303, "\u2581\u0432\u043f\u0435\u0440": 3304, "\u0448\u0430\u043b": 3305, "\u2581\u043f\u0440\u043e\u0441\u0442\u0440\u0430\u043d": 3306, "\u0442\u0440\u044f": 3307, "\u0447\u043a\u0438,": 3308, "\u0431\u0443\u0440": 3309, "\u2581\u0442\u0432\u043e\u0440": 3310, "\u2581\u043f\u043e\u043a\u0438": 3311, "\u2581\u0432\u043e\u0437\u043b\u0435": 3312, "\u2581\u043a\u0440\u043e\u0432\u0430": 3313, "\u2581\u0443\u0432\u0438\u0434\u0435": 3314, "\u0430\u043b\u044c\u043d\u043e\u0435": 3315, "\u0442\u0430\u043b\u0430": 3316, "\u2581\u043d\u043e,": 3317, "\u2581\u042d\u0442\u0438": 3318, "\u2581\u0433\u043b\u0430\u0437\u0430.": 3319, "\u2581\u0427\u0438": 3320, "\u0433\u0440\u044b": 3321, "\u043d\u043e\u043c.": 3322, "\u2581\u0434\u043b\u0438": 3323, "\u2581\u043a\u0443\u0445": 3324, "\u2581\u0444\u0440\u0430\u043d\u0446\u0443": 3325, "\u2581\u043f\u043e\u0434\u043d\u0438\u043c\u0430": 3326, "\u2581\u0437\u0430\u043c\u0435\u0447\u0430": 3327, "\u2581\u043a\u0430\u043a\u0443\u044e": 3328, "\u043a\u0441": 3329, "\u2581\u0432\u0430\u0436\u043d\u043e": 3330, "\u043e\u043b\u043e\u0433\u0438": 3331, "\u0447\u0435\u0441\u043a\u0438\u043c": 3332, "\u2581\u0432\u0435\u0449\u0438": 3333, "\u0433\u0435\u0440": 3334, "\u2581\u0444\u0430\u043d\u0442\u0430": 3335, "\u2581\u0434\u0435\u043d\u044c\u0433\u0438": 3336, "\u2581\u043d\u0435\u043e\u0431\u044b": 3337, "\u2581\u0437\u0430\u043c": 3338, "\u2581\u0431\u0443\u0434\u0435\u043c": 3339, "\u2581\u0442\u0440\u0443\u0434\u043d\u043e": 3340, "\u2581\u041d\u0438\u0447\u0435\u0433\u043e": 3341, "\u2581\u0445\u0432\u043e": 3342, "\u2581\u0443\u0442\u0432\u0435\u0440": 3343, "\u2581\u0418\u0445": 3344, "\u0446\u0430\u043c\u0438": 3345, "\u043d\u044c\u044f": 3346, "\u2581\u043d\u0435\u0437\u043d\u0430": 3347, "\u2581\u043e\u0442\u0447\u0430\u044f": 3348, "\u2581\u0437\u0430\u043c\u0435\u0442\u0438\u043b": 3349, "\u2581\u043a\u043e\u0442\u043e\u0440\u043e": 3350, "\u0433\u043e\u0432\u043e\u0440\u0438\u043b": 3351, "\u0448\u0438\u0442\u044c": 3352, "\u0434\u043a\u0430": 3353, "\u2581\u0433\u043b\u044f\u0434\u044f": 3354, "\u2581\u043e\u043a\u0430\u0437\u0430\u043b\u0441\u044f": 3355, "\u2581\u043f\u0440\u0438\u043d\u0430\u0434\u043b\u0435": 3356, "\u2581\u0441\u043e\u043f\u0440\u043e": 3357, "\u2581\u0436\u0430\u043b\u043e": 3358, "\u2581\u0442\u0440\u0435\u0431\u043e": 3359, "\u0432\u043e\u043b": 3360, "\u2581\u0441\u043e\u0431\u0441\u0442\u0432\u0435\u043d\u043d\u043e": 3361, "\u2581\u043c\u0443\u0436\u0438": 3362, "\u0432\u0438\u0434": 3363, "\u2581\u0431\u043e\u0440\u043e": 3364, "\u0431\u043b\u0435\u043d": 3365, "\u2581\u0445\u043e\u043b\u043e\u0434": 3366, "\u2581\u041d\u043e,": 3367, "\u2581\u043f\u0440\u0438\u0433\u043b\u0430": 3368, "\u0441\u044b.": 3369, "\u2581\u043c\u0430\u043c\u0430": 3370, "\u043b\u0443,": 3371, "\u0433\u0430\u0435\u0442": 3372, "\u2581\u0438\u043d\u0444\u043e\u0440\u043c\u0430": 3373, "\u2581C": 3374, "\u043d\u0430\u043b\u0438": 3375, "\u044e\u0449\u0430\u044f": 3376, "\u0432\u0443,": 3377, "\u2581\u0442\u0430\u043d": 3378, "\u2581\u0442\u0430\u043a\u043e": 3379, "\u0442\u0435\u043b\u044c\u043d\u044b\u043c": 3380, "\u0436\u0430\u043b\u043e": 3381, "\u0440\u044b\u043c": 3382, "\u043f\u0438\u0442\u044c": 3383, "\u0445\u043e\u0434\u0430": 3384, "\u2581\u043f\u043e\u043f\u0440\u043e\u0441\u0438": 3385, "\u2581\u0421.": 3386, "\u0436\u0435\u043d\u043d\u043e": 3387, "\u2581\u043a\u043e\u043d\u0447\u0438": 3388, "II": 3389, "\u0435\u043d\u0430,": 3390, "is": 3391, "\u2581194": 3392, "\u2581\u0442\u0435\u043f\u043b\u043e": 3393, "\u043d\u0442\u0430": 3394, "\u2581\u0445\u043e\u043b": 3395, "\u2581\u043f\u043e\u0437\u043d\u0430": 3396, "\u2581\u041f\u043e\u0442\u043e\u043c\u0443": 3397, "\u2581\u0434\u0440\u0443\u0433\u0430": 3398, "\u2581\u0437\u043d\u0430\u0435\u0442": 3399, "\u2581\u043f\u043e\u0435\u0437": 3400, "\u2581\u043f\u043e\u043a\u0443": 3401, "\u0441\u043b": 3402, "\u043b\u044f.": 3403, "\u0447\u043a\u0435": 3404, "\u2581\u0434\u0435\u0432\u044f": 3405, "\u2581\u0437\u043d\u0430\u043a\u043e\u043c\u044b": 3406, "\u2581\u0441\u043e\u0446\u0438": 3407, "\u2581\u041e\u0447\u0435\u043d\u044c": 3408, "\u044d\u0439": 3409, "\u2581\u0441\u043b\u0443\u0448\u0430": 3410, "\u2581\u0441\u0435\u043a\u0440\u0435": 3411, "ou": 3412, "\u2581\u0417\u043d\u0430\u0447\u0438\u0442,": 3413, "\u2581\u043d\u0435\u0433\u043e,": 3414, "\u2581\u0433\u043b\u0430\u0437\u0430\u043c\u0438": 3415, "\u2581\u043b\u0438,": 3416, "\u0445\u043d\u0443\u043b": 3417, "\u2581\u0432\u044b,": 3418, "\u0437\u0430.": 3419, "\u0432\u044f\u0437": 3420, "at": 3421, "\u2581\u0443\u0440\u043e": 3422, "\u0436\u0434\u0435\u043d\u0438\u0435": 3423, "\u0415\u0420": 3424, "\u0440\u0434": 3425, "\u2581\u043d\u0435\u043d\u0430\u0432\u0438": 3426, "\u2581\u0441\u0432\u0435\u0440\u0445": 3427, "\u2581\u0420\u0430\u0437\u0432\u0435": 3428, "\u2581\u043f\u043e\u0440\u0442": 3429, "\u0442\u0438\u0442": 3430, "\u2581\u041c\u0430\u0440\u0438": 3431, "\u2581\u043d\u0430\u043c\u0438": 3432, "\u0430\u043b\u044b": 3433, "\u2581\u043d\u0430\u043f\u0440\u0438\u043c\u0435\u0440,": 3434, "\u2581\u0442\u0438\u0448\u0438": 3435, "\u043a\u0438\u0439,": 3436, "\u043f\u0430\u0440\u0430": 3437, "\u2581\u043f\u043e\u0441\u043b\u0435\u0434\u043d\u0438\u0439": 3438, "\u0436\u0430\u0435\u0442": 3439, "\u2581\u0434\u043e\u0433\u0430": 3440, "\u2581\u043c\u0430\u0442\u044c": 3441, "\u2581\u0438\u0441\u043a": 3442, "\u2581\u0441\u0447\u0438\u0442": 3443, "\u2581\u0434\u0432\u0438\u0433\u0430": 3444, "\u043a\u043e\u0438": 3445, "\u041e\u0412": 3446, "\u0432\u0435\u0440\u044f": 3447, "\u043d\u0438\u0438,": 3448, "\u0447\u0430\u0435\u0442\u0441\u044f": 3449, "\u0435\u043b": 3450, "\u2581\u043d\u0430\u0448\u0435": 3451, "\u2581\u0431\u043e\u0435": 3452, "\u2581\u0442\u044e": 3453, "\u2581\u0442\u0440\u0443\u0431": 3454, "\u043d\u0430\u0432\u043b\u0438": 3455, "\u043a\u0430\u0440": 3456, "\u0421\u0422": 3457, "\u2581\u043e\u0431\u044b\u0447\u043d\u043e": 3458, "\u2581\u043f\u043e\u043d\u0438\u043c": 3459, "\u0436\u0430\u044f": 3460, "\u2581\u0411\u0438": 3461, "\u2581\u0441\u043c\u0435\u0440\u0442\u0438": 3462, "\u2581\u043c\u0438\u0441\u0442\u0435\u0440": 3463, "\u043c\u0438\u0440": 3464, "\u2581\u041e,": 3465, "\u0439\u0442\u0435,": 3466, "\u043d\u044b\u0439.": 3467, "\u2581\u043c\u0430\u0433\u0430": 3468, "\u2581\u0434\u043e\u0431\u0440\u0430": 3469, "\u2581\u043c\u0430\u0441": 3470, "\u2581\u0432\u0435\u0442\u0435\u0440": 3471, "\u2581\u0412\u043f\u0440\u043e\u0447\u0435\u043c,": 3472, "\u2581\u043f\u043e\u0434\u0443\u043c\u0430": 3473, "\u2581\u0435\u0441\u0442\u0435": 3474, "\u043d\u0438\u043d": 3475, "\u2581\u0415\u0441\u0442\u044c": 3476, "\u0447\u0438\u0439": 3477, "\u2581\u043c\u0438\u043b\u043e": 3478, "\u2581\u043f\u043e\u043b\u0435": 3479, "\u043d\u043d\u043e\u0435": 3480, "\u2581\u0442\u0435\u0431\u044f,": 3481, "\u2581\u0437\u0434\u0435\u0441\u044c,": 3482, "\u2581\u043f\u0440\u0435\u0441\u0442\u0443\u043f": 3483, "\u0432\u0448\u0443\u044e": 3484, "\u043e\u0431\u0440\u0430\u0437": 3485, "\u2581\u0434\u0443\u043c\u0430\u043b": 3486, "\u2581\u041a\u0440\u0438": 3487, "\u043c\u0435\u0440\u0438\u043a\u0430\u043d": 3488, "\u044a,": 3489, "\u2581\u043e\u0431\u0443": 3490, "\u2581\u0431\u044b,": 3491, "\u2581\u043f\u043e\u0434\u043d\u044f\u043b": 3492, "\u0433\u043d\u0430": 3493, "\u2581\u0443\u0440\u043e\u0432": 3494, "\u043a\u0438\u043d": 3495, "\u043f\u0435\u043d": 3496, "\u2581\u043a\u043e\u043d\u0435\u0447\u043d\u043e": 3497, "\u0441\u0442.": 3498, "\u2581\u0421\u0432\u0435\u0442": 3499, "\u2581\u043d\u0435\u043e\u0436\u0438\u0434\u0430\u043d\u043d\u043e": 3500, "\u2581\u0434\u0430\u043b": 3501, "\u2581\u0447\u0430\u0441\u0430": 3502, "\u0435\u043c\u0443,": 3503, "\u2581\u043c\u044b\u0441\u043b\u044c": 3504, "\u2581\u0432\u044a": 3505, "\u2581\u0447\u0435\u043c-": 3506, "\u2581\u0442\u0432\u043e\u0439": 3507, "\u2581\u0441\u0442\u0430\u043d": 3508, "\u2581\u0431\u0443\u0440": 3509, "\u2581\u0432\u043d\u0435\u0448": 3510, "\u2581\u0441\u0430\u043c\u044b\u043c": 3511, "\u2581\u0414\u0436\u043e": 3512, "\u2581\u043e\u0431\u0440\u0430\u0437": 3513, "\u043f\u0440\u0430\u0432\u043b\u044f": 3514, "\u2581\u0411\u0435\u0437": 3515, "\u0431\u0435\u0440\u0435": 3516, "\u2581\u0442\u0435\u0442": 3517, "\u2581\u0440\u0435\u0431\u0435\u043d": 3518, "\u2581\u043e\u0448\u0438\u0431": 3519, "\u2581\u0442\u0440\u0435\u0431\u0443": 3520, "\u2581\u0431\u043b\u0430\u0433\u043e\u0434\u0430": 3521, "\u043d\u043d\u0430\u044f": 3522, "\u2581\u0440\u0443\u043a\u0430\u0445": 3523, "\u043c\u044b\u0439": 3524, "\u0449\u0430\u043b": 3525, "\u2581\u0445\u043e\u0447": 3526, "\u2581\u043f\u043e\u0434\u0440\u043e": 3527, "\u0441\u0438\u043b\u044c": 3528, "\u0441\u0442\u044c\u044e,": 3529, "\u0435\u043d\u044c,": 3530, "\u0432\u043e\u0440\u0430\u0447\u0438": 3531, "\u2581\u0437\u0430\u043a\u0440\u0438": 3532, "\u2581\u0438\u0437\u043e": 3533, "\u2581\u0410\u043b\u044c": 3534, "\u0441\u0435\u0440": 3535, "\u0431\u043b\u044f": 3536, "\u2581\u0422\u043e\u043b": 3537, "\u0433\u043e\u0439": 3538, "\u044d\u0440": 3539, "\u2581\u043e\u0441\u0442\u043e\u0440\u043e\u0436\u043d\u043e": 3540, "\u2581\u0440\u0430\u043d": 3541, "\u2581\u0442\u0440\u0435\u0432\u043e": 3542, "\u0442\u0430\u0439": 3543, "\u2581\u043e\u0433\u043b\u044f": 3544, "\u2581\u0437\u0434\u043e\u0440\u043e": 3545, "\u0431\u0430,": 3546, "\u2581\u0441\u0442\u0435\u043d\u044b": 3547, "\u2581\u0432\u044b\u0437\u044b": 3548, "\u2581\u043f\u0440\u0438\u0441\u0443\u0442": 3549, "\u2581\u043a\u043e\u0435-": 3550, "\u043d\u0430\u0434\u0446\u0430\u0442\u044c": 3551, "\u2581\u0436\u0435\u0440\u0442": 3552, "\u043a\u0430\u043c\u0438.": 3553, "\u2581\u043d\u0430\u0441\u0442\u043e": 3554, "\u2581\u043c\u0435\u0442\u0430\u043b": 3555, "\u2581\u0432\u043d\u0443\u0442\u0440\u0438": 3556, "\u2581\u043f\u043e\u0432": 3557, "\u0442\u0435\u043b\u044c\u0441\u0442\u0432\u0430": 3558, "\u0434\u0440\u0438": 3559, "\u2581\u043f\u043e\u043b\u043e\u0436\u0438": 3560, "\u2581\u043f\u0443\u0442\u0435": 3561, "\u2581\u0441\u0430\u043c\u044b\u0445": 3562, "\u2581\u043f\u0443\u0442\u0438": 3563, "\u258114": 3564, "\u0432\u0430\u0435\u0442,": 3565, "\u2581\u0447\u0435\u0440\u0435": 3566, "\u2581\u0441\u043d\u0430\u0447\u0430\u043b\u0430": 3567, "\u2581\u0425\u043e\u0442\u044f": 3568, "\u2581\u0411\u0440\u0430": 3569, "\u0430\u043b\u044f": 3570, "\u0433\u0430\u043b\u0438": 3571, "\u2581\u0441\u0438\u0442\u0443\u0430": 3572, "\u043e\u043d\u0430": 3573, "\u2581\u043f\u043e\u0441\u043b\u0443": 3574, "\u0441\u0442\u044c\u044f": 3575, "\u043d\u044f\u0442\u044c": 3576, "\u2581\u0441\u0442\u043e\u043b\u0438": 3577, "\u2581\u0447\u0438\u0441\u0442\u043e": 3578, "\u2581\u0421\u043b\u0435": 3579, "\u2581\u0434\u0430,": 3580, "\u0441\u0435\u043b": 3581, "\u2581\u0441\u0440\u0435": 3582, "\u2581\u043f\u0430\u043c": 3583, "\u0431\u0438\u043b": 3584, "\u2581\u043e\u043a\u043e\u043d\u0447\u0430": 3585, "\u2581\u0434\u0443\u043c\u0430\u044e,": 3586, "\u2581\u0440\u0430\u0431\u043e\u0442\u044b": 3587, "\u2581\u043c\u043e\u043b\u043e\u0434\u043e": 3588, "\u2581\u043f\u043e\u0441\u0442\u0440\u043e": 3589, "\u0434\u0430\u043b\u0441\u044f": 3590, "\u043e\u0440\u0443": 3591, "\u2581\u041f\u0440\u043e\u0441\u0442\u043e": 3592, "\u2581\u043f\u043e\u0437\u0432\u043e\u043b\u044f": 3593, "\u2581\u0432\u0430\u043c\u0438": 3594, "\u2581\u0413\u043e\u0440": 3595, "\u2581\u043f\u0430\u0440\u0442\u0438": 3596, "\u0432\u0435\u0434\u0435\u043d\u0438\u044f": 3597, "\u2581\u043d\u0430\u043b\u0438": 3598, "\u2581\u0432\u043d\u0435\u0437\u0430": 3599, "\u2581\u0436\u0435\u043b\u0435\u0437": 3600, "\u2581\u0422\u0440\u0438": 3601, "\u0436\u0435.": 3602, "\u2581\u0441\u0438\u0445": 3603, "\u0446\u044b.": 3604, "\u0448\u043e\u0439": 3605, "\u2581\u0438\u043d\u0442\u0435\u0440\u0435\u0441": 3606, "\u2581\u0430\u0440\u043c\u0438": 3607, "\u2581\u043a\u0430\u043a\u0438\u0435-": 3608, "\u2581\u0433\u0440\u0438": 3609, "\u2581\u0432\u0437\u0430": 3610, "\u2581\u045e": 3611, "\u2581\u0411\u0435\u0440": 3612, "\u0431\u043b\u043e": 3613, "\u2581\u0441\u043b\u0435\u0433": 3614, "\u0442\u0432\u0435\u0440": 3615, "\u2581\u0442.": 3616, "\u2581\u043f\u043e\u0434\u043e\u0448\u0435\u043b": 3617, "\u2581\u0442\u0440\u044f": 3618, "\u2581\u0414\u043e\u043b": 3619, "\u2581\u043c\u043e\u043d\u0430": 3620, "\u2581\u0443\u0441\u043f\u0435\u043b": 3621, "\u2581\u0441\u043b\u0443\u0436": 3622, "\u2581\u043d\u0430\u043f\u0440\u0430\u0432\u0438": 3623, "\u2581\u0441\u0442\u0430\u0440\u0443": 3624, "\u0448\u0435\u043d\u0438\u044f": 3625, "\u2581\u0434\u0435\u0440\u0436\u0430": 3626, "\u2581\u043b\u044e\u0431\u043b\u044e": 3627, "le": 3628, "\u043d\u044b\u043c\u0438,": 3629, "\u2581\u0440\u0430\u0437,": 3630, "\u2581\u043c\u0430\u0433\u0430\u0437\u0438": 3631, "\u0441\u043a\u043e\u0432": 3632, "\u2581\u0433\u043b\u0430\u0437\u0430\u0445": 3633, "\u2581\u0447\u0430\u0441": 3634, "\u0435\u0434\u0438\u043d": 3635, "\u0440\u0430\u0437\u0443": 3636, "\u2581\u043e\u0431\u0435\u0440": 3637, "\u2581\u043e\u0441\u0432\u0435": 3638, "\u0442\u0435\u043b\u0435\u043c": 3639, "\u043d\u043d\u044b\u043c": 3640, "\u043d\u0435\u0435.": 3641, "\u0432\u0448\u0438\u0435\u0441\u044f": 3642, "\u2581\u0434\u0440\u0443\u0433\u043e\u0433\u043e": 3643, "\u2581\u043a\u0435\u043c": 3644, "\u2581\u041f\u043e\u043b": 3645, "\u2581\u0411\u043e\u0433": 3646, "\u2581\u0434\u043d\u0435\u0439": 3647, "\u0441\u0442\u0432\u0435\u043d\u043d\u043e\u0433\u043e": 3648, "\u2581\u043e\u0433\u043e\u043d\u044c": 3649, "\u258113": 3650, "\u2581\u0412\u0430\u043c": 3651, "\u0434\u043e\u0440\u043e\u0432": 3652, "\u2581\u0440\u0443\u043a\u0430\u043c\u0438": 3653, "\u2581\u0444\u0435": 3654, "\u2581\u0441\u043e\u043b\u043d\u0446\u0435": 3655, "\u2581\u043c\u0438\u043d\u0443\u0442\u0443": 3656, "re": 3657, "\u2581\u043e\u0442\u0434\u0435\u043b\u044c": 3658, "\u043d\u043e\u0432.": 3659, "\u2581\u0432\u043e\u0434\u044b": 3660, "\u2581\u0440\u0430\u0437\u0433\u043e\u0432\u043e\u0440": 3661, "\u2581\u0432\u043e\u0441\u0435\u043c": 3662, "\u2581\u0434\u043e\u0436": 3663, "\u2581\u0434\u044b\u0445\u0430": 3664, "\u0442\u043d\u044b\u0439": 3665, "\u0442\u043d\u043e\u0439": 3666, "\u043b\u044f\u0440": 3667, "\u2581\u0432\u043e\u0442,": 3668, "\u043d\u0430\u043c": 3669, "\u2581\u0441\u043a\u043e\u0440\u0435\u0435": 3670, "\u2581\u0442\u043e\u0440\u043e": 3671, "\u043f\u0430\u0434": 3672, "\u2581\u0441\u0435\u043a\u0443\u043d": 3673, "\u2581\u043c\u0435\u043d\u044c\u0448\u0435": 3674, "it": 3675, "\u2581\u0445\u043e\u0447\u0435\u0448\u044c": 3676, "\u2581\u0441\u0442\u0430\u043d\u0435\u0442": 3677, "\u0442\u044e": 3678, "\u0441\u0442\u0438\u0442\u0443": 3679, "\u2581\u043f\u0438\u0441\u044c\u043c\u043e": 3680, "\u043d\u0438\u043a\u0430,": 3681, "\u2581\u0431\u0430\u043b": 3682, "\u2581\u043f\u043e\u0441\u043a\u043e\u043b\u044c\u043a\u0443": 3683, "\u2581\u043f\u044f\u0442\u0438": 3684, "\u2581\u043f\u0430\u043c\u044f": 3685, "\u043b\u0435\u0440": 3686, "\u0432\u0430\u0435\u0442\u0441\u044f,": 3687, "\u2581\u0434\u0440\u0435\u0432": 3688, "\u2581\u0438\u0434\u0442\u0438": 3689, "\u2581\u0443\u043d\u0438\u0447\u0442\u043e": 3690, "\u2581\u0442\u0435\u0447\u0435\u043d\u0438\u0435": 3691, "\u043c\u043e\u0435": 3692, "\u0445\u043d\u0443": 3693, "\u2581\u0443\u0432\u0430": 3694, "\u0434\u0438\u043b\u0430": 3695, "p\u0430": 3696, "\u2581\u201e": 3697, "\u2581\u043f\u0443\u0442\u044c": 3698, "\u2581P": 3699, "\u2581\u043d\u0430\u0441\u0442\u0440\u043e": 3700, "\u0442\u0430\u0440": 3701, "\u2581\u043d\u0435\u0434\u0430": 3702, "\u2581\u041c\u043e\u0436\u043d\u043e": 3703, "\u2581\u0441\u0432\u0438\u0434\u0435\u0442": 3704, "\u044f\u0432\u043b\u044f": 3705, "\u2581\u043e\u0431\u0430": 3706, "\u0434\u0430\u043b\u0435": 3707, "\u0442\u0435\u0441\u044c": 3708, "\u0434\u0443\u0448": 3709, "\u2581\u043e\u0437\u043d\u0430": 3710, "\u2581\u0443\u0436\u0430\u0441": 3711, "\u0410\u041d": 3712, "\u258130": 3713, "\u2581\u043f\u0430\u043f\u0430": 3714, "\u043c\u0443\u044e": 3715, "\u2581\u0440\u0430\u0437\u043c\u0435": 3716, "\u0448\u044c.": 3717, "\u0447\u0435\u0441\u043a\u0443\u044e": 3718, "\u2581\u043b\u044e\u0434\u0438,": 3719, "\u2581\u043e\u0434\u043d\u0430\u043a\u043e": 3720, "\u0440\u0430\u043c": 3721, "\u043b\u0443.": 3722, "\u2581\u0441\u043b\u0435\u0433\u043a\u0430": 3723, "\u043c\u0435\u043d\u0430": 3724, "\u2581\u0432\u0441\u0442": 3725, "\u2581\u0447\u0430\u0441\u043e\u0432": 3726, "\u2581\u043f\u043e\u0434\u044a": 3727, "\u2581\u0442\u0435\u0445,": 3728, "\u2581\u0441\u0442\u044b": 3729, "\u0446\u0435\u0440": 3730, "\u2581\u0443\u0445\u043e\u0434\u0438": 3731, "\u2581\u043c\u043e\u043b\u043e\u0434\u043e\u0439": 3732, "\u2581\u0444\u0438\u043b\u043e\u0441\u043e": 3733, "\u2581\u0410\u043b\u0435\u043a\u0441\u0435": 3734, "\u2581\u0432\u043e\u0437\u0434\u0443\u0445": 3735, "\u2581\u0433\u043e\u043b\u043e\u0432\u0430": 3736, "\u2581\u0448\u0435\u0441\u0442\u044c": 3737, "\u0440\u044b\u0432": 3738, "\u2581\u0440\u0430\u0441\u043a\u0440\u044b": 3739, "\u2581\u043d\u0435\u0438\u0437\u0432\u0435\u0441\u0442": 3740, "\u2581\u043e\u0441\u0432\u043e\u0431\u043e": 3741, "\u0441\u0442\u0432\u0438\u0438": 3742, "\u2581\u0413\u043e\u043b\u043e": 3743, "\u0410.": 3744, "\u0434\u0430\u043c": 3745, "\u0448\u0435\u043d\u0438\u0435": 3746, "\u043c\u043e\u043d": 3747, "\u2581\u0442\u0440\u0430\u043d": 3748, "\u043b\u0435\u0442\u0438": 3749, "\u0440\u0438,": 3750, "\u2581\u043f\u0440\u043e\u0432\u043e\u0434\u0438": 3751, "\u2581\u043d\u0430\u0432\u0435\u0440\u043d\u043e\u0435,": 3752, "\u2581\u0440\u0435\u0447\u044c": 3753, "\u0431\u044b.": 3754, "\u2581\u041a\u043e\u0440": 3755, "\u2581\u0441\u0442\u0435\u043f": 3756, "\u2581\u0442\u0435\u043a": 3757, "\u2581\u043f\u0430\u043b\u0430": 3758, "\u2581\u042d\u0442\u0430": 3759, "\u0448\u0430.": 3760, "\u2581\u043c\u043d\u043e\u0436\u0435": 3761, "\u2581\u043f\u0435\u0440\u0432\u043e": 3762, "\u2581\u043d\u0435\u0432\u0438": 3763, "\u2581\u0435\u0435.": 3764, "\u2581\u0434\u0435\u0432": 3765, "\u2581\u0441\u043e\u0432\u0440\u0435\u043c\u0435\u043d": 3766, "\u2581\u043e\u043a\u043e": 3767, "\u2581\u043a\u043e\u0441\u0442": 3768, "\u2581\u0446\u0430\u0440": 3769, "\u2581\u0437\u0430\u043b\u0438": 3770, "\u2581\u0437\u0435\u043c\u043b\u044f": 3771, "\u2581\u043f\u0440\u0435\u0434\u0430": 3772, "\u2581\u043f\u0435\u0442": 3773, "\u0436\u0435\u0439": 3774, "\u2581\u043b\u0438\u0442\u0435\u0440\u0430\u0442\u0443": 3775, "\u2581\u043c\u043e\u043b\u043e\u0434\u044b": 3776, "\u2581\u0412\u043b\u0430\u0434\u0438": 3777, "\u0434\u0435\u043d\u044c": 3778, "\u2581\u0432\u043f\u0435\u0447\u0430\u0442": 3779, "\u2581\u043e\u043f\u0435\u0440\u0430": 3780, "\u2581\u0441\u043c\u0435\u0440\u0442\u044c": 3781, "\u2581\u0432\u0447\u0435\u0440\u0430": 3782, "\u2581\u0443\u0441\u043c\u0435": 3783, "\u0440\u044c,": 3784, "\u2581\u043e\u043a\u0430\u0437\u044b": 3785, "\u0442\u0435\u043b\u044c\u0441\u0442\u0432\u043e": 3786, "\u2581\u0441\u043e\u043e\u0431\u0449\u0438": 3787, "\u0440\u0430\u044f\u0441\u044c": 3788, "\u2581\u0432\u043e\u0437\u0432\u0440\u0430\u0449\u0430": 3789, "\u043c\u0435\u0439": 3790, "\u0434\u044b\u0445\u0430": 3791, "\u2581\u0438\u0445,": 3792, "\u043d\u0438\u043a\u043e\u043c": 3793, "\u0440\u0435\u043b": 3794, "\u0436\u0438,": 3795, "\u0438\u043d\u0442\u0435\u0440\u0435": 3796, "\u2581\u043d\u0438\u043a\u0430\u043a\u0438\u0445": 3797, "\u043d\u0435\u043d\u043d\u043e": 3798, "\u2581\u043f\u044c\u044f": 3799, "\u043f\u0435\u0442": 3800, "\u2581\u0432\u0441\u0435\u043c\u0438": 3801, "\u0431\u0435\u043b\u044c": 3802, "\u2581\u043c\u0438\u0440\u043e": 3803, "\u2581\u043f\u0443\u0431\u043b\u0438": 3804, "\u0440\u0430\u0437\u0434\u043e": 3805, "\u2581\u043c\u043e\u0440\u044f": 3806, "\u2581\u0431\u044b\u0432\u0430\u0435\u0442": 3807, "\u2581\u0422\u0440\u0435": 3808, "\u2581\u0432\u043e\u0441\u043a\u043b\u0438": 3809, "\u0435\u043d\u043d\u044b\u0439": 3810, "\u2581\u0432\u0430\u0448": 3811, "\u2581\u043d\u0430\u043a\u043e\u043d\u0435\u0446,": 3812, "\u2581\u0432\u0435\u0440\u0438": 3813, "\u2581\u043f\u0440\u043e\u0438\u0437\u043e\u0448\u043b\u043e": 3814, "\u2581\u0446\u0432\u0435": 3815, "\u2581\u043a\u0430\u043a\u043e\u0433\u043e": 3816, "\u0434\u0435\u0441\u044f\u0442": 3817, "\u2581\u0440\u0430\u0437\u043d\u043e": 3818, "\u2581\u0437\u0430\u0442\u043e": 3819, "\u043a\u0430\u043b\u0438": 3820, "\u2581\u0424\u0430": 3821, "\u2581\u043c\u043d\u043e\u0433\u0438\u0435": 3822, "\u0432\u0448\u0438\u0445\u0441\u044f": 3823, "\u0431,": 3824, "\u2581\u0439": 3825, "\u2581\u0441\u0435\u0431\u044f.": 3826, "\u2581\u043d\u0438\u043a\u043e\u0433\u043e": 3827, "\u2581\u0447\u0435\u043c\u0443": 3828, "\u043b\u0435\u043c\u0435\u043d": 3829, "\u2581\u041f\u043e\u0441": 3830, "\u2581\u0442\u043e\u043c\u0443,": 3831, "\u2581\u0431\u043e\u043b": 3832, "\u043d\u0443\u043b.": 3833, "\u2581\u0431\u0435\u0441\u043a\u043e": 3834, "\u0432\u0443.": 3835, "\u2581\u043f\u043e\u044f\u0432\u043b\u044f": 3836, "\u2581\u0431\u0435\u0434": 3837, "\u2581\u043a\u043e\u043d\u0446\u0430": 3838, "\u0430\u043b\u044c\u043d\u0430\u044f": 3839, "\u2581\u043a\u043e\u043d\u0435\u0446": 3840, "\u2581\u0446\u0435\u043b\u043e": 3841, "\u043d\u0435\u0439.": 3842, "\u043d\u044f.": 3843, "\u2581\u0410\u0445,": 3844, "\u2581V": 3845, "\u2581\u043a\u0430\u0431\u0438\u043d\u0435\u0442": 3846, "\u2581\u043a\u0440\u043e\u0432\u0438": 3847, "\u2581\u041a\u043b\u0430": 3848, "\u2581\u0440\u0435\u0437\u043a\u043e": 3849, "\u2581\u0434\u043e\u0440\u043e\u0433\u043e": 3850, "\u2581\u0434\u0443\u0440\u0430": 3851, "\u2581\u043f\u0440\u043e\u0444\u0435\u0441\u0441\u043e": 3852, "\u2581\u043d\u0435\u043f\u0440\u0438\u044f\u0442": 3853, "\u0442\u0435\u043b\u044c,": 3854, "\u2581\u043f\u0440\u043e\u0433\u0440\u0430\u043c": 3855, "\u2581\u0431\u043e\u0439": 3856, "\u2581\u0421\u0432\u044f": 3857, "\u2581\u041c.": 3858, "\u2581\u043f\u0443\u0441\u0442\u043e": 3859, "\u0435\u043c\u0441\u044f": 3860, "\u2581\u0438\u043c\u0435\u043d\u0438": 3861, "\u2581\u0434\u0430\u0442\u044c": 3862, "\u2581\u043a\u043b\u0443": 3863, "\u2581\u043a\u043e\u043b\u044c": 3864, "\u2581\u0431\u043e\u0440\u044c": 3865, "\u0440\u043e\u0432\u0438\u0447": 3866, "\u2581\u043f\u043e\u043b\u0435\u0437": 3867, "\u2581\u043c\u0438\u0440\u0430": 3868, "\u0440\u043e\u0432\u0430\u043b": 3869, "\u2581\u043b\u0438\u0446\u0435": 3870, "\u0436\u043a\u0430": 3871, "\u0441\u0442\u0430.": 3872, "\u0442\u043e\u0440\u0438": 3873, "\u2581\u0432\u0435\u0440\u043e\u044f\u0442": 3874, "\u2581\u0445\u0443\u0434\u043e\u0436": 3875, "\u041e\u0420": 3876, "\u0448\u044c\u0441\u044f": 3877, "\u2581\u043f\u0440\u043e\u0448\u0435": 3878, "\u0444\u0444\u0435": 3879, "\u0418\u041d": 3880, "\u043d\u0438\u0438.": 3881, "!\"": 3882, "\u2581\u043c\u0435\u0445\u0430": 3883, "\u043a\u043b\u043e\u043d\u0438": 3884, "\u2581\u0433\u0430\u0437\u0435\u0442": 3885, "\u2581\u0436\u0430\u043b": 3886, "\u2581\u043f\u0440\u0438\u0434\u0435\u0442\u0441\u044f": 3887, "\u2581\u041e\u0441\u0442\u0430": 3888, "\u2581\u0441\u0432\u0435\u0442\u0435": 3889, "\u0434\u0435\u043b\u0435\u043d": 3890, "\u2581\u0421\u0442\u0440\u0430": 3891, "\u2581\u0441\u0430\u043c\u044b\u0435": 3892, "\u2581\u041c\u043e\u0439": 3893, "\u2581\u0431\u0435\u0441\u0441": 3894, "\u2581\u043f\u0440\u0435\u0434\u043e": 3895, "\u043f\u0438\u0441\u044b": 3896, "\u0448\u0435\u043a": 3897, "\u2581\u043c\u0430\u043b\u044b": 3898, "\u2581\u044f\u0449\u0438": 3899, "\u043b\u0438\u0442\u044c": 3900, "\u0434\u043b\u0435\u043d\u043d\u043e": 3901, "\u2581\u0433\u043d\u0435": 3902, "\u2581\u043e\u043f\u043e": 3903, "\u2581\u0442\u0430\u043a\u0443\u044e": 3904, "\u0442\u0435\u043b\u044c\u043d\u0430\u044f": 3905, "\u2581\u0418\u0441": 3906, "\u2581T": 3907, "\u0441\u0442\u0430\u044f": 3908, "\u0434\u0438\u043d\u0430": 3909, "\u2581\u043f\u043e\u0446\u0435": 3910, "\u2581\u0442\u0435\u0430": 3911, "\u2581\u043c\u0438\u043d\u0438": 3912, "\u2581\u043e\u043f\u0430\u0441\u043d\u043e": 3913, "\u2581\u044f\u0441\u043d\u043e": 3914, "\u043b\u044b,": 3915, "\u2581\u0436\u0435\u043d\u0438": 3916, "\u2581\u0442\u044f\u0436\u0435\u043b\u043e": 3917, "\u2581\u0434\u0435\u0442\u0438": 3918, "\u2581\u0420\u0430\u0441": 3919, "\u2581\u043f\u0435\u0440\u0438\u043e": 3920, "\u2581\u0432\u0430\u0441,": 3921, "\u2581\u0442\u044b\u0441\u044f\u0447": 3922, "\u2581\u041d\u0430\u0432\u0435\u0440": 3923, "\u2581\u043f\u043e\u0432\u043e": 3924, "\u2581\u0440\u0435\u0430": 3925, "\u043d\u043e\u0432\u0440\u0435\u043c\u0435\u043d\u043d\u043e": 3926, "\u2581\u043a\u043e\u043c\u0430\u043d\u0434\u0438": 3927, "\u2581\u043c\u043e\u0449": 3928, "\u2581\u043f\u043e\u0432\u0435\u0440\u0438": 3929, "\u0435\u0448\u044c?": 3930, "\u0441\u044b\u043f\u0430": 3931, "\u2581\u0434\u0435\u043d\u044c,": 3932, "\u0442\u0440": 3933, "\u2581\u043f\u0440\u0438\u0431\u044b": 3934, "\u0441\u0435\u0434\u0430": 3935, "\u2581\u043a\u0430\u0441\u0430": 3936, "\u2581\u0432\u044b\u0445\u043e\u0434\u0438": 3937, "\u2581\u0437\u0435\u0440\u043a": 3938, "\u2581\u043e\u0441\u0442\u0430\u043b\u043e\u0441\u044c": 3939, "\u2581\u0432\u0437\u044f\u0442\u044c": 3940, "\u2581\u0432\u043d\u0438\u043c\u0430\u043d\u0438\u0435": 3941, "\u0441\u0442\u0432\u043e\u0432\u0430\u0442\u044c": 3942, "\u2581\u043a\u0430\u043a\u0438\u0445": 3943, "\u043b\u0438\u0433\u0438": 3944, "\u043b\u0430\u0433": 3945, "\u0440\u0435\u043d\u0438\u044f": 3946, "\u2581\u0412\u0437": 3947, "\u0448\u044c?": 3948, "\u2581\u0443\u0434\u0438\u0432\u043b": 3949, "\u0442\u0438\u0442\u044c\u0441\u044f": 3950, "\u2581\u043d\u0435\u0433\u043e.": 3951, "\u043d\u043e\u0441\u044f": 3952, "\u2581\u0437\u0430\u043f\u043e": 3953, "\u2581\u0441\u043e\u0441\u0435\u0434": 3954, "\u2581\u0441\u0442\u0440\u0435\u043c\u0438": 3955, "\u2581\u043f\u0440\u043e\u043f\u0430": 3956, "\u2581\u0432\u0435\u0440\u043d\u0443\u043b\u0441\u044f": 3957, "\u2581\u043d\u0438\u043a\u0430\u043a\u043e\u0433\u043e": 3958, "\u2581\u043b\u0435\u0442,": 3959, "\u2581\u0440\u0443\u043a\u0438,": 3960, "\u2581\u043f\u0440\u0438\u043d\u0446\u0438": 3961, "\u2581\u0443\u0432\u0438\u0434\u0435\u0442\u044c": 3962, "\u2581\u043e\u0434\u043d\u0430\u0436\u0434\u044b": 3963, "\u2581\u0430\u043c\u0435\u0440\u0438\u043a\u0430\u043d": 3964, "\u2581\u043e\u0431\u0441\u0442\u043e\u044f": 3965, "\u043c\u043e\u0440": 3966, "\u0434\u0438\u044f": 3967, "\u2581\u043d\u0430\u043f\u0440\u043e": 3968, "\u2581\u0443\u043b\u044b\u0431\u0430": 3969, "\u0441\u0442\u044b\u0435": 3970, "\u2581\u0441\u0447\u0435\u0442": 3971, "\u2581\u0433\u043e\u0432\u043e\u0440\u0438\u0442,": 3972, "\u043e\u0431\u0440\u0430\u0437\u0438": 3973, "\u0432\u043d\u043e,": 3974, "\u2581\u0437\u0435\u043b\u0435\u043d\u044b": 3975, "\u2581\u0431\u0440\u0430\u0442": 3976, "\u0436\u0443.": 3977, "\u043d\u044f\u043b": 3978, "\u2581\u0433\u043e\u0440\u043e\u0434\u0430": 3979, "\u0441\u043e\u043c,": 3980, "\u2581\u043d\u0430\u0441\u0442\u043e\u043b\u044c\u043a\u043e": 3981, "\u2581\u0440\u0430\u0437\u0433\u043e\u0432\u0430\u0440\u0438": 3982, "\u2581\u041f\u043b\u0430": 3983, "\u0440\u0435\u0441": 3984, "\u2581\u0432\u044b\u0434\u0430": 3985, "\u2581\u0440\u0430\u0437\u0431\u0438": 3986, "\u043b\u0435\u043d\u044c": 3987, "\u2581\u043f\u043e\u0432\u0442\u043e\u0440\u044f": 3988, "\u0446\u0438\u0439": 3989, "\u2581\u043e\u0431\u0440\u0430\u0449\u0430": 3990, "\u043b\u043b\u0435": 3991, "\u2581\u0434\u0443\u0445\u043e\u0432": 3992, "\u2581\u043d\u0430\u0441,": 3993, "\u2581\u0437\u0434\u0430": 3994, "\u2581\u043d\u043e\u0432\u044b\u0439": 3995, "\u2581\u0427\u0435\u0433\u043e": 3996, "\u2581\u043d\u043e\u0433": 3997, "\u2581B": 3998, "\u2581\u0441\u0435\u0440\u0434\u0446\u0430": 3999, "\u2581\u0435\u043c\u0443,": 4000, "\u2581\u043c\u0438\u0440\u0435": 4001, "\u2581\u0437\u0430\u0432\u0435\u0440": 4002, "\u2581\u0412\u043e\u043b": 4003, "\u2581\u0441\u043f\u043e\u043a\u043e\u0439\u043d\u043e": 4004, "\u0442\u044f\u043d\u0443": 4005, "\u0437\u0430,": 4006, "\u2581\u043f\u0443\u0442\u0435\u0448\u0435": 4007, "\u2581\u043d\u0435\u0441\u043a\u043e\u043b\u044c": 4008, "\u2581\u0421\u0430\u043c": 4009, "\u043d\u0438\u043a\u0430.": 4010, "\u0446\u0432\u0435\u0442": 4011, "\u0441\u043e\u043b\u044e": 4012, "\u043d\u0438\u043a\u0443": 4013, "\u0442\u0430\u0445": 4014, "\u0434\u0443\u043c\u044b": 4015, "\u2581\u043f\u043e\u0441\u043e": 4016, "\u2581\u0434\u043e\u043c\u043e\u0439": 4017, "\u2581\u043b\u0435\u0436\u0430": 4018, "\u2581\u0432\u0441\u043f\u044b": 4019, "\u2581\u043f\u043e\u043c\u043e\u0447\u044c": 4020, "\u2581\u0441\u0442\u043e\u043b\u043e": 4021, "\u2581\u0442\u0430\u043a\u043e\u043c": 4022, "\u043c\u044b\u0435": 4023, "\u2581\u0423\u0436\u0435": 4024, "\u2581\u0433\u0440\u0430\u0436\u0434\u0430": 4025, "\u0434\u0436": 4026, "\u2581\u043f\u043b\u0430\u0442\u044c": 4027, "\u043c\u0435,": 4028, "\u2581\u043d\u0430\u0448\u0430": 4029, "\u043c\u043e\u0433\u043e": 4030, "\u2581\u044d\u043a\u0441\u043f\u0435": 4031, "\u043d\u0443\u044e,": 4032, "\u2581\u0411\u0430\u0440": 4033, "\u2581\u0437\u0430\u0440\u0430": 4034, "\u2581\u0445\u0430\u0440\u0430\u043a\u0442\u0435\u0440": 4035, "\u0442\u044f\u0433\u0438": 4036, "\u2581\u0433\u043e\u0440\u0430\u0437\u0434\u043e": 4037, "\u0441\u043e\u0432,": 4038, "\u0447\u0438\u0442\u044b": 4039, "\u2581\u0437\u0430\u0445\u0432\u0430": 4040, "\u0441\u0442\u0432\u0435\u043d\u043d\u044b\u0445": 4041, "\u044e\u0449\u0443\u044e": 4042, "\u043d\u0430\u043b\u0430": 4043, "\u043a\u043e\u043c\u0438": 4044, "\u0432\u0448\u0435\u0435": 4045, "\u2581\u043d\u0435\u043c\u0435\u0446": 4046, "\u2581\u0431\u0443\u0434\u0435\u0448\u044c": 4047, "\u2581\u0437\u0430\u043f\u043b\u0430": 4048, "\u2581\u0441\u044b\u043d": 4049, "\u2581\u0413\u0435\u043d": 4050, "\u2581\u0441\u0432\u044f\u0437\u0430": 4051, "\u2581\u043c\u0435\u043b\u044c": 4052, "\u2581\u043f\u0440\u0438\u0433\u043e\u0442\u043e": 4053, "\u0439!": 4054, "\u2581\u0438\u0437\u043c\u0435\u043d": 4055, "\u2581\u0440\u0430\u0441\u043f\u0440\u043e": 4056, "\u2581\u0441\u0442\u043e\u044f\u043b\u0430": 4057, "\u2581\u043e\u0442\u0432\u0435\u0442\u0438\u043b\u0430": 4058, "\u2581\u043f\u043e\u0434\u0442\u0432\u0435\u0440": 4059, "\u2581\u0442\u0435\u043e": 4060, "\u2581\u043d\u0435\u0447\u0442\u043e": 4061, "\u2581\u0441\u043b\u0430\u0431\u043e": 4062, "\u0440\u044d": 4063, "\u2581\u043f\u043e\u0441\u0442\u043e\u044f\u043d\u043d\u043e": 4064, "\u043d\u0438\u0442": 4065, "\u2581\u043c\u043e\u0436\u0435\u0442\u0435": 4066, "\u2581\u0440\u0430\u0441\u0442": 4067, "\u043e\u0437": 4068, "\u0440\u0438\u0446\u0430": 4069, "\u2581\u0444\u0440\u0430\u043d\u0446\u0443\u0437": 4070, "\u043d\u043d\u0443\u044e": 4071, "\u043b\u0438\u043b": 4072, "\u2581\u0434\u0435\u0432\u0443\u0448\u043a\u0430": 4073, "\u2581\u0432\u043e\u0437\u043c\u043e\u0436\u043d\u043e\u0441\u0442\u044c": 4074, "\u2581\u0440\u0430\u0437\u0440\u0443": 4075, "\u043b\u044c\u043d\u044b\u0439": 4076, "\u2581\u043a\u0430\u0440\u0442\u043e": 4077, "\u2581\u0440\u0443\u0431": 4078, "\u0436\u043a\u0443": 4079, "\u2581\u0430\u043d\u0433\u043b\u0438\u0439": 4080, "\u043d\u044c\u0435": 4081, "\u0434\u043e\u0440": 4082, "\u2581\u0441\u043a\u043e\u043b\u044c": 4083, "\u043f\u0440\u044b": 4084, "\u2581\u043a\u0443\u043b\u0430": 4085, "\u2581\u043d\u043e\u0440\u043c": 4086, "\u2581\u0435\u0441\u0442\u044c,": 4087, "\u2581\u043f\u043e\u0434\u0433\u043e": 4088, "\u2581\u043d\u043e\u0432\u044b\u0435": 4089, "\u0432\u0430\u043b\u0438,": 4090, "\u0440\u0435\u0446": 4091, "\u2581\u043f\u0440\u043e\u0441\u0442\u0438": 4092, "\u2581\u0437\u043d\u0430\u0447\u0438\u0442": 4093, "\u2581\u0441\u043b\u0443\u0447\u0438\u043b\u043e\u0441\u044c": 4094, "\u2581\u0443\u043a\u0430\u0437\u0430": 4095, "\u0447\u0435\u0441\u0442\u0432\u0430": 4096, "\u2581\u0441\u043f\u0440\u044f": 4097, "\u043a\u0442\u043e\u0440\u0430": 4098, "\u2581\u0432\u0430\u0448\u0438": 4099, "\u0441\u0442\u044b\u0439": 4100, "\u0436\u0438\u0439": 4101, "\u0441\u0442\u0443\u043f\u0438\u043b": 4102, "\u0448\u0430\u0435\u0442": 4103, "\u0434\u0438\u043c": 4104, "\u043d\u0430\u043d": 4105, "\u0435\u043d\u043d\u043e\u043c": 4106, "\u2581\u043f\u043e\u043c\u043e\u0449\u044c\u044e": 4107, ".)": 4108, "\u2581\u0441\u0442\u0430\u043d\u043e\u0432\u0438\u0442\u0441\u044f": 4109, "\u2581\u043f\u0430\u0440\u043e": 4110, "\u2581\u041a\u0443\u0434\u0430": 4111, "\u2581\u0433\u043e\u0434\u044b": 4112, "\u2581\u0430\u00a0": 4113, "\u2581\u0440\u0435\u0432\u043e\u043b\u044e": 4114, "\u2581\u0441\u0435\u043b": 4115, "\u2581\u043a\u0430\u043a\u043e\u0435-": 4116, "\u2581\u044f\u0432\u0438": 4117, "\u0440\u0438\u0430\u043d": 4118, "\u2581\u0412\u0434": 4119, "\u043c\u0435\u0435\u0442\u0441\u044f,": 4120, "\u0441\u0443,": 4121, "\u2581n": 4122, "\u2581\u0441\u0438\u044f": 4123, "\u043a\u0440\u043e\u0432": 4124, "\u0441\u043f\u0438": 4125, "\u2581\u0441\u043e\u0440": 4126, "\u044e\u0449\u0438\u043c\u0438": 4127, "\u2581\u0438\u043c\u0435\u0442\u044c": 4128, "\u2581\u0418\u00a0": 4129, "\u0431\u043e\u0440\u0430": 4130, "\u2581\u043f\u043e\u0440\u0443": 4131, "\u2581\u043f\u0440\u043e\u0434\u0443": 4132, "\u2581\u0441\u043e\u0441": 4133, "\u2581\u043d\u0435\u0451": 4134, "\u2581\u043e\u0442\u0441\u0443\u0442": 4135, "\u2581\u2116": 4136, "\u043c\u043e\u0431\u0438": 4137, "\u2581\u0445\u043e\u0437\u044f\u0438": 4138, "\u2581\u0443\u043c\u0438\u0440\u0430": 4139, "\u2581\u043f\u043e\u043d": 4140, "\u2581\u043f\u0435\u0440\u0432\u043e\u0433\u043e": 4141, "\u2581\u0433\u043e\u0432\u043e\u0440\u044e": 4142, "\u0444\u0443": 4143, "\u2581\u043f\u0440\u0435\u0434\u043c\u0435\u0442": 4144, "\u0439\u0442": 4145, "\u043b\u043b\u0430": 4146, "\u0448\u0435\u0431": 4147, "\u2581\u043d\u0435\u0434\u043e\u0441\u0442\u0430": 4148, "\u2581\u0414\u0436\u043e\u043d": 4149, "\u2581\u0437\u043d\u0430\u0435\u0442,": 4150, "\u2581\u043e\u0447\u0435\u0440\u0435": 4151, "\u2581D": 4152, "\u043a-": 4153, "\u2581\u0438\u044e": 4154, "\u2581\u0437\u0435\u043c\u043b\u0435": 4155, "\u2581\u043d\u0430\u0437\u043d\u0430": 4156, "\u2581\u0421\u043a\u043e\u043b\u044c\u043a\u043e": 4157, "\u2581\u041a\u0430\u043a\u043e\u0439": 4158, "\u2581\u043f\u043b\u0435\u0447\u043e": 4159, "\u0434\u0430\u043c\u0438": 4160, "\u0430\u043b\u043e,": 4161, "\u043d\u044e.": 4162, "\u2581\u0436\u0435\u0441\u0442\u043e": 4163, "\u2581\u043f\u0441\u0438\u0445\u043e": 4164, "\u2581\u043f\u043e\u0441\u043f\u0435": 4165, "\u043f\u0440\u0443": 4166, "\u2581\u0443\u0447\u0435": 4167, "\u2581\u0447\u0443\u0434\u0435": 4168, "\u2581\u0420\u044b": 4169, "p\u0438": 4170, "\u2581\u0437\u0430\u0433\u0430": 4171, "\u2581\u0424\u043e": 4172, "\u0441\u0442\u044c\u044e.": 4173, "\u043c\u044b.": 4174, "\u258125": 4175, "\u2581\u0441\u0442\u0430\u0440\u043e": 4176, "\u0432\u043d\u043e\u043c": 4177, "\u2581\u0443\u0441\u0442\u0430\u043d\u043e\u0432": 4178, "\u2581\u0438\u0441\u0442\u043e\u0440\u0438\u0438": 4179, "\u2581\u043f\u043e\u0441\u0430": 4180, "\u2581\u0440\u0430\u0441\u0441\u0443": 4181, "\u0447\u0430,": 4182, "\u2581\u0432\u0430\u0448\u0435": 4183, "\u2581\u043c\u0435\u0434\u0438": 4184, "\u2581\u0437\u0430\u0432\u043e": 4185, "\u2581\u0416\u0435\u043d": 4186, "\u0432\u043b\u0435\u043a": 4187, "\u2581\u043d\u0438\u043c,": 4188, "\u2581\u043f\u0430\u0443": 4189, "\u2581\u0431\u0430\u0440": 4190, "\u0434\u043d\u044b\u0435": 4191, "\u0435\u043d\u0438\u0435\u043c,": 4192, "\u2581\u043c\u043d\u0435.": 4193, "\u0434\u043e\u0432,": 4194, "\u2581\u0431\u0430\u0448": 4195, "\u2581\u0421\u0435\u0433\u043e": 4196, "\u2581\u0432\u0438\u0434\u0443": 4197, "\u043b\u043e\u0436\u0435\u043d": 4198, "\u2581\u043f\u043e\u043f\u0443": 4199, "\u043b\u043e\u0442": 4200, "\u2581\u043d\u0435\u043a\u043e\u0442\u043e\u0440\u044b\u0435": 4201, "\u2581\u043f\u043e\u043b\u043d\u043e": 4202, "\u2581\u043f\u0435\u0440\u0435\u0436\u0438": 4203, "\u2581\u0443\u043b\u0438\u0446\u0435": 4204, "\u043f\u0435\u043d\u043d\u043e": 4205, "\u2581\u0441\u043f\u0430\u0441": 4206, "\u2581\u0443\u0447\u0430\u0441\u0442": 4207, "\u2581\u0446\u0435\u043b\u044c": 4208, "\u2581\u043f\u0440\u043e\u0441\u0438": 4209, "\u2581\u0436\u0438\u0432\u0435\u0442": 4210, "\u0442\u0430\u043c": 4211, "\u2581\u0428\u0435": 4212, "\u043c\u0438\u043b\u0438": 4213, "\u2581\u0422\u043e\u0442": 4214, "0\u00a0": 4215, "\u2581\u0432\u0435\u0437": 4216, "\u2581\u041c\u0430\u0439": 4217, "\u2581\u0412\u0441\u0451": 4218, "\u2581199": 4219, "\u2581\u0433\u043e\u043b\u043e\u0432\u0443,": 4220, "\u2581\u0440\u0443\u0431\u0430": 4221, "\u043f\u0435\u0439": 4222, "\u044f\u043c": 4223, "\u2581\u0437\u0430\u043a\u0430": 4224, "\u2581\u0440\u0435\u043b\u0438\u0433\u0438": 4225, "\u0430\u043b\u044c\u043d\u044b\u043c": 4226, "\u2581\u0434\u043e\u0441\u0442\u043e": 4227, "\u043b\u043e\u0436\u0438\u0442\u044c": 4228, "\u2581\u043f\u043e\u0435": 4229, "\u0441\u043e\u043c.": 4230, "\u2581\u043c\u043e\u0433\u043b\u043e": 4231, "\u0447\u043e\u043a": 4232, "\u2581\u043e\u0442\u0441\u044e": 4233, "\u043d\u043a\u0443": 4234, "\u0440\u0438\u043b\u0430": 4235, "\u0430\u043b\u0435\u043d": 4236, "\u2581\u0440\u043e\u0434\u0438\u0442\u0435": 4237, "\u043d\u0435\u0441\u0442\u0438": 4238, "\u0431\u0438\u0442\u044c": 4239, "\u2581\u0432\u043a\u0443": 4240, "\u2581\u0434\u0440\u0443\u0437\u044c\u044f": 4241, "\u2581\u043c\u0435\u0442\u043e": 4242, "\u2581\u0421\u0435\u0433\u043e\u0434\u043d\u044f": 4243, "\u0442\u043e,": 4244, "\u044f\u0441\u044c,": 4245, "\u2581\u0432\u043e\u0441\u043f\u0438": 4246, "\u2581\u043d\u0430\u0448\u0435\u043b": 4247, "\u2581\u0434\u043e\u043a\u0443": 4248, "\u2581\u043f\u043e\u0441\u044b": 4249, "\u043a\u0430\u044f,": 4250, "\u2581\u0413\u0430\u0440": 4251, "\u2581\u041a\u0440\u043e\u043c\u0435": 4252, "\u0447\u0438\u043b\u0430": 4253, "\u2581\u041f\u0440\u0430": 4254, "\u2581\u0441\u0432\u044f\u0437\u0438": 4255, "\u2581\u0432\u044b\u0441\u0442\u0440\u0435": 4256, "\u2581\u0434\u0435\u0442\u0435\u0439": 4257, "\u043d\u043e\u043a,": 4258, "\u2581\u043b\u0435\u0441": 4259, "\u2581\u2022": 4260, "\u2581\u043c\u043e\u0436\u0435\u0448\u044c": 4261, "\u043d\u043e\u0433\u043e.": 4262, "\u2581\u0441\u043a\u0440\u0438": 4263, "\u0441\u043a\u0438\u043c\u0438": 4264, "\u2581\u0434\u0435\u044f\u0442\u0435\u043b\u044c\u043d\u043e": 4265, "\u2581\u043a\u0440\u0438\u043a\u043d\u0443\u043b": 4266, "\u2581\u041c\u043e\u043b\u043e": 4267, "\u2581\u043f\u043b\u0435\u043d": 4268, "\u2581\u044f\u0432\u043d\u043e": 4269, "\u043e\u0431\u0440\u0435": 4270, "\u2581\u043e\u0442\u043a\u0440\u044b\u043b": 4271, "\u0448\u0435\u043d\u044c": 4272, "\u043f\u0438\u0441\u0430\u043b": 4273, "\u2581\u0443\u0441\u043b\u044b": 4274, "\u0432\u0430\u0435\u043c\u044b": 4275, "\u043b\u044c\u043d\u043e\u0439": 4276, "\u2581\u043a\u0430\u0436\u0434\u043e\u0433\u043e": 4277, "\u2581\u0421\u043d\u0430": 4278, "\u0435\u0432,": 4279, "\u043d\u0438\u0446\u0443": 4280, "\u2581\u0433\u043b\u0443\u043f\u043e": 4281, "\u0441\u0442\u0440\u0430\u0438": 4282, "\u0433\u0435\u0439": 4283, "\u2581\u043d\u0430\u0437\u0430\u0434,": 4284, "\u2581\u043e\u0441\u0442\u0430\u0432\u0438": 4285, "\u2581\u0431\u043e\u043b\u044c\u0448\u0435,": 4286, "\u2581\u0441\u0443\u043c\u0435": 4287, "\u2581\u0435\u0432": 4288, "\u2581\u043c\u043d": 4289, "\u0431.": 4290, "\u0441\u0441\u0438\u0441": 4291, "\u2581b": 4292, "\u0432\u043b\u0435\u043a\u0430": 4293, "\u043f\u0443\u0441\u043a": 4294, "\u2581\u0441\u0438\u043b\u0443": 4295, "\u0441\u0442\u0432\u0435\u043d\u043d\u043e\u0435": 4296, "\u2581...": 4297, "\u2581\u0421\u043b\u0430": 4298, "\u2581\u0410\u043d\u0434\u0440\u0435": 4299, "\u2581\u043e\u043f\u044b": 4300, "\u2581\u041d\u0435\u0443\u0436\u0435\u043b\u0438": 4301, "\u043b\u044b\u043c\u0438": 4302, "\u2581\u0432\u043f\u0435\u0440\u0435\u0434": 4303, "\u2581191": 4304, "\u2581\u043f\u043e\u043b\u043d\u043e\u0441\u0442\u044c\u044e": 4305, "\u2581\u0437\u043d\u0430\u0435\u0448\u044c,": 4306, "\u0433\u0435,": 4307, "\u043d\u043e\u0441": 4308, "\u043b\u044e,": 4309, "\u2581\u0420\u043e\u0441\u0441\u0438\u0438": 4310, "\u2581\u0434\u043d\u0438": 4311, "\u2581\u043f\u043e\u0434\u0440\u0443": 4312, "\u2581\u043f\u043e\u043b\u0443\u0447\u0438\u043b": 4313, "\u2581\u0432\u043e\u0441\u043f\u0440\u0438": 4314, "\u2581\u0437\u0430\u043a\u0443": 4315, "\u043d\u0434\u0438": 4316, "\u0431\u0430.": 4317, "\u2581\u041d\u0430\u043c": 4318, "\u2581\u0433\u043e\u0441\u043f\u043e\u0434\u0438\u043d": 4319, "\u2581\u043d\u0430\u043f\u0438": 4320, "\u2581\u0441\u0438\u043b": 4321, "\u2581\u043b\u044e\u0434\u044c": 4322, "\u0432\u0430\u043b\u0441\u044f,": 4323, "\u2581\u043b\u044e\u0431\u043e\u0439": 4324, "\u2581\u0441\u0442\u043e\u044f\u043b\u0438": 4325, "\u2581\u0419": 4326, "\u2581\u043b\u0435\u0436\u0430\u043b": 4327, "\u2581\u0447\u0430\u0439": 4328, "\u2581\u0434\u043e\u043c\u0430,": 4329, "\u2581\u0432\u0435\u0440\u0445": 4330, "\u2581\u043a\u0430\u043f\u0438\u0442\u0430": 4331, "\u043c\u0435\u043d\u0442": 4332, "\u2581w": 4333, "\u0435\u043d\u0430.": 4334, "\u0441\u0443.": 4335, "\u0432\u0430\u043d\u0438\u0435\u043c": 4336, "\u2581\u043b\u044f": 4337, "\u2581\u043f\u0440\u0430\u0432\u0434\u0430": 4338, "\u2581\u0441\u0446": 4339, "\u2581\u043f\u043e\u043d\u0430": 4340, "\u2581\u041f\u0430\u0440": 4341, "\u2581\u043c\u043d\u043e\u0433\u0438\u0445": 4342, "\u2581\u0442\u043e\u0440\u0436\u0435": 4343, "\u043d\u0451": 4344, "\u2581l": 4345, "\u2581\u041f\u043e\u0437": 4346, "\u0432\u043d\u043e\u0439": 4347, "\u2581\u0440\u0430\u0434\u0438\u043e": 4348, "\u2581\u0418\u0432\u0430\u043d\u043e\u0432\u0438": 4349, "\u2581\u0432\u0430\u0436": 4350, "\u2581\u0441\u0432\u0430": 4351, "\u0441\u0442\u0432\u0435\u043d\u043d\u044b\u043c": 4352, "\u0447\u043a\u0430.": 4353, "\u0434\u0438\u0432\u0438": 4354, "\u043f\u0435\u043b": 4355, "\u2581\u0440\u0430\u0437\u0443\u043c": 4356, "\u044f\u043c\u0438": 4357, "\u043c\u0430\u0441": 4358, "\u2581\u043f\u0435\u0440\u0432\u043e\u0439": 4359, "\u0435\u043d\u043d\u044b\u0435": 4360, "\u2581\u0442\u0435\u0431\u0435,": 4361, "\u043a\u0443\u0440\u0430": 4362, "\u0432\u044b\u0445,": 4363, "\u2581\u043e\u0434\u043d\u043e\u0432\u0440\u0435\u043c\u0435\u043d\u043d\u043e": 4364, "\u2581\u043b\u0435\u0442.": 4365, "\u2581\u0417\u043e": 4366, "\u0437\u044b,": 4367, "\u043d\u0430\u0434\u0446\u0430": 4368, "\u2581\u043f\u043e\u0436\u0430\u043b\u0443\u0439": 4369, "\u2581\u043e\u0431\u0449": 4370, "\u2581\u0447\u0435\u043b\u043e\u0432\u0435\u043a.": 4371, "\u0441\u043e\u0432.": 4372, "\u2581\u0432\u044b\u0441\u043e\u043a\u043e": 4373, "\u2581\u043a\u0430\u0437\u0430": 4374, "\u2581\u0441\u0443\u0449\u0435\u0441\u0442\u0432\u0443": 4375, "\u2581\u043b\u044e\u0431\u043e\u043f\u044b\u0442": 4376, "\u2581\u043f\u0440\u0435\u0434\u0443\u043f\u0440\u0435": 4377, "\u0436\u0435\u043d\u0438\u0435\u043c": 4378, "\u2581\u043e\u0441\u043a\u043e": 4379, "\u043a\u043e\u0440": 4380, "\u2581\u043c\u044b\u0448": 4381, "\u2581\u0441\u043e\u0434\u0435\u0440\u0436\u0430": 4382, "\u2581\u0432\u043b\u0438\u044f": 4383, "\u043f,": 4384, "\u0435\u0448\u044c\u0441\u044f": 4385, "\u2581\u0441\u043e\u0432\u0435": 4386, "\u2581\u0438\u043d\u0441\u0442\u0440\u0443": 4387, "\u2581\u0443\u0434\u043e\u0431": 4388, "\u0447\u0435\u0441\u043a\u043e\u043c": 4389, "\u2581\u0412\u0442\u043e": 4390, "\u2581\u0414\u0432\u0430": 4391, "\u2581\u0441\u0442\u0440\u0430\u0434\u0430": 4392, "\u2581\u0441\u0442\u0443\u043f": 4393, "\u2581\u0440\u0430\u0437\u0434\u0440\u0430": 4394, "\u2581\u0440\u043e\u043c\u0430\u043d": 4395, "al": 4396, "\u2581\u0432\u0435\u0447\u043d\u043e": 4397, "\u0410\u0420": 4398, "\u2581\u0443\u0433\u0440\u043e": 4399, "\u2581\u0412\u0434\u0440\u0443\u0433": 4400, "\u0441\u0442\u0432\u0435\u043d\u043d\u044b\u0435": 4401, "\u2581\u0422\u0435\u0431\u0435": 4402, "\u2581\u041d.": 4403, "\u2581\u043f\u0440\u0438\u043d\u0435\u0441": 4404, "\u0442\u0430\u0435\u0442": 4405, "\u2581\u0437\u0430\u044f\u0432\u0438": 4406, "\u0442\u0438\u043b\u0430\u0441\u044c": 4407, "\u2581\u043d\u0435\u0441\u0447\u0430\u0441\u0442": 4408, "\u2581\u0432\u044b\u0440": 4409, "\u2581\u0438\u043c\u0435\u043b": 4410, "\u2581\u0448\u043b\u044f": 4411, "\u2581\u043c\u043e\u0440\u0435": 4412, "\u0441\u0442\u0430\u0442\u0438,": 4413, "\u2581\u043d\u043e\u0436": 4414, "\u2581\u0441\u0435\u043d": 4415, "\u2581\u043f\u0440\u043e\u043a\u043b\u044f": 4416, "\u2581\u0445\u043e\u0442\u0435\u043b\u0430": 4417, "\u2581N": 4418, "\u2581\u0412\u043e\u0437\u043c\u043e\u0436\u043d\u043e": 4419, "\u2581\u0443\u0434\u043e\u0432\u043e\u043b\u044c\u0441\u0442\u0432\u0438": 4420, "\u0432\u0430\u043b\u0430,": 4421, "\u2581\u043e\u043a\u0440\u0443\u0436\u0430": 4422, "\u2581\u0434\u0440\u0443\u0433\u043e\u043c": 4423, "\u2581\u043a\u00a0": 4424, "\u2581\u0433\u043e\u0442\u043e\u0432": 4425, "\u0448\u0451\u043b": 4426, "\u2581\u043a\u043e\u043c\u0438": 4427, "\u2581\u043f\u043e\u0436\u0438": 4428, "\u2581\u043f\u043e\u043c\u043e\u0449\u044c": 4429, "\u2581\u0428\u0443": 4430, "\u2581\u043f\u043e\u0441\u043b\u0435\u0434\u043d\u0438\u0435": 4431, "\u0447\u0438\u043b\u0438": 4432, "\u043c\u0435\u0442\u0438": 4433, "\u2581\u043e\u0441\u043d\u043e\u0432": 4434, "\u2581\u044d\u043b\u0435\u043a\u0442\u0440\u043e": 4435, "\u043a\u043e\u043d\u043e\u043c\u0438": 4436, "\u2581\u043f\u0440\u043e\u0438\u0441\u0445\u043e\u0434\u0438\u0442": 4437, "\u2581\u0433\u0440\u044f\u0437": 4438, "\u043b\u043a\u0443": 4439, "\u2581\u0412\u0430\u0441\u0438\u043b\u0438": 4440, "\u2581\u0441\u0442\u0438\u0445\u0438": 4441, "\u0438\u043d\u0442\u0435\u0440\u0435\u0441\u043e": 4442, "\u2581\u043e\u0441\u0442\u0430\u043b\u0441\u044f": 4443, "\u0441\u043a\u0438,": 4444, "\u2581\u0437\u0430\u043f\u0440\u0435": 4445, "\u2581\u0421\u043e\u0432\u0435\u0442": 4446, "\u2581\u043e\u0441\u0442\u0430\u0432\u043b\u044f": 4447, "\u043d\u043e-": 4448, "\u2581\u043d\u043e\u0447\u044c\u044e": 4449, "\u2581\u0442\u043e\u0442,": 4450, "\u2581\u043d\u0435\u0439,": 4451, "\u2581\u041f\u0440\u0430\u0432\u0434\u0430,": 4452, "\u043a\u043e\u043b\u0435": 4453, "\u2581\u043d\u044b\u043d\u0435": 4454, "\u2581\u0447\u0442\u043e?": 4455, "\u2581\u043d\u0438\u043c.": 4456, "\u2581\u0434\u043e\u0447\u044c": 4457, "\u2581\u043a\u043e\u0442\u043e\u0440\u043e\u043c\u0443": 4458, "\u2581\u0441\u043b\u043e\u0432": 4459, "\u2581\u0433\u043e\u043b\u043e\u0432\u043e\u0439.": 4460, "\u2581\u0418\u043c\u0435\u043d\u043d\u043e": 4461, "\u0434\u0443\u044e": 4462, "\u2581\u0430\u0431\u0441\u043e\u043b\u044e": 4463, "\u2581\u0441\u043e\u0441\u0442\u0430\u0432\u043b\u044f": 4464, "\u043c\u044b\u043c": 4465, "\u2581\u0432\u0435\u0449\u0435": 4466, "\u043a\u043e\u0432\u043e": 4467, "\u2581\u043a\u0440\u0430\u0439\u043d\u0435\u0439": 4468, "\u0447\u0435,": 4469, "\u2581\u041d\u0438\u043a\u0442\u043e": 4470, "\u2581\u043d\u0438\u0445,": 4471, "\u2581\u0425\u0443": 4472, "\u2581\u0432\u0441\u0442\u0440\u0435\u0447\u0430": 4473, "\u2581\u043a\u0430\u043a\u0430\u044f-": 4474, "\u0436\u0430,": 4475, "\u2581h": 4476, "\u0447\u0430\u043b\u0441\u044f": 4477, "\u2581\u0427\u0435\u043c": 4478, "\u2581\u0437\u0430\u043c\u0435\u0440": 4479, "\u0441\u043a\u0438\u0439,": 4480, "\u2581\u0418\u0442\u0430": 4481, "\u2581\u0421\u043f\u0430\u0441\u0438\u0431\u043e": 4482, "\u0448\u0435\u0442": 4483, "\u2581\u0432\u0435\u0441": 4484, "\u2581\u043e\u043f\u0430\u0441": 4485, "\u043d\u043d\u043e\u043c": 4486, "\u0442\u0432\u043e\u0440": 4487, "\u2581\u0437\u0430\u043b": 4488, "\u0441\u0442\u0438\u0442\u044c": 4489, "\u0432\u043b\u0435\u043d\u0438\u0438": 4490, "\u2581\u0413\u0438": 4491, "\u2581\u0432\u0440\u0435\u043c\u0435\u043d\u0438,": 4492, "\u2581\u0440\u0430\u0431\u043e\u0442\u0443": 4493, "\u2581\u0418.": 4494, "\u0421\u0421": 4495, "\u2581\u043f\u043e\u043d\u044f\u043b": 4496, "\u0441\u0442\u0430\u043d\u043e\u0432": 4497, "\u2581\u0422\u0430\u043a,": 4498, "\u2581\u041f\u0430\u0432": 4499, "\u2581\u043b\u0438\u0448": 4500, "\u0436\u0438\u043d": 4501, "\u2581\u0432\u0432\u0435\u0440\u0445": 4502, "\u0447\u043a\u0438.": 4503, "\u0448\u0438\u043c\u0438": 4504, "\u2581\u0432\u043e\u0441\u043f\u043e\u043c\u0438\u043d\u0430": 4505, "\u2581\u0427\u0442\u043e-": 4506, "\u2581\u0441\u0440\u043e": 4507, "\u2581\u0440\u0430\u0441\u043f\u0430": 4508, "].": 4509, "\u2581\u043c\u0430\u0441\u0442\u0435\u0440": 4510, "\u2581\u0445\u0440\u0438\u0441\u0442\u0438": 4511, "\u2581\u0433\u0440\u0443\u0434\u044c": 4512, "\u2581\u0431\u0440\u0438": 4513, "\u043d\u0430\u044f.": 4514, "\u2581\u043d\u0430\u0441\u0435": 4515, "\u2581\u044d\u0444\u0444\u0435": 4516, "\u2581\u043b\u0430\u043c": 4517, "\u0430\u043b\u043e.": 4518, "\u2581\u0440\u0430\u0437\u043d\u044b\u0445": 4519, "\u2581\u0432\u043e\u0441\u0435\u043c\u044c": 4520, "\u2581\u043e\u0431\u0440\u0435": 4521, "\u0432\u0438\u043d\u0438": 4522, "\u2581\u0441\u043c\u043e\u0442\u0440\u0435\u0442\u044c": 4523, "\u2581\u0418\u043d\u043e": 4524, "\u2581\u043f\u043e\u043c\u0438": 4525, "\u2581\u043d\u0435\u0441\u043c\u043e\u0442\u0440\u044f": 4526, "\u2581\u043f\u043e\u0447\u0435\u043c\u0443-": 4527, "\u2581\u0437\u0430\u0434": 4528, "\u2581\u043e\u0431\u043e\u0440\u043e": 4529, "\u2581\u0431\u0435\u0441\u0435": 4530, "\u2581f": 4531, "\u0431\u0438\u043b\u0438": 4532, "\u2581\u0448\u0443\u0442": 4533, "\u2581\u043d\u0430\u0432": 4534, "\u2581\u0414\u0430.": 4535, "\u2581\u0432\u0438\u043d\u043e\u0432\u0430": 4536, "\u2581\u043c\u043e\u0440\u043e": 4537, "\u2581\u043e\u043a\u043d\u0430": 4538, "\u2581\u0437\u043d\u0430\u043c\u0435\u043d\u0438": 4539, "\u2581\u0413\u0440\u0430": 4540, "\u0432\u043e\u0441": 4541, "\u0435\u0440\u043a\u043e\u0432": 4542, "\u2581\u0432\u043f\u0435\u0440\u0432\u044b\u0435": 4543, "\u2581\u0433\u0430\u0440": 4544, "\u2581\u043d\u0435\u043f\u0440\u0435": 4545, "\u2581\u043f\u0440\u0435\u0436\u043d\u0435\u043c\u0443": 4546, "\u2581\u043e\u0432": 4547, "\u0437\u043e\u0432": 4548, "\u2581\u0411\u044b\u043b\u043e": 4549, "\u2581\u0448\u0442\u0443": 4550, "\u2581\u043a\u043e\u043b\u0435\u043d": 4551, "\u2581\u0441\u043e\u0436\u0430\u043b": 4552, "\u2581\u0442\u0432\u043e\u0438": 4553, "\u2581\u0438\u0441\u043f\u044b\u0442\u044b": 4554, "\u2581\u0441\u043c\u043e\u0442\u0440\u0438\u0442": 4555, "\u2581\u0433\u0435\u0440": 4556, "\u043d\u0438\u0437\u0443": 4557, "\u0435\u0439,": 4558, "\u2581\u0432\u0441\u0435\u043c\u0443": 4559, "\u2581\u0441\u0442\u0430\u0440\u044b\u0439": 4560, "\u2581\u0443\u0445\u043e": 4561, "\u2581\u043c\u0443\u0436\u0447\u0438\u043d\u0430": 4562, "\u0448\u043a\u0438.": 4563, "\u2581\u0436\u0438\u043b\u0438": 4564, "\u2581\u0436\u0438\u0437\u043d\u044c,": 4565, "\u2581\u0421\u0435\u0440\u0433\u0435": 4566, "\u2581\u0448\u0443\u043c": 4567, "\u0437\u0434\u0430": 4568, "\u2581\u0434\u0435\u0440\u0435\u0432\u044f": 4569, "\u0441\u043d\u0438": 4570, "\u0432\u0435,": 4571, "\u2581\u041f\u0435\u0440\u0435\u0434": 4572, "\u2581\u0443\u0431\u0435\u0434\u0438": 4573, "\u0432\u044b\u0439,": 4574, "\u2581\u0444\u0438\u043b\u044c": 4575, "\u041e\u041b": 4576, "\u2581\u043a\u0438\u043b\u043e": 4577, "\u2581\u0444\u0440\u0430": 4578, "\u2581\u043e\u0447\u0438": 4579, "\u2581\u0442\u0430\u043a.": 4580, "\u0437,": 4581, "\u2581\u0432\u0438\u0434\u0435\u043b\u0430": 4582, "\u2581\u043f\u0440\u043e\u0438\u0441\u0445\u043e\u0434\u0438": 4583, "\u2581\u0437\u043d\u0430\u044e.": 4584, "\u2581\u0440\u0430\u0441\u0442\u0435\u0440": 4585, "\u2581\u0430\u0432\u0442\u043e\u043c\u043e\u0431\u0438": 4586, "\u2581\u043a\u0443\u0434\u0430-": 4587, "\u2581\u043f\u043e\u0433\u0440\u0443": 4588, "\u2581\u0441\u0435\u043c\u0435\u0439": 4589, "\u2581\u043e\u0442\u043d\u043e\u0448\u0435\u043d\u0438\u044f": 4590, "\u043f.": 4591, "\u2581\u044e\u043d\u043e": 4592, "\u2581\u0432\u0441\u0442\u0430\u043b": 4593, "\u2581\u043e\u0442\u0446\u0430": 4594, "\u2581\u0441\u043f\u0443\u0441\u0442\u0438": 4595, "\u2581\u0436\u0438\u0437\u043d\u044c.": 4596, "\u2581\u0431\u043e\u043b\u044c\u0448\u0438\u043d": 4597, "\u2581\u043e\u043d.\u00a0\u2014": 4598, "\u2581\u0415\u0432": 4599, "\u0447\u043a\u0443,": 4600, "\u2581\u0441\u0430\u0445\u0430": 4601, "\u0447\u043e\u043d": 4602, "\u2581\u043a\u0443\u043b\u044c\u0442\u0443": 4603, "\u2581\u0441\u043c\u043e\u0436\u0435\u0442": 4604, "\u2581\u043f\u043e\u0433\u0438\u0431": 4605, "\u0447\u0443,": 4606, "\u2581\u0432\u044b\u043f\u0438": 4607, "\u0434\u043e\u0432\u043b\u0435\u0442": 4608, "\u2581\u043e\u043f\u0438\u0441\u0430": 4609, "\u0442\u0438\u043b\u0438\u0441\u044c": 4610, "\u2581\u0432\u0434\u043e\u043b\u044c": 4611, "\u2581\u0446\u0435\u043b\u0438": 4612, "\u043a\u0430\u0445,": 4613, "ic": 4614, "\u043c\u043e\u043a": 4615, "\u0441\u0442\u0443\u044e": 4616, "\u2581\u043c\u043e\u0438\u043c": 4617, "\u2581\u041f\u043e\u0439": 4618, "\u2581\u0432\u0441\u043b\u0435\u0434": 4619, "\u2581\u043f\u0440\u0438\u0432\u0435\u0442": 4620, "\u2581\u0430\u043d\u0442\u0438": 4621, "\u2581\u0442\u044c": 4622, "\u0434\u043d\u043e\u0433\u043e": 4623, "\u043b\u044e.": 4624, "\u2581\u043e\u0431\u043c\u0430": 4625, "\u2581\u0442\u0435\u043b\u0430": 4626, "\u2581\u0436\u0435\u043d\u0449\u0438\u043d\u044b": 4627, "\u2581\u043f\u0440\u043e\u0447\u0438": 4628, "\u2581\u0441\u0438\u0433\u0430": 4629, "\u2581\u0437\u0430\u0431\u0440\u0430": 4630, "\u0435\u0445\u0430\u043b\u0438": 4631, "\u2581\u043a\u043e\u043c\u043d\u0430\u0442\u0435": 4632, "\u0433\u0430\u043c\u0438": 4633, "\u2581\u0448\u043a\u0430": 4634, "\u2581\u0434\u0440\u0443\u0433\u0438\u043c": 4635, "\u2581\u043f\u043e\u043d\u0440\u0430\u0432\u0438": 4636, "\u2581\u0441\u043b\u0443\u0447\u0430\u0435,": 4637, "\u2581\u0442\u043e\u0431\u043e": 4638, "\u2581\u0432\u043e\u0437\u043c\u043e\u0436\u043d\u043e,": 4639, "\u2581193": 4640, "\u2581\u0441\u043b\u043e\u0432\u0430,": 4641, "\u2581\u0443\u0432\u0435\u043b\u0438": 4642, "\u2581\u0432\u043d\u0438\u043c\u0430\u0442\u0435\u043b\u044c\u043d\u043e": 4643, "\u2581\u0437\u0430\u0431": 4644, "\u0436\u0438\u0435": 4645, "\u2581\u0440\u043e\u0437\u043e": 4646, "\u2581\u043d\u0435\u043f\u0440\u043e": 4647, "\u0448\u043a\u043e\u0439": 4648, "\u2581\u0442\u0435\u043d\u0438": 4649, "\u2581\u043d\u0430\u0447\u0430\u043b\u0438": 4650, "\u043c\u043e\u0442\u0430\u043b": 4651, "\u2581\u0437\u0430\u043c\u0443": 4652, "\u2581\u041d\u0430\u0434": 4653, "\u043d\u0443\u0442\u044c\u0441\u044f": 4654, "\u2581\u0433\u0440\u043e\u043c\u043a\u043e": 4655, "\u2581\u042f,": 4656, "\u043d\u0438\u043a\u043e\u0432,": 4657, "\u2581\u0434\u0435\u043b\u0430\u0435\u0442": 4658, "\u2581\u0434\u0432\u0443\u043c\u044f": 4659, "\u0447\u0443.": 4660, "\u2581\u0443\u0447\u0435\u043d\u044b": 4661, "\u2581\u0443\u0442\u0440\u043e\u043c": 4662, "\u0432\u0435\u043d\u0430": 4663, "\u2581\u0444\u043e\u043d\u0430": 4664, "\u2581\u043a\u043e\u0441\u043c\u043e": 4665, "\u2581\u041e\u0442\u0435\u0446": 4666, "\u2581\u0446\u0432\u0435\u0442\u0430": 4667, "\u2581\u043c\u043e\u0436\u0435\u043c": 4668, "\u2581\u044f\u0440\u043e": 4669, "\u2581\u0444\u043e\u0442\u043e\u0433\u0440\u0430\u0444\u0438": 4670, "\u2581\u0415\u0432\u0440\u043e": 4671, "\u2581\u0421\u0430\u043d": 4672, "\u2581\u0445\u043e\u0440\u043e\u0448\u043e,": 4673, "\u2581\u0448\u043b\u0438": 4674, "\u043f\u044f\u0442": 4675, "\u2581\u043c\u0435\u043b\u043e": 4676, "\u2581\u0434\u043e\u043a\u0430\u0437\u0430": 4677, "\u2581\u043f\u0440\u0438\u043f\u043e": 4678, "\u2581\u0431\u0440\u044e": 4679, "\u2581\u0431\u043b\u0430": 4680, "\u2581\u0418\u043e": 4681, "\u2581\u043a\u0440\u044b\u043b\u044c": 4682, "\u0440\u0435\u0432": 4683, "\u2581\u0411\u043e\u0440\u0438": 4684, "\u2581\u0434\u0435\u043b\u043e,": 4685, "\u2581\u0437\u0435\u043c\u043b\u0438": 4686, "\u2581\u043e\u0447\u0435\u0440\u0435\u0434": 4687, "\u0437\u0435\u0440": 4688, "\u0451\u043d": 4689, "\u2581\u0432\u0441\u0435\u0433\u043e,": 4690, "\u043f\u0438\u0441\u044c": 4691, "\u2581\u043a\u0430\u0440\u0430": 4692, "\u0437\u0430\u0446\u0438\u0438": 4693, "\u2581\u0441\u0435\u0431\u0435.": 4694, "\u2581\u043d\u0430\u0445\u043e\u0434\u0438\u0442\u0441\u044f": 4695, "\u2581\u0448\u0435\u043f": 4696, "\u2581o": 4697, "\u2581\u043b\u044e\u0434\u0435\u0439.": 4698, "\u0432\u0441\u0435\u0433\u0434\u0430": 4699, "\u2581\u0441\u0432\u044f\u0449\u0435\u043d": 4700, "\u0430\u0442\u0438": 4701, "\u2581\u041c\u044d": 4702, "\u2581\u0421\u044b": 4703, "\u2581\u0443\u0442\u043e": 4704, "\u0449\u0438\u043c\u0438": 4705, "\u0441\u0442\u0432\u0435\u043d\u043d\u043e,": 4706, "\u043c\u0430\u0440": 4707, "\u2581\u0432\u0441\u0435.": 4708, "\u2581\u0422\u0440\u0443": 4709, "\u2581\u043f\u043e\u043c\u043e\u0449\u0438": 4710, "\u2581\u043f\u043e\u043b\u0430\u0433\u0430": 4711, "\u2581\u0437\u0430\u043d\u0438\u043c": 4712, "\u2581\u043f\u043e\u0433\u043e\u0432\u043e\u0440\u0438": 4713, "\u0449\u0435\u0442": 4714, "\u2581\u043f\u0440\u0430\u0432\u0434\u0430,": 4715, "\u0434\u043d\u044b\u0445": 4716, "\u0431\u0435\u0436\u0430\u043b": 4717, "\u2581\u0438\u0433\u0440\u0443": 4718, "\u2581\u0434\u0443\u0448\u0430": 4719, "\u0432\u043e.": 4720, "\u2581\u0447\u0435\u043b\u043e\u0432\u0435\u043a\u0430.": 4721, "\u2581\u043a\u043e\u043d\u0442\u0440\u043e": 4722, "\u2581\u043d\u043e\u0432\u043e\u0433\u043e": 4723, "\u2581\u0441\u043b\u0435\u0434\u0443\u044e\u0449\u0438\u0439": 4724, "\u2581\u0441\u0443\u0445\u043e": 4725, "\u2581\u043f\u043e\u0432\u0438": 4726, "\u2581\u0436,": 4727, "\u2581\u0436\u0438\u043b": 4728, "\u2581\u0431\u0443\u0434\u044c": 4729, "\u2581\u041c\u0430\u043b": 4730, "\u0432\u043e\u0439,": 4731, "\u2581\u043e\u0445": 4732, "\u0433\u043b\u0443": 4733, "\u0436\u0430\u043b\u0441\u044f": 4734, "\u2581\u0432\u0430\u0448\u0435\u0439": 4735, "\u0441\u043b\u0443\u0448\u0430": 4736, "\u043d\u044c,": 4737, "\u2581\u0434\u0443\u0448\u0443": 4738, "\u2581\u0447\u0435\u0441\u0442": 4739, "\u2581\u043a\u043e\u043c\u043d\u0430\u0442\u0443": 4740, "\u2581\u0432\u043e\u043b\u0448\u0435\u0431": 4741, "\u2581\u043f\u043e\u043b\u044c\u0437\u0443": 4742, "\u2581\u0436\u0430\u0440": 4743, "\u2581\u043a\u043e\u0441\u0442\u044e": 4744, "\u043d\u0430\u0447": 4745, "\u044b\u0439": 4746, "\u2581\u041b\u0443\u0447": 4747, "\u2581\u0417\u0438": 4748, "\u2581\u043d\u0435\u0432\u044b": 4749, "!!": 4750, "\u2581\u0432\u0441\u043a\u043e\u0440\u0435": 4751, "\u2581\u043d\u0438\u043a\u043e\u043c\u0443": 4752, "\u2581\u043a\u0430\u043c\u0435\u043d": 4753, "\u2581\u043e\u0431\u044f\u0437\u0430\u0442\u0435\u043b\u044c\u043d\u043e": 4754, "\u2581\u0441\u0430\u043f\u043e": 4755, "\u0448\u0438,": 4756, "\u2581\u043d\u0430\u0438\u0431\u043e": 4757, "\u2581\u0442\u0435\u043b\u0435\u0444\u043e\u043d": 4758, "\u2581\u0430\u0442": 4759, "\u2581\u0441\u0443\u0431": 4760, "\u0442\u043d\u044b\u0435": 4761, "\u0433\u043e.": 4762, "\u2581\u0414\u0443\u043c\u0430": 4763, "\u2581\u0440\u0430\u0437\u0430": 4764, "\u2581\u043f\u0440\u043e\u0448\u0435\u043f": 4765, "\u2581\u043a\u043e\u043c\u043f": 4766, "\u0434\u0436\u0430": 4767, "\u043f\u043b\u0435\u043d": 4768, "\u043d\u044b\u043c\u0438.": 4769, "\u2581\u0414\u043e\u0431": 4770, "\u0447\u0430\u043b,": 4771, "\u2581\u043d\u0430\u0441\u043b\u0430": 4772, "\u2581\u043f\u043e\u0432\u044b": 4773, "\u2581\u0443\u043f\u0430": 4774, "\u2581\u041e\u043d\u043e": 4775, "\u2581\u0432\u044b\u0445\u043e": 4776, "\u2581\u0442\u0435\u0440\u044f": 4777, "\u2581\u043f\u0440\u043e\u0444\u0435\u0441\u0441\u0438": 4778, "\u2581\u043a\u0440\u0438\u0442\u0438": 4779, "\u2581\u0418\u043b\u044c": 4780, "\u2581\u0433\u0430\u043b": 4781, "\u0431\u043e\u043c": 4782, "\u2581\u043e\u043a\u0430": 4783, "\u0447\u0438\u0441\u043b\u0435\u043d": 4784, "\u2581\u0441\u0434\u0430": 4785, "\u2581\u043f\u0440\u0438\u043a\u0440\u044b": 4786, "\u0441\u0442\u043e\u0438\u0442": 4787, "\u0440\u044b\u0437": 4788, "\u0440\u044f\u0434\u043e": 4789, "\u2581\u0433\u043e\u043b\u043e\u0441\u043e\u043c": 4790, "\u2581\u041b\u0435\u043d\u0438": 4791, "\u0435\u043d\u044c\u0435": 4792, "\u0434\u043e\u0432\u0430\u043b": 4793, "\u0436\u0435\u043d\u043d\u044b\u0439": 4794, "\u2581\u0442\u0440\u0430\u0434\u0438": 4795, "\u2581\u043a\u0430\u043a\u043e\u043c": 4796, "\u2581\u043e\u0431\u043b\u0438": 4797, "\u2581\u041d\u0438\u043a\u0430": 4798, "\u0432\u0430\u0442\u044c\u0441\u044f.": 4799, "\u043a\u0442\u0438\u0432\u043d\u043e": 4800, "\u2581\u043b\u0438?": 4801, "\u2581100": 4802, "\u043a\u0442\u0443": 4803, "\u2581\u0432\u043e\u0441\u043a\u043b\u0438\u043a\u043d\u0443\u043b": 4804, "\u2581\u0432\u043e\u043b\u043e\u0441\u044b": 4805, "\u0442\u0438\u043c": 4806, "\u2581\u0440\u0430\u0437\u0432\u0435\u0440": 4807, "\u2581\u0443\u043d\u0438\u0432\u0435\u0440": 4808, "\u2581\u0434\u0440\u0443\u0433\u043e\u0435": 4809, "\u2581\u043f\u0440\u0438\u0448\u043b\u0430": 4810, "\u2581\u0440\u0443\u043a\u0443,": 4811, "\u0447\u043a\u043e\u0439": 4812, "\u0435\u043c\u0435": 4813, "\u2581\u043d\u0435\u0432": 4814, "\u2581\u0441\u0442\u0440\u043e\u0438": 4815, "\u2581\u043c\u0430\u043b\u0435\u043d\u044c\u043a\u0438\u0439": 4816, "\u043b\u043e\u043d": 4817, "\u2581\u043f\u0440\u0438\u043a\u0430\u0437": 4818, "\u043d\u0438\u0439,": 4819, "\u0433\u043d\u0430\u043b": 4820, "\u2581\u043f\u0438\u0441\u0442\u043e": 4821, "\u2581L": 4822, "\u0431\u0443,": 4823, "\u2581\u0431\u043e\u043c": 4824, "\u2581\u0433\u043e\u043b\u043e\u0432\u044b": 4825, "\u2581192": 4826, "\u2581\u0431\u0430\u0440\u0430": 4827, "\u2581\u0433\u0443\u0431\u0430": 4828, "\u2581\u0441\u043c\u043e\u0433": 4829, "\u2581\u0431\u0440\u043e\u0441\u0438\u043b": 4830, "\u2581\u0434\u0443\u0440": 4831, "\u043c\u0435\u0447\u0430": 4832, "\u2581\u0437\u0430\u0432\u0435": 4833, "\u0434\u0438\u0438": 4834, "\u0447\u0435\u043d\u0438\u0435\u043c": 4835, "\u2581\u043a\u043b\u0435\u0442": 4836, "\u2581\u0441\u043c\u044b\u0441\u043b\u0435": 4837, "as": 4838, "\u0440\u0443\u0435\u0442": 4839, "\u2581\u0440\u0430\u0437\u043d\u044b\u0435": 4840, "\u0441\u0442\u0435\u0439,": 4841, "\u2581\u043a\u043d\u0438\u0433\u0438": 4842, "\u2581\u0434\u0435\u0440\u0435\u0432\u044c": 4843, "\u2581\u0434\u0432\u0435\u0440": 4844, "\u2581\u0440\u0430\u0441\u0441\u0435": 4845, "\u2581\u0432\u0438\u0434\u043d\u043e,": 4846, "\u2581\u043a\u043e\u0433\u043e-": 4847, "\u0436\u0438\u0442\u0435": 4848, "\u2581\u0443\u0442\u0435": 4849, "\u2581\u0432\u043e\u0439\u043d\u044b": 4850, "\u043d\u0443\u0432\u0448\u0438\u0441\u044c": 4851, "\u2581\u0411\u043b\u0430\u0433\u043e": 4852, "\u2581\u0421\u043f\u043e": 4853, "\u2581\u0412\u043e\u043b\u043e": 4854, "\u0447\u0435\u043d\u043d\u044b\u0439": 4855, "\u2581\u043e\u043f\u0440\u0435\u0434\u0435\u043b": 4856, "\u2581\u0438\u0437\u0431\u0430": 4857, "\u2581\u043f\u043b\u0435\u043c": 4858, "\u0441\u0430\u043c\u0438": 4859, "\u2581\u0433\u043e\u0440\u0438": 4860, "\u0435\u043d\u043d\u044b\u0445": 4861, "\u2581\u043e\u0442\u0442\u0443": 4862, "\u0432\u043a\u0430": 4863, "\u2581\u0432\u043e\u043d": 4864, "\u2581\u043d\u0430\u0437\u0430\u0434.": 4865, "\u2581\u043b\u0438\u0446\u043e\u043c": 4866, "\u2581\u0434\u0432\u0435\u0440\u044c.": 4867, "\u2581\u0438\u0441\u043f\u043e\u043b\u044c\u0437\u0443": 4868, "\u0441\u043a\u0435": 4869, "\u2581\u043f\u043e\u0437\u0438": 4870, "\u2581\u043e\u0431\u0440\u0430\u0442\u043d\u043e": 4871, "\u2581\u0437\u0430\u043b\u0435": 4872, "\u2581\u043d\u0443\u0436\u0435\u043d": 4873, "\u2581\u043f\u044b\u0442\u0430\u043b\u0441\u044f": 4874, "\u2581\u043f\u0440\u0435\u043a\u0440\u0430\u0441\u043d\u043e": 4875, "\u0446\u0435\u043d\u0438": 4876, "\u2581\u041c\u043e\u043b": 4877, "\u2581\u043d\u0435\u0441\u043a\u043e\u043b\u044c\u043a\u0438\u0445": 4878, "el": 4879, "\u2581\u0432\u0441\u044f\u043a\u0438\u0439": 4880, "\u043f\u0430\u0440": 4881, "\u043c\u0435\u043d\u0442\u0430": 4882, "\u2581\u043d\u043e\u0447\u0438": 4883, "\u0432\u0438\u0437\u0438": 4884, "\u2581\u0410\u043d\u0434\u0440\u0435\u0439": 4885, "\u2581\u0440\u043e\u043c\u0430": 4886, "\u2581\u0443\u0433\u043b\u0443": 4887, "\u0440\u0438.": 4888, "\u2581\u043c\u043e\u0433\u0438": 4889, "\u2581\u043f\u043e\u043d\u044f\u0442\u044c,": 4890, "\u2581\u0440\u0430\u0441\u0441\u043c\u0430\u0442\u0440\u0438": 4891, "\u2581\u041a\u0430\u0436\u0434\u044b": 4892, "\u0432\u043d\u044b\u0439": 4893, "\u0441\u0442\u0432\u0435\u043d\u043d\u0430\u044f": 4894, "\u0446\u0438\u0435\u0439": 4895, "\u2581\u0434\u0435\u043c\u043e": 4896, "\u0441\u0438\u043c\u043e": 4897, "\u2581\u043e\u0431\u0435\u0441\u043f\u0435": 4898, "\u0432\u043a\u0438": 4899, "\u2581\u0421\u043c\u043e\u0442\u0440\u0438": 4900, "\u2581\u0447\u0440\u0435\u0437": 4901, "\u2581\u0440\u0443\u043a": 4902, "\u2581\u043f\u0440\u0438\u043b\u0438": 4903, "\u2581\u0432\u043e\u0448\u0435\u043b": 4904, "0-": 4905, "\u2581\u043a\u043e\u043b\u0435\u043d\u0438": 4906, "\u0447\u0438\u0442\u0435\u043b\u044c\u043d\u043e": 4907, "om": 4908, "\u2581\u043f\u043e\u0448\u043b\u0438": 4909, "\u2581\u0428\u0438": 4910, "\u0434\u0438\u0439": 4911, "\u2581\u0418\u0442\u0430\u043a,": 4912, "\u2581\u041d\u0435\u0442.": 4913, "\u0437.": 4914, "\u043c\u0435.": 4915, "\u043d\u0438\u043a\u0438,": 4916, "\u0434\u044e": 4917, "\u2581\u043e\u0433\u0440\u0430\u043d\u0438": 4918, "\u2581\u043a\u0430\u0447\u0435\u0441\u0442\u0432\u0435": 4919, "\u2581\u0430\u043f\u043f\u0430\u0440\u0430": 4920, "\u2581\u043e\u0441\u0442\u0430\u043d\u0430\u0432\u043b\u0438": 4921, "\u2581\u0437\u0430\u0441\u0442\u0430\u0432\u043b\u044f": 4922, "\u0442\u0435\u043b\u044c\u043d\u0443\u044e": 4923, "\u2581\u0432\u044b\u0433\u043e": 4924, "\u2581\u0432\u043e\u043e\u0431\u0440\u0430": 4925, "\u0431\u0435\u0437": 4926, "\u2581\u0442\u0440\u0443\u0434\u043e\u043c": 4927, "\u2581\u041f\u0443\u0448\u043a\u0438": 4928, "\u2581\u041e\u0434\u043d\u0430\u0436\u0434\u044b": 4929, "\u2581\u044d\u043a\u043e\u043d\u043e\u043c\u0438": 4930, "\u2581\u043f\u0440\u0430\u0432\u0438\u043b\u044c": 4931, "\u0440\u043e\u0434\u0438": 4932, "\u2581\u0437\u0430\u0439": 4933, "\u2581\u041f\u0435\u0442\u0435\u0440": 4934, "\u0447\u043d\u043e\u043c": 4935, "\u2581\u043c\u043e\u043b\u0438\u0442": 4936, "\u2581\u043f\u0440\u0435\u0434\u043f\u0440\u0438": 4937, "\u0440\u0430\u043b": 4938, "\u2581\u043d\u0430\u043c\u0435\u0440": 4939, "\u0431\u0440\u0430\u043d": 4940, "\u0435\u0440\u043a\u0432\u0438": 4941, "\u043d\u043e\u043a.": 4942, "\u2581\u0438\u0433": 4943, "\u2581\u043f\u043e\u0441\u0442\u0435\u043f\u0435\u043d\u043d\u043e": 4944, "\u2581\u0430\u0432": 4945, "\u2581\u0442\u0432\u043e\u044f": 4946, "\u2581\u0437\u043d\u0430\u0442\u044c": 4947, "\u2581\u0441\u043c\u0435\u044f": 4948, "\u2581\u043f\u043e\u0431": 4949, "\u2581\u0438\u0434\u0438": 4950, "\u2581\u043e\u0442\u043a\u0430\u0437": 4951, "\u0434\u043a\u0443": 4952, "\u2581\u043e\u0441\u043e\u0431\u043e": 4953, "\u2581\u043e\u0431\u044a\u044f": 4954, "\u2581\u0432\u043d\u0435\u0437\u0430\u043f\u043d\u043e": 4955, "\u2581\u043d\u0430\u0447\u0438\u043d\u0430\u0435\u0442": 4956, "\u2581\u0434\u0440\u0443\u0433\u0443\u044e": 4957, "\u2581\u043f\u043e\u0434\u0432\u0438": 4958, "\u2581\u043f\u0440\u043e\u0442\u044f\u043d\u0443\u043b": 4959, "\u2581\u0440\u0443\u043a\u0438.": 4960, "\u2581\u043f\u043e\u043e": 4961, "\u2581\u043f\u043e\u043a\u043e\u0439": 4962, "\u2581\u043b\u044e\u0431\u0438\u043b": 4963, "\u2581\u043f\u0440\u043e\u0442\u0438\u0432\u043e\u043f\u043e": 4964, "\u043d\u043e\u0441\u0442\u0438,": 4965, "\u2581\u0440\u0430\u0437\u0433\u043e\u0432\u043e": 4966, "\u043f\u043e\u043b\u0437": 4967, "\u2581\u043f\u0440\u0430\u0437\u0434\u043d\u0438": 4968, "\u2581\u043d\u0438\u0447\u0442\u043e": 4969, "\u2581\u041e\u0441": 4970, "\u2581\u0433\u043e\u0432\u043e\u0440\u044f\u0442": 4971, "\u2581\u0432\u043e\u0438": 4972, "\u043a\u0430\u043b\u0430": 4973, "\u2581\u0436\u0443": 4974, "\u2581\u0432\u044f": 4975, "\u2581\u0432\u0435\u0440\u0435": 4976, "\u2581\u043f\u0440\u0438\u044f": 4977, "\u2581\u0443\u0432\u0435\u0440\u0435\u043d\u043d\u043e": 4978, "\u2581196": 4979, "\u2581\u0445\u0440\u0443": 4980, "\u2581\u041a\u043e\u043c": 4981, "\u043f\u0430,": 4982, "\u0447\u0435\u043d\u043d\u043e": 4983, "\u2581\u0432\u043e\u0437\u0431\u0443": 4984, "et": 4985, "\u2581\u0418\u043d\u043e\u0433\u0434\u0430": 4986, "\u2581\u043a\u0430\u043a\u0443\u044e-": 4987, "\u2581\u043e\u0431\u044b\u043a\u043d\u043e\u0432": 4988, "\u2581\u0434\u0438\u0440\u0435": 4989, "\u2581\u043e\u043a\u0435": 4990, "\u2581\u0438\u0441\u0442\u043e\u0447": 4991, "\u2581\u0410\u00a0": 4992, "\u0432\u043e\u0434\u0438\u0442": 4993, "\u0435\u0448\u044c.": 4994, "\u0439\u0442\u0435\u0441\u044c": 4995, "\u2581\u043f\u043e\u043b\u044c\u0437\u043e": 4996, "\u2581\u043f\u0440\u0438\u0432\u0435": 4997, "\u2581\u0432\u0437\u043e": 4998, "\u2581\u043d\u0435\u043c\u0435\u0434\u043b\u0435\u043d\u043d\u043e": 4999, "\u2581\u043a\u043b\u0435": 5000, "\u0447\u044b": 5001, "\u2581\u041e\u0440": 5002, "\u0433\u043e\u043b\u044c": 5003, "\u2581\u0432\u0430\u043c,": 5004, "\u2581\u0410\u043b\u0438": 5005, "\u2581\u0432\u044b\u043d\u0443": 5006, "\u2581\u0441\u0442\u043e\u0440\u043e\u043d\u044b,": 5007, "\u2581\u0441\u0442\u0440\u043e\u0433\u043e": 5008, "\u2581\u0431\u0435\u0437\u043e\u043f\u0430": 5009, "\u2581\u043f\u0430\u0434": 5010, "\u2581\u0434\u043e\u043a\u0442\u043e\u0440": 5011, "\u2581\u041a\u0430\u0436": 5012, "\u2581\u0432\u0435\u0441\u0435\u043b\u043e": 5013, "\u2581\u0432\u044b\u0434\u0435\u0440": 5014, "\u2581\u043e\u0440\u0433\u0430\u043d\u0438\u0437": 5015, "\u0432\u043e\u043a": 5016, "\u2581\u0442.\u00a0": 5017, "\u2581\u0442\u043e\u0433\u0434\u0430,": 5018, "\u0441\u043b\u0443\u0436\u0438": 5019, "\u0410\u0422": 5020, "\u2581\u0443\u0447\u0435\u043d\u0438": 5021, "\u2581\u041f\u043e\u0436\u0430\u043b": 5022, "\u043a\u0435\u0440": 5023, "\u0436\u0438\u043c\u0430": 5024, "\u2581\u044f\u0439": 5025, "\u0436\u043d\u044b\u043c": 5026, "\u043a\u043e\u043b\u044c": 5027, "\u2581\u043e\u0431\u0440\u0430\u0442": 5028, "\u2581\u0441\u043f\u043e\u0441\u043e": 5029, "\u2581\u0432\u0438\u0436\u0443": 5030, "\u043c\u044b\u0445": 5031, "\u2581\u041d\u0430\u0434\u0435": 5032, "\u043a\u0442\u0438\u0432": 5033, "\u0446\u0435\u0432,": 5034, "\u0437\u0438\u0434\u0435\u043d": 5035, "\u0446\u043e\u0432,": 5036, "\u2581\u043d\u0435\u0439.": 5037, "\u2581\u0440\u043e\u0442": 5038, "\u0440\u043e\u043d\u0438": 5039, "\u2581\u0434\u043e\u0433\u043e": 5040, "\u0449\u0435,": 5041, "\u2581\u043a\u0430\u0436\u0434\u043e\u0439": 5042, "\u043e\u0431\u043e\u0440\u043e": 5043, "\u043a\u043e\u0432\u043e\u0439": 5044, "\u0430\u043b\u0438\u0437": 5045, "\u0432\u0435\u0434\u043b\u0438\u0432\u043e": 5046, "\u2581\u0437\u0435\u043b\u0435": 5047, "\u2581\u0415\u0439": 5048, "\u0440\u0438\u043d\u0430": 5049, "\u2581\u043a\u043e\u043b\u0438\u0447\u0435\u0441\u0442\u0432\u043e": 5050, "\u2581\u0416\u0435": 5051, "\u043b\u0430:": 5052, "\u2581\u0438\u0437\u0433\u043e": 5053, "\u0440\u0435\u043d\u0438": 5054, "\u2581\u0447\u0435\u0433\u043e-": 5055, "\u2581\u043e\u0431\u0440\u0430\u0437\u043e\u043c,": 5056, "\u2581\u0432\u043e\u0437\u043c\u0443": 5057, "\u0415\u041b": 5058, "\u2581\u0433\u043b\u0443\u0431\u043e\u043a\u043e": 5059, "\u2581\u0413\u0440\u0435": 5060, "\u2581\u043d\u043e\u0432\u043e\u0439": 5061, "\u0434\u0440\u0430\u0432": 5062, "\u2581\u043d\u043e\u043c\u0435\u0440": 5063, "\u0432\u0438\u0447\u0430": 5064, "\u2581\u0433\u043e\u0432\u043e\u0440\u0438\u043b\u0438": 5065, "\u0442\u0440\u0443\u0434\u043d\u0438": 5066, "\u2581\u0441\u0430\u043c\u043e\u043c\u0443": 5067, "\u2581\u0432\u044b\u0448\u043b\u0430": 5068, "\u0433\u0430\u0445": 5069, "\u0436,": 5070, "\u2581\u043d\u0430\u0432\u0435": 5071, "\u2581\u043a\u043b\u043e": 5072, "\u2581\u0440\u0430\u0441\u0441\u0442\u043e\u044f": 5073, "\u0441\u0442\u044b\u043c": 5074, "\u2581\u0430\u0442\u0430": 5075, "\u0437\u0438\u0442\u044c": 5076, "\u2581\u0432\u044b\u0442\u0430\u0449\u0438": 5077, "\u2581\u0434\u043e\u043c\u0430.": 5078, "\u0448\u043a\u0443,": 5079, "\u0441\u0442\u0432\u043e\u0432\u0430\u043b": 5080, "\u043e\u043d\u0438": 5081, "\u2581\u043e\u043d\u0438,": 5082, "\u2581\u0443\u043c\u0430": 5083, "\u2581\u0438\u0437\u0431\u0435": 5084, "\u2581\u0441\u043e\u0432\u0435\u0440\u0448\u0435\u043d": 5085, "\u043d\u043e\u0441\u0442\u044c,": 5086, "\u2581\u043c\u0430\u0441\u043b\u043e": 5087, "\u0435\u043d.": 5088, "\u2581\u0442\u0430\u043b\u0430": 5089, "\u2581\u043e\u0442\u0434\u0430\u043b": 5090, "\u0430\u043b\u0430\u0441\u044c.": 5091, "\u2581\u043d\u0430\u043f\u043e\u043c\u0438\u043d\u0430": 5092, "\u2581\u0443\u043f\u0440\u0430\u0432\u043b\u044f": 5093, "\u043e\u0442\u0435": 5094, "\u2581\u043f\u043e\u0434\u043d\u044f\u043b\u0441\u044f": 5095, "\u2581\u0443\u0434\u043e\u0432\u043b\u0435\u0442": 5096, "\u2581\u0445\u043e\u0447\u0435\u0442\u0441\u044f": 5097, "\u2581\u043e\u0437\u0430": 5098, "\u2581\u0441\u0430\u0434\u0438": 5099, "\u2581\u0441\u044a\u0435": 5100, "\u0415\u0422": 5101, "\u2581\u0437\u0430\u0433\u043b\u044f": 5102, "\u2581\u0434\u0435\u0441\u044f\u0442\u0438": 5103, "\u2581\u041a\u0430\u043a\u0430\u044f": 5104, "\u2581\u043f\u043e\u0442\u0440\u044f": 5105, "\u2581\u044d\u043f\u043e": 5106, "\u2581\u0442\u0435,": 5107, "\u0430\u043b\u044c\u043d\u0443\u044e": 5108, "\u2581\u043f\u043e\u043b\u0443\u0447\u0430": 5109, "\u041e\u041d": 5110, "\u2581\u0434\u043e\u0431\u044b": 5111, "\u2581\u044d\u043b\u0435\u043c\u0435\u043d": 5112, "\u2581\u043f\u0440\u043e\u0438\u0437\u0432\u0435\u0434": 5113, "\u2581\u043f\u043e\u0441\u0442\u0443": 5114, "\u2581\u0437\u043d\u0430\u0442\u044c,": 5115, "\u0447\u0430\u043b.": 5116, "\u2581\u043c\u0433\u043d\u043e\u0432\u0435\u043d\u0438\u0435": 5117, "\u2581\u0441\u043e\u043c\u043d": 5118, "\u2581\u041a\u0430\u0436\u0434\u044b\u0439": 5119, "\u2581\u0421\u0435\u0440\u0433\u0435\u0439": 5120, "ot": 5121, "\u2581\u041c\u0435\u0436\u0434\u0443": 5122, "\u2581\u0410\u043b": 5123, "\u2581\u0437\u0430\u043a\u043e\u043d\u0447\u0438": 5124, "us": 5125, "\u0442\u043d\u044b\u0445": 5126, "\u2581\u043f\u0430\u0440\u0435\u043d\u044c": 5127, "\u2581\u043e\u0434\u043d\u0438": 5128, "\u2581\u0441\u0435\u043a": 5129, "\u2581\u041b\u044e\u0431\u043e": 5130, "\u2581\u0441\u043e\u0441\u0442\u0430": 5131, "\u2581\u043e\u043a\u0430\u0437\u0430\u043b\u0430\u0441\u044c": 5132, "\u2581\u043e\u0441\u043d\u043e\u0432\u0430": 5133, "\u043d\u0433": 5134, "\u0449\u0430\u0435\u0442": 5135, "\u2581\u0432\u0435\u0447\u0435\u0440\u043e\u043c": 5136, "\u2581\u043d\u0438\u0447\u0435\u0433\u043e,": 5137, "\u043f\u043e\u0432": 5138, "\u2581\u043c\u0430\u0433\u0438": 5139, "\u043b\u0435\u043b": 5140, "\u2581\u043e\u043f\u0440\u0435\u0434\u0435\u043b\u0435\u043d": 5141, "\u2581\u0429": 5142, "\u0432\u0430\u0442\u044c\u0441\u044f,": 5143, "\u0442\u0435\u043b\u044c.": 5144, "\u2581\u0433\u043e\u0432\u043e\u0440\u0438\u0442:": 5145, "\u0439\u0441\u044f": 5146, "\u2581\u0435\u0437": 5147, "\u2581\u043f\u043e\u0442\u044f": 5148, "\u2581\u0447\u0443\u0432\u0441\u0442\u0432\u0430": 5149, "\u2581\u0441\u0442\u0443\u0434\u0435\u043d": 5150, "\u0441\u043d\u0435": 5151, "\u2581\u0448\u0442\u043e": 5152, "\u0432\u043a\u0443": 5153, "\u2581\u0421\u043d\u0430\u0447\u0430\u043b\u0430": 5154, "\u0432\u044b\u043c,": 5155, "\u043d\u0443\u043b,": 5156, "\u2581\u0443\u0441\u043b\u044b\u0448\u0430\u043b": 5157, "\u0441\u0442\u0432,": 5158, "\u2581\u043f\u043e\u0432\u0435\u0434": 5159, "\u0435\u043d\u043d\u043e\u0439": 5160, "\u043f\u043e\u0439": 5161, "\u00bb,\u00a0\u2014": 5162, "\u2581\u0431\u0440\u043e\u0441\u0430": 5163, "\u2581\u043d\u0430\u0443\u0447\u0438": 5164, "\u043f\u0430\u0442\u044c": 5165, "\u0434\u0430\u043d": 5166, "\u2581\u0434\u0432\u0435\u0440\u044c,": 5167, "\u0442\u0435\u043b\u044f,": 5168, "\u2581\u0412\u043c\u0435": 5169, "\u043d\u0435\u0441\u043b\u0438": 5170, "\u2581\u0432\u0440\u0435\u043c\u0435\u043d\u0430": 5171, "\u2581\u0434\u0443\u043c\u0430\u043b,": 5172, "\u2581\u0414\u0435\u0432\u0443": 5173, "\u2581\u0440\u0443\u043a\u0443.": 5174, "\u043b\u044f\u0442\u044c": 5175, "\u2581\u0441\u0442\u0430\u043a\u0430": 5176, "\u2581\u043e\u0447\u0435\u0432\u0438": 5177, "\u0447\u043d\u044b\u043c\u0438": 5178, "\u2581\u043d\u0430\u0447\u0438\u043d": 5179, "\u2581/": 5180, "\u2581\u0442\u043e\u0442\u0447\u0430\u0441": 5181, "\u0440\u043a\u0430": 5182, "\u0446\u0438\u044e,": 5183, "\u2581\u043f\u0435\u0440\u0435\u043c\u0435": 5184, "\u2581\u0414\u0435\u0439": 5185, "\u2581\u0432\u043e\u0441\u0445\u0438": 5186, "p\u0435": 5187, "\u2581\u0438\u043c\u0435\u043d": 5188, "\u0430\u043b\u0438\u0441\u044c.": 5189, "\u2581\u0447\u0443\u0434\u043e\u0432\u0438": 5190, "\u2581\u0431\u043b\u0435\u0441\u0442\u044f": 5191, "\u2581\u043c\u044b,": 5192, "\u2581\u043f\u0440\u0438\u0435\u0437": 5193, "\u2581\u0441\u0442\u0435\u043f\u0435\u043d\u0438": 5194, "\u0448\u0438\u0442": 5195, "\u2581\u0438\u043d\u0442\u0435\u0440": 5196, "\u2581\u0437\u043d\u0430\u0435\u0442\u0435,": 5197, "\u2581\u0410\u043d\u0442\u043e": 5198, "\u2581\u0438\u043c\u043f\u0435\u0440\u0430": 5199, "\u2581F": 5200, "\u2581\u0441\u043a\u043b\u0430": 5201, "\u043b\u044c\u0435": 5202, "\u043a\u043e\u0441": 5203, "\u2581\u0443\u0432\u0438\u0434\u0435\u043b\u0430": 5204, "\u0433\u0430\u043b\u0430": 5205, "\u0433\u0438\u043d": 5206, "\u2581\u0443\u0441\u043c\u0435\u0445": 5207, "\u2581\u0420\u0430\u0441\u0441": 5208, "\u0434\u043d\u043e\u0435": 5209, "\u2581\u043d\u0430\u0445\u043e\u0434\u044f": 5210, "\u0435\u043d\u0438\u0438,": 5211, "\u2581\u0443\u0447\u0430\u0441\u0442\u0438": 5212, "\u2581\u043b\u0435\u0442\u0430": 5213, "\u0446\u043e\u043c": 5214, "\u2581\u043d\u0430\u0448\u0443": 5215, "\u2581\u0436\u0438\u0432": 5216, "\u2581\u0448\u0438\u0440\u043e\u043a\u043e": 5217, "\u2581\u043e\u043a\u0430\u0437\u0430": 5218, "\u2581\u0432\u043e\u0441\u0442\u043e\u0440": 5219, "\u2581\u0421\u043b\u0443\u0448\u0430": 5220, "\u2581\u0447\u0443\u0436\u043e": 5221, "\u2581\u0416\u0435\u043d\u0449\u0438": 5222, "\u2581\u041b\u0430\u0434\u043d\u043e,": 5223, "\u0441\u0442\u0432\u0435,": 5224, "\u2581\u0441\u0442\u0440\u0430\u0448\u043d\u043e": 5225, "\u2581\u043d\u0435\u0436\u043d\u043e": 5226, "\u0432\u0430\u043d\u0438\u044f,": 5227, "\u2581\u041e\u0441\u0442": 5228, "\u0431\u0443.": 5229, "\u0435\u043d\u0442": 5230, "\u2581\u043f\u043b\u044e": 5231, "\u2581\u043d\u0430\u0447\u0430\u043b\u043e": 5232, "\u2581\u043a\u043e\u0442\u043e\u0440\u044b\u043c\u0438": 5233, "\u0441\u043b\u0435\u0434\u043e\u0432\u0430": 5234, "\u2581\u041f\u043e\u0436\u0430\u043b\u0443": 5235, "\u2581\u043e\u0440\u0443": 5236, "\u2581\u0432\u043e\u0434\u0443": 5237, "\u2581\u0410\u043b\u0435\u043a\u0441\u0430\u043d\u0434\u0440": 5238, "\u2581\u0434\u0435\u043b\u043e.": 5239, "\u0432\u043d\u044b\u043c": 5240, "\u2581\u0437\u0430\u0442": 5241, "\u0442\u043e\u043a,": 5242, "\u0440\u044c.": 5243, "\u2581\u0432\u043e\u0434\u0430": 5244, "\u2581\u043f\u0440\u043e\u0448": 5245, "\u2581\u0441\u0442\u0435\u043d\u0430": 5246, "\u043f\u0435\u043b\u044c": 5247, "\u2581\u0437\u0430\u0441\u0442\u044b": 5248, "\u2581\u043d\u043e\u0441\u0438": 5249, "\u2581\u0432\u0437\u0433\u043b\u044f\u0434\u043e\u043c": 5250, "\u2581\u043a\u0438\u0432\u043d\u0443\u043b": 5251, "\u2581\u041f\u0430\u0440\u0438": 5252, "\u2581\u043a\u0430\u043a\u0438\u043c-": 5253, "\u0432\u0430\u044f\u0441\u044c,": 5254, "\u2581\u044f\u0441": 5255, "\u0442\u043e\u0439,": 5256, "\u2581\u044f\u0431\u043b\u043e": 5257, "\u2581\u0442\u0449\u0430": 5258, "\u2581\u043d\u0430\u0432\u0441\u0435\u0433\u0434\u0430": 5259, "\u2581\u0445\u043e\u0442\u0438\u0442\u0435": 5260, "\u2581\u0433\u043e\u0434\u0430.": 5261, "\u0433\u0430\u0440": 5262, "\u2581\u043d\u0430\u0447\u0438": 5263, "\u0432\u0448\u0438\u043c\u0438": 5264, "\u2581\u0412\u0438\u0434\u0438": 5265, "\u2581\u0440\u043e\u0431\u043e": 5266, "\u2581\u0441\u043b\u0435\u0434": 5267, "\u0436\u0435\u043b\u0430": 5268, "\u2581\u043f\u043e\u044f\u0432\u0438\u043b\u0441\u044f": 5269, "\u2581\u0433\u0440\u0443\u0434\u0438": 5270, "\u2581\u0432\u044b\u043f\u043e\u043b\u043d\u044f": 5271, "\u2581\u0440\u0430\u0437\u043c\u044b\u0448": 5272, "\u2581\u041e\u043f": 5273, "\u2581\u043e\u0440\u0438": 5274, "\u2581\u0426\u0435": 5275, "\u0446\u0438\u044f,": 5276, "\u0434\u043e\u0432.": 5277, "\u2581\u043e\u0431\u0441\u0443": 5278, "\u2581\u0446\u0435\u043b\u044b\u0439": 5279, "\u2581\u0443\u0448\u0435\u043b": 5280, "\u2581\u043d\u0435\u0447\u0435\u0433\u043e": 5281, "\u0434\u043e\u0431\u0438": 5282, "\u0449\u0430\u0442\u044c": 5283, "\u2581\u0442\u0435\u043f\u0435\u0440\u044c,": 5284, "\u0446\u0435\u043f\u0438": 5285, "\u2581R": 5286, "\u2581\u043d\u0435\u0434\u0430\u0432\u043d\u043e": 5287, "\u0434\u043d\u0430\u044f": 5288, "\u2581\u0431\u043b\u0438\u0436\u0430\u0439": 5289, "\u0434\u0435\u043c\u0438": 5290, "\u043b\u043b\u044e": 5291, "\u2581\u043f\u0440\u043e\u043d\u0438\u043a": 5292, "\u2581\u0434\u043e\u0440\u043e\u0433\u0435": 5293, "\u2581\u043a\u0430\u0442\u0430": 5294, "\u2581\u043f\u043e\u0432\u0435\u0440\u043d\u0443\u043b\u0441\u044f": 5295, "\u2581\u043d\u0435\u043f\u043e\u0434\u0432\u0438": 5296, "\u2581\u0434\u0432\u0438\u0436\u0435\u043d\u0438\u044f": 5297, "\u2581\u041d\u0430\u0442\u0430": 5298, "\u2581\u0427\u0435\u043b\u043e\u0432\u0435\u043a": 5299, "\u2581\u0431\u0435\u0441\u043f\u043e\u043a\u043e\u0439": 5300, "\u0432\u0448\u0435\u0433\u043e\u0441\u044f": 5301, "\u2581\u043f\u0440\u043e\u0445\u043e\u0434\u0438": 5302, "\u2581\u0434\u043e\u0431\u0438": 5303, "\u2581\u0441\u043f\u0438\u043d\u043e\u0439": 5304, "\u2581\u043f\u043e\u0448\u043b\u0430": 5305, "\u2581\u0432\u0432\u0435\u0440": 5306, "\u0442\u043e.": 5307, "\u2581\u0432\u043e\u0437\u0432\u0440\u0430\u0449": 5308, "\u2581\u0431\u044b\u0441\u0442\u0440\u0435": 5309, "\u2581\u0442\u0440\u0438\u0434\u0446\u0430\u0442\u044c": 5310, "\u044c,": 5311, "\u043d\u043a\u0435": 5312, "\u043c\u0430\u0442": 5313, "\u2581\u043d\u0443,": 5314, "\u2581\u043d\u0438\u0436": 5315, "\u043d\u044b\u0435.": 5316, "\u043b\u0443\u0447": 5317, "\u0437\u044b.": 5318, "\u0442\u0438\u0438": 5319, "\u0441\u043a\u0438.": 5320, "\u2581\u0444\u0430\u043d\u0442\u0430\u0441\u0442\u0438": 5321, "\u2581\u0434\u0443\u0448": 5322, "\u2581\u043f\u0440\u0438\u0441\u043b\u0443": 5323, "\u2581\u0440\u0435\u0434": 5324, "\u043f\u0443\u0441\u0442\u0438\u043b": 5325, "\u2581\u043e\u0441\u0443\u0449\u0435": 5326, "\u2581\u0418\u0433\u043e": 5327, "\u2581\u0442\u043e.": 5328, "\u2581\u043a\u0430\u0440\u043c\u0430": 5329, "\u2581\u043e\u0431\u043b\u0435\u0433": 5330, "\u2581\u0440\u0435\u0434\u0430": 5331, "\u0436\u043d\u043e\u0433\u043e": 5332, "\u043c\u0443\u0449\u0435": 5333, "\u2581\u0420\u0430\u0437\u0443": 5334, "\u2581\u0434\u0435\u043d\u0435\u0433": 5335, "\u2581\u041c\u0443\u0436": 5336, "\u258121": 5337, "\u2581\u0441\u043e\u043d": 5338, "\u2581\u041b\u044e\u0434\u0438": 5339, "\u2581\u0443\u0434\u0430\u0440": 5340, "\u2581\u043e\u0444\u0438\u0446\u0438": 5341, "\u2581\u0441\u0435\u0440\u0434\u0438": 5342, "\u0447\u043a\u0443.": 5343, "\u2581\u0448\u043b\u0430": 5344, "\u2581\u0432\u0430\u0448\u0435\u0433\u043e": 5345, "\u2581\u0412\u0430\u0441\u0438\u043b\u044c": 5346, "\u2581\u043e\u0431\u044a\u044f\u0432\u0438": 5347, "\u2581\u0441\u0432\u0435\u0442\u0438": 5348, "\u2581\u0443\u043b\u044b\u0431\u043d\u0443\u043b\u0441\u044f": 5349, "\u2581\u043d\u0435\u043a\u043e\u0442\u043e\u0440\u043e\u0435": 5350, "\u2581\u0414\u043e\u043d": 5351, "\u2581\u0433\u043e\u0440\u0434\u043e": 5352, "\u2581\u0430\u0440\u0445\u0438": 5353, "\u2581\u044d\u043a\u0440\u0430": 5354, "\u2581\u0435\u0441\u0442\u044c.": 5355, "\u2581\u043f\u043e\u043b\u0443\u0447\u0438\u0442\u044c": 5356, "\u2581\u043f\u043e\u043b\u043e\u0436\u0438\u043b": 5357, "\u2581\u0441\u0438\u0434\u044f": 5358, "\u2581\u043d\u0430\u0431\u043b\u044e\u0434\u0430": 5359, "\u2581\u043d\u0430\u0441\u0442\u0430": 5360, "\u0441\u0442\u044b\u0445": 5361, "\u2581\u0432\u044b\u0432\u043e": 5362, "\u0431\u0430\u0442\u044b": 5363, "\u0435\u043c\u043e\u0439": 5364, "\u2581\u043f\u043e\u0440,": 5365, "\u2581\u043f\u0440\u043e\u0431\u043e\u0440": 5366, "\u0432\u0430\u0435\u043c": 5367, "\u0432\u0430\u043d\u0438\u044f.": 5368, "\u2581\u0413\u0440\u043e": 5369, "\u0445\u0438,": 5370, "\u2581\u043d\u0430\u043c\u0435": 5371, "\u2581\u0441\u0438\u0441\u0442\u0435\u043c\u044b": 5372, "\u2581\u0442\u0432\u043e\u0435\u0439": 5373, "\u0440\u0451": 5374, "\u2581\u0432\u0438\u0434\u0435\u043b,": 5375, "\u2581\u043f\u043e\u0442\u043e\u043c,": 5376, "\u2581\u0441\u043b\u044b\u0448\u0430\u043b": 5377, "\u2581\u0412\u043e\u0437\u043c\u043e\u0436\u043d\u043e,": 5378, "\u2581\u0441\u0432\u0438\u0434\u0435\u0442\u0435\u043b\u044c": 5379, "\u2581\u0434\u043e\u043c\u0438": 5380, "\u0434\u043e\u043d": 5381, "\u043b\u044b.": 5382, "\u0435\u0432.": 5383, "\u0441\u0442\u0430\u043b\u0430": 5384, "\u2581\u043f\u043e\u043b\u043a\u043e\u0432": 5385, "\u2581\u0414\u0435\u043b\u043e": 5386, "\u0437\u043e\u043d": 5387, "\u0441\u043a\u043e\u0433\u043e,": 5388, "\u2581\u0438\u0445.": 5389, "\u2581\u043a\u0443\u043f": 5390, "\u2581\u043f\u0440\u0430\u0432\u0430": 5391, "\u2581\u043d\u043e\u0432\u044b\u0445": 5392, "\u2581\u043a\u0430\u043a\u043e\u0433\u043e-": 5393, "\u2581\u043f\u0435\u0440\u0435\u0441\u0442\u0430": 5394, "\u2581\u043d\u0435\u0438": 5395, "\u043d\u044b\u0445.": 5396, "\u2581\u0438\u0437\u0443\u043c": 5397, "\u0442\u0438\u043a": 5398, "\u2581\u0431\u0440\u0435": 5399, "\u043f\u0435\u0447\u0430": 5400, "\u2581\u043c\u0438\u0433": 5401, "\u0432\u0448\u0435\u0439\u0441\u044f": 5402, "\u2581\u0440\u0430\u0431\u043e\u0442\u0430\u0442\u044c": 5403, "\u2581\u043e\u043f\u0440\u0430\u0432": 5404, "\u2581\u043d\u0430\u0438\u0431\u043e\u043b\u0435\u0435": 5405, "\u2581\u0443\u0437\u043d\u0430\u043b": 5406, "\u0446\u0438\u044e.": 5407, "\u2581\u0412\u0441\u044f": 5408, "\u258122": 5409, "\u2581\u043a\u0440\u0435\u043f\u043a\u043e": 5410, "\u2581\u043d\u0438\u043a\u0430\u043a\u043e\u0439": 5411, "\u043a\u043e\u0432\u0438": 5412, "\u2581\u0442\u0435\u0445\u043d\u0438": 5413, "\u2581\u0434\u0435\u0442\u0435": 5414, "\u043d\u044f\u043a\u0430": 5415, "\u2581\u043e\u0442\u0432\u0440\u0430": 5416, "\u2581\u0440\u043e\u0434\u0430": 5417, "\u044e\u0442\u0441\u044f,": 5418, "\u0442\u0438\u043b\u043e": 5419, "\u2581\u0413\u043e\u0432\u043e\u0440\u0438": 5420, "\u2581\u0442\u0435\u043b\u0435\u0444\u043e": 5421, "\u2581\u0438\u0437\u0432\u0435\u0441\u0442\u043d\u043e,": 5422, "\u2581\u0443\u00a0": 5423, "\u2581\u043f\u043b\u044f": 5424, "\u2581\u043f\u043e\u043f": 5425, "\u2581\u0443\u043f\u0430\u043b": 5426, "\u2581\u0411\u043e\u0433\u0430": 5427, "\u2581\u0440\u0443\u043a\u0435": 5428, "\u2581\u043f\u0438\u0441\u0430\u043b": 5429, "\u0445\u0432\u0430\u0442\u0438\u043b": 5430, "\u2581\u041c\u0430\u043a": 5431, "\u0442\u0438\u044f,": 5432, "\u2581\u0422\u0440\u043e": 5433, "\u2581\u043a\u0430\u043f\u0438\u0442\u0430\u043d": 5434, "\u2581\u0432\u043e\u0440": 5435, "\u0449\u0435\u0440": 5436, "\u2581\u043a\u043e\u043c\u043c\u0443": 5437, "\u2581\u0441\u043c\u0435\u0448": 5438, "\u2581\u0441.": 5439, "\u2581\u0448\u0430\u0433": 5440, "\u2581\u043a\u043e\u043d\u0446\u043e\u0432": 5441, "\u2581\u0413\u043b\u0430\u0432\u0430": 5442, "\u2581\u043b\u0430\u0441\u043a\u043e": 5443, "\u2581\u043c\u043e\u0435\u043c": 5444, "\u2581\u0443\u0439\u0442\u0438": 5445, "\u2581\u043e\u043f\u044b\u0442": 5446, "\u2581\u044f\u0437\u044b\u043a": 5447, "\u2581\u0430\u043b\u044c": 5448, "\u0434\u043b\u0438": 5449, "\u2581\u0440\u0438\u0441\u0443": 5450, "\u2581\u0432\u0440\u0435\u043c\u044f.": 5451, "\u2581\u043c\u0438\u043b\u0438": 5452, "\u2581\u0443\u0432\u0438\u0434\u0435\u043b,": 5453, "\u2581\u0446\u0435\u0440\u043a\u043e\u0432": 5454, "\u2581\u043f\u043e\u043d\u044f\u0442": 5455, "\u2581\u043f\u044b\u0442\u0430\u044f\u0441\u044c": 5456, "\u2581\u0434\u0432\u0435\u043d\u0430": 5457, "\u2581\u0441\u043e\u043f\u0440\u043e\u0432\u043e": 5458, "\u0432\u0438\u0442": 5459, "\u2581\u0438\u0441\u043a\u0430\u0442\u044c": 5460, "\u2581\u043e\u0445\u0440\u0430": 5461, "\u043f\u044b,": 5462, "\u2581\u0433\u043e\u0432\u043e\u0440\u044f,": 5463, "\u0435\u0432\u0430": 5464, "\u0435\u043c\u043e\u043d": 5465, "\u2581\u0431\u043e\u043b\u044c\u0448\u0438\u043c": 5466, "\u043b\u0435\u0442\u0435\u043b": 5467, "\u0441\u043b\u0430\u0432": 5468, "\u2581\u043a\u043e\u0442": 5469, "\u0441\u043a\u0438\u0439.": 5470, "\u0447\u043d\u043e.": 5471, "\u0441\u0442\u0430\u0432\u0438\u0442\u044c": 5472, "\u043f\u043a\u0443": 5473, "\u043f\u043b\u0438\u0432\u043e": 5474, "\u0432\u044c\u0442\u0435": 5475, "\u2581\u0438\u043c\u0438": 5476, "\u2581\u041a\u0440\u0435": 5477, "\u043b\u0430\u043b": 5478, "\u0447\u0435\u0441\u043a\u0438\u043c\u0438": 5479, "\u2581\u0434\u0443\u043c\u0430\u0442\u044c": 5480, "\u0431\u044b\u0435": 5481, "\u2581\u0441\u043a\u0430\u0436\u0435\u0442": 5482, "\u2581\u043e\u0442\u0440\u0435": 5483, "\u2581\u0425\u043e\u043b": 5484, "\u2581\u043f\u043e\u043d\u044f\u0442\u044c": 5485, "\u2581\u0432\u0440\u0435\u043c\u0435\u043d\u0435\u043c": 5486, "\u2581\u041f\u043e\u0434\u043e": 5487, "\u043f\u0435\u0442\u044c": 5488, "\u2581\u043b\u0435\u0439\u0442": 5489, "\u2581\u043d\u0430\u0446\u0438\u043e\u043d": 5490, "\u043b\u0438\u043f": 5491, "\u2581\u0434\u0430\u043b\u044c\u043d\u0435\u0439": 5492, "\u2581\u0440\u0430\u0441\u0448\u0438": 5493, "\u2581\u0432\u043e\u0437\u043c\u043e\u0436\u043d\u043e\u0441\u0442\u0438": 5494, "\u2581\u0434\u0438\u0430": 5495, "\u0441\u0442\u0435\u0439.": 5496, "\u2581\u0421\u043e\u0432": 5497, "\u2581\u0432\u043e\u0441\u044c": 5498, "\u2581\u043e\u0431\u044a\u0435\u043a": 5499, "\u2581\u0441\u043e\u043c\u043d\u0435": 5500, "\u2581\u0440\u0430\u0441\u043f\u043e\u0440\u044f": 5501, "\u0442\u0430\u043b\u043e": 5502, "\u2581\u041e\u043b\u044c": 5503, "\u2581\u0421\u0435\u0440\u0435": 5504, "\u0430\u043b\u044c,": 5505, "\u2581\u0443\u043a\u0430\u0437\u044b": 5506, "\u2581\u043d\u0430\u0432\u0441\u0442\u0440\u0435": 5507, "\u2581\u043e\u043a\u0430\u0437\u0430\u043b\u043e\u0441\u044c": 5508, "\u2581\u0446\u0438\u0432\u0438\u043b\u0438": 5509, "\u2581\u0433\u043e\u043b\u043e\u0432\u0443.": 5510, "\u2581\u041d\u0438\u043a\u043e\u043b\u0430\u0439": 5511, "\u2581\u0431\u0440\u0430\u0442\u044c": 5512, "\u2581\u0433\u043e\u0440\u043e\u0434\u0435": 5513, "\u2581\u043f\u043e\u0434\u0441": 5514, "\u2581\u0442\u0430\u0438\u043d": 5515, "\u043c\u0438\u0442\u0440\u0438": 5516, "\u2581\u0442\u044b\u0441\u044f\u0447\u0438": 5517, "\u2581\u0441\u0430\u043c\u0430\u044f": 5518, "\u2581\u0423\u0436": 5519, "\u2581\u0431\u043e\u0436\u0435": 5520, "\u2581\u0434\u0435\u043d\u044c.": 5521, "\u2581\u0436\u0438\u0432\u0443": 5522, "\u043a\u0430!": 5523, "\u2581\u041c\u0430\u043c\u0430": 5524, "\u2581\u0414\u0436\u0435\u0439": 5525, "\u2581\u0437\u0434\u043e\u0440\u043e\u0432": 5526, "\u2581\u043d\u0430\u0448\u0435\u043c": 5527, "\u2581\u0438\u0441\u0441\u043b\u0435\u0434\u043e": 5528, "\u2581\u0442\u043e\u043f\u043e": 5529, "\u0441\u043a\u0430\u0442\u044c": 5530, "\u0431\u043e\u0432": 5531, "\u0418\u041a": 5532, "\u0445\u043e\u0442\u0432\u043e\u0440": 5533, "\u2581\u0441\u043e\u043b\u043d\u0435\u0447": 5534, "\u2581\u041e\u0442\u043a\u0443\u0434\u0430": 5535, "\u2581\u043d\u0430\u0445": 5536, "\u0433\u0435.": 5537, "\u2581\u0441\u0435\u0440\u0435\u0434\u0438": 5538, "\u2581\u0432\u0437\u0433\u043b\u044f\u043d\u0443\u043b": 5539, "\u2581\u043f\u0440\u043e\u0448\u0435\u043b": 5540, "\u2581\u043b\u043e\u0433\u0438": 5541, "\u2581\u0440\u0430\u0437\u0434\u0430": 5542, "\u2581\u043d\u0430\u0440\u0435": 5543, "\u2581\u043f\u0440\u0435\u0434\u043b\u043e\u0436\u0438\u043b": 5544, "\u2581\u0411\u0440\u043e": 5545, "\u2581\u0432\u043e\u0437\u043c\u043e": 5546,
[...]
