▁ <
n |
▁< |
n| >
▁<| n|>
▁ п
▁ с
▁ н
▁ в
т о
▁ о
▁ и
н о
к о
р а
с т
р о
е н
а л
▁п о
г о
к а
▁ д
▁ м
р е
л и
▁ б
▁н е
▁н а
е т
л о
р и
▁ т
т ь
л а
н и
▁ з
▁ ч
в о
н а
с я
▁ у
в а
е р
н ы
л ь
к и
е м
д а
▁з а
▁ к
л е
с ь
▁ ко
р у
▁ то
т е
▁ е
м и
д и
в и
т и
▁ч то
н у
▁ ка
н е
т а
▁ ра
▁ В
ен и
ж е
▁б ы
▁ Н
д е
д о
х о
▁ П
▁ э
▁ —
▁п ро
▁о т
▁в о
▁с о
м о
в е
▁ г
▁ С
л я
▁п ри
▁д о
с е
▁м о
▁ я
ч и
м а
▁ О
ж и
▁в ы
ш и
▁ а
▁ К
▁ го
п о
р ы
б о
ш е
к у
▁т а
▁ -
▁ М
ч е
▁э то
ал и
▁ И
л у
▁о б
▁ А
е ре
д у
▁ Т
▁н и
▁и з
ст и
▁ Д
с то
▁н о
ч а
ст а
ал а
с и
м е
з а
▁о н
но й
щ е
ст ь
л ю
▁ка к
▁ –
▁в се
с ко
м у
н я
с о
е ,
г а
  —
▁ра з
▁—  
▁б о
в ы
▁с т
м ,
щ и
й ,
р я
▁т е
▁е го
▁по д
▁П о
г да
в ер
л ся
но го
▁д е
г и
ны й
▁с во
▁ Б
п и
ал ь
п а
те ль
▁с е
с ки
▁п ре
▁ Я
▁ же
▁ «
▁ ли
▁ хо
ка з
▁в е
ен ь
с а
т ы
ц и
в у
▁б е
б и
ш а
б е
▁с а
ал о
ны е
ен но
б ы
л ы
ж а
▁ Г
ль ко
я ,
ть ся
▁д а
▁ ре
ет ся
▁ко то
т у
ц а
ны х
ю т
▁б у
▁м е
ш ь
д ы
ц е
▁ Р
▁ ф
м .
ем у
▁п ере
▁м а
▁та к
в ет
▁с то
ко й
▁ З
▁ Л
▁ ру
▁в а
ени я
▁ 1
▁Н а
▁в и
ж но
▁ жи
п е
▁с и
в ал
▁м и
ть ,
ст во
е .
▁ Э
е й
▁ Ч
▁ лю
▁м ен
м ы
▁бы ло
▁ра с
д ь
▁Н о
▁с та
б а
▁п а
▁ (
г у
▁д ру
▁по с
▁ ж
з о
▁ч е
т ,
▁ х
с ли
  –
▁о на
▁м ы
п ро
д ет
▁ Е
ре м
▁К а
з и
. .
▁–  
▁т ы
но ,
▁Н е
▁з на
▁ У
ени е
на я
▁с у
сь ,
▁О н
п у
▁К о
й .
л ет
ны м
▁мен я
в ,
ю ,
▁в с
▁ ле
б у
▁м не
▁ ро
▁о д
ст в
▁д у
▁ ш
л ен
б я
▁во з
▁и с
хо ди
в ши
х ,
ва ть
▁к у
н ь
ло ве
▁В о
▁то лько
▁бы л
х а
в но
▁с каз
▁д ля
с у
к е
к ,
т ся
▁в з
но в
л ,
п ра
о б
▁бо ль
ч но
ла сь
▁Д а
▁е е
во ри
▁кото ры
▁п у
щ а
▁е ще
м ен
▁г ла
д я
▁о ни
ну л
▁ч а
с ка
▁ Х
▁ко гда
ро в
ж ет
▁с ло
▁у же
з ы
▁в рем
▁го ло
▁и х
ну ю
▁т у
▁пре д
м ер
ли сь
.. .
ми ,
мо т
▁ "
к ры
▁М а
тель но
▁Т а
▁че лове
т я
ра н
з у
ко м
▁и ли
ко в
в али
▁З а
то м
▁п ра
▁п и
ал ся
ро м
т .
▁ч у
ка ,
ни я
п ер
ст у
в я
▁м у
▁с лу
▁что бы
▁М о
з на
ни е
▁ко н
в ля
ю щи
▁Т о
ть .
ва я
ни ма
▁до л
▁Э то
о н
го ,
ди н
ст ва
с ы
ки ,
к .
г ля
ст е
де л
▁ ему
во й
▁са мо
ч у
ен а
но е
,  —
▁и м
▁б а
о р
▁ Ф
п ы
▁сказ ал
с по
ло сь
ч ь
г ра
но м
че ски
ст ви
ми .
▁пос ле
▁на с
ж ен
▁к ра
▁п ер
▁сво и
▁о ста
▁ 2
▁бе з
ст ро
▁жи з
▁го вори
▁е сли
ем ,
▁Ч то
ш о
▁с ле
▁в ер
ет ,
ю .
ств ен
у ,
▁и н
ц ы
▁п е
ка .
к то
▁ч ем
▁об ра
▁п ла
▁э ти
х и
сто я
▁бы ла
ско й
▁ ло
▁да же
ч ень
м ет
ше л
▁ст ра
х .
» .
▁не го
а н
ж д
ци и
▁мо жет
с но
с к
ц о
ру г
ж ал
▁Б о
▁В ы
ст ы
▁ ла
▁Р а
▁по л
▁у с
ка за
.  —
г ла
▁ра бо
и з
я т
ст ре
ны ми
ни к
▁г де
ф и
д но
то му
ва ет
в ала
че го
ва н
ал ,
▁е сть
б ра
▁по ч
▁Н и
в .
к ра
▁бы ли
р ь
пер ь
▁по лу
▁гла за
▁ко м
ш у
▁с ко
на ,
ст ву
▁бу дет
▁ лу
ки .
е шь
ки е
▁се бя
я .
▁ ц
ско го
▁Ка к
ал е
▁О на
▁о чень
▁С о
де ла
д ер
ну лся
▁т ем
не й
я ть
▁Т ы
▁П ри
во р
с ле
ро й
▁на ч
ли ,
ало сь
т ер
▁ка ж
по л
▁к то
в л
про си
▁П ро
ма н
л .
▁н у
▁ Ш
ку ,
▁Г о
ж у
▁т ре
т ра
ют ся
е го
) .
ко го
▁врем я
▁ч и
▁ ки
ла ,
▁ *
▁ лет
е з
▁по до
▁Д о
ка я
▁М и
с си
н ет
мот ре
на .
▁это го
▁с по
▁ Ж
▁во т
▁В а
да ,
п ри
п ре
ро д
▁В се
ча с
▁с ер
▁по ло
ени и
до м
▁т ру
▁с к
но ви
н ,
ки х
ко е
▁сто ро
▁ч ер
али сь
н д
▁боль ше
▁на д
▁ це
вы й
▁рас с
ере з
▁де ла
▁1 9
▁М ы
▁дру го
▁от вет
▁про сто
▁мо г
▁ ша
▁д и
▁д ень
в то
но ва
й те
» ,
д ни
▁ж ен
ку .
▁ва с
ки й
д ца
ле к
▁О т
▁те бя
ста ви
а р
ч ен
▁В е
ски й
▁хо ро
н .
н но
▁Х о
ку ю
▁с вет
и л
▁се бе
▁г ру
ти в
▁мо жно
▁на до
▁по мо
бо й
каз ы
щ у
▁это т
то в
ну ла
▁т и
т ри
р ен
ш ка
ше й
▁о дин
ни и
▁о к
ю ще
де сь
со б
▁бо ле
▁Р о
▁з ем
ала сь
вы е
ки м
▁ни чего
▁те перь
▁С а
з я
▁это м
▁Во т
в ра
▁д ва
ско лько
▁ 3
▁бы ть
▁ф и
▁с проси
▁то ,
▁ ше
р ти
ны ,
▁ту т
▁не м
▁та м
▁  
с ем
ше го
▁Е сли
ж да
▁пере д
▁к ро
во ль
▁по ня
▁и ,
▁о с
м ни
ется ,
▁со в
д ,
▁г у
▁по ка
ц у
ве д
и н
▁то же
л ем
ет е
▁по з
ств енно
г е
б ли
т ро
ь я
▁ни х
▁и ме
▁Та к
▁П а
вал ся
▁м ного
ре д
▁Т е
ли .
▁те бе
ни м
но сть
ф е
ен е
▁что -
сти ,
▁б ро
бу дь
▁се й
с ло
▁которы й
к лю
ра я
е в
▁г лу
▁по том
ро го
▁к ри
▁у ви
▁ч ерез
ла го
р .
▁чу в
▁п ло
▁жиз ни
▁О ни
ени ем
▁которы е
▁об ъ
▁бу ду
▁к ре
ч ка
▁о ст
но .
▁о бо
об ра
и т
не ц
▁слу ча
▁мо ло
▁дру ги
▁ни будь
▁ва м
ж ду
до л
р ,
ст ра
ни ка
▁д ет
▁мо гу
ч ет
▁Ко гда
▁с ра
▁т ри
ст я
и ,
▁в д
▁хо те
▁на м
ко н
с с
▁с вя
ч ал
те ,
▁бу д
▁все х
▁сей час
д ня
▁не т
▁е й
не е
▁лу ч
ра ,
▁от кры
те ре
▁вз гля
▁по тому
▁сво ей
не ч
▁з десь
я с
▁де й
▁м ал
во з
▁с ме
▁де ло
х ва
▁Н у
би ра
!  —
й ти
▁в ся
ду м
?  —
▁сто я
▁не сколько
вы х
ла .
с .
мо жно
▁то го,
в ь
▁жиз нь
лы ш
ва ться
▁ко ро
▁к ру
▁с ы
▁все гда
▁ве дь
д .
ле й
да .
▁т я
▁б ра
▁про из
▁г ра
во го
ко гда
▁в ме
▁т ра
не с
т но
▁сло ва
де й
▁п ы
ст ер
ени я,
▁ли шь
к е,
▁жен щи
ш ло
▁и сто
▁В и
▁о г
▁ми ну
▁с ка
▁то гда
▁т во
пу сти
▁в стре
р т
▁боле е
ва ри
▁д ви
▁то т
▁Л и
▁ ры
▁д ере
▁до ро
ска я
с ,
сти .
▁са м
▁сво ю
те ля
ш ен
▁с пи
▁это й
ве ри
▁не о
▁са мы
▁со л
▁ду ма
▁п ря
ш ли
пра ви
н ю
ски х
▁не й
▁про и
ра .
▁с ла
▁ ря
▁все го
р ю
ны .
▁с каза
м я
▁с нова
де ли
ве ст
▁и  
▁ве ли
▁И з
▁од на
ет .
ш ки
н ал
▁ 4
б ро
та ,
▁ру ка
т ем
те ри
я сь
вер ь
ш ла
▁ни м
▁у лы
▁с ем
▁вы со
▁лю би
ч ем
ала ,
ли н
▁о п
во ди
▁ре ши
вши сь
▁г а
ва ют
▁б лаго
л енно
хо дя
то й
ну ть
вши й
▁вд руг
чи т
▁у да
д ен
▁ле г
к ти
▁к ни
до в
▁с дела
▁ 5
▁вс ё
▁со вер
ения .
▁лю бо
ци я
ста вля
ви ч
и м
▁то м,
я ви
) ,
▁ч ет
▁то л
▁че го
▁д ер
▁ст у
▁а вто
д ал
▁ка кой
во е
о ло
▁вс ем
▁об е
▁К у
▁про дол
▁су ще
▁ст ал
▁с п
.  
▁во л
дет ь
к ла
▁ком на
у т
▁ка р
ва ется
▁Б е
▁со б
▁ли цо
▁та кой
▁сов сем
▁во с
▁а н
▁поч ти
ной ,
к е.
▁   
▁А н
ре ди
ени е,
▁му ж
▁ф а
аль но
▁ме жду
ни й
сту п
▁Л е
▁лю ди
д на
▁у ж
ен ы
▁ни когда
▁э та
▁дей стви
чи та
ч ки
▁хо тя
▁Д е
но си
▁п ле
ли во
ша я
▁ ши
ст ве
▁Н у,
▁д ы
ющи й
▁го р
▁сво й
вы м
ва ния
▁б ли
▁за мет
▁спроси л
ны й,
▁до ма
м ени
му ,
▁ма ши
▁П у
з е
▁под ня
н ем
ло жи
ться ,
▁ни ка
▁в то
▁с те
▁М не
д ра
али ,
▁по нима
ши х
ве з
" .
▁мо л
ж ение
▁с мер
ро е
с ла
ски е
▁у ди
до й
и .
▁с па
▁ Ц
,  –
▁Б у
▁по хо
▁ ю
▁сле ду
▁т ер
ь ю
ходи т
р га
вер х
▁во про
не ,
▁буд то
▁П ет
т ре
с пе
▁мо й
▁челове к
ер т
▁не е
чи на
п ло
▁ко р
ж ды
сть ,
та .
ж де
да ть
▁в ра
ру жи
ну ,
п ере
сть ю
та н
▁во й
▁сказ ала
▁М е
неч но,
▁в  
▁м но
ч ер
ча ст
лся ,
ться .
▁вз я
▁сво его
▁об ы
▁с мо
▁Л ю
▁си ль
▁ус пе
▁голо ву
▁мал ень
▁хоро шо
▁с мотре
щ ен
▁врем ени
▁в ла
▁в ну
! ..
▁1 8
▁к ры
ци он
▁ве сь
к нул
▁С и
к ло
▁по -
▁го ро
т ал
▁улы б
▁исто ри
▁д ву
ени й
у м
▁од но
▁сра зу
▁дол ж
ско м
▁ ри
▁ну жно
ко нец
во ря
да р
ем ы
▁х у
▁по э
▁у би
▁не с
▁с ли
▁поч ему
б лю
ка ми
▁полу чи
▁б и
▁свои х
ты ,
с лу
▁ме д
▁с пе
▁Е го
▁те х
▁луч ше
▁те ле
▁дру г
ко ,
▁сло вно
▁б ере
ты й
ало сь,
▁не по
0 0
го вори
мот ри
ва ни
ву ю
▁Б а
д но,
▁со з
▁Да ,
▁г ро
▁д аль
ени е.
ч ала
▁д верь
▁не бо
ем о
▁с ви
▁Ра з
▁ р
ну лась
▁он ,
ем .
▁в ет
с со
ени ю
ре й
▁Л а
жи да
ле з
▁О дна
▁с дел
во д
▁то го
к ре
▁мо и
сту пи
▁в нима
ко й,
п ла
аль чи
▁ви ди
дца ть
пи са
▁не до
ч о
▁ф ор
пы т
щ ё
ко то
в лен
▁о каз
▁Н ет,
▁е ё
▁у ли
ка н
▁пра ви
ло м
ко в,
▁при ня
ну .
лы й
ща я
хо д
▁обра зо
▁ка з
▁к ла
ни з
ющи е
ш енно
▁та ки
ва ,
▁То лько
е х
ф ор
▁на у
сто й
▁сво е
ти л
ло в
▁об ще
де ль
▁ко л
▁з н
ж о
н ен
со м
ду ,
▁С та
▁п аль
▁э ту
ш ком
▁на ш
▁бы стро
▁по ли
ца ,
▁пра в
▁но чь
ж ения
▁с ти
ру ю
▁ру с
▁м ет
г ,
▁ст ран
▁воз можно
ря д
▁ жа
ми на
со в
▁т ро
" ,
▁на де
▁бы ть,
до х
▁ку да
то р
▁ин тере
▁пря мо
▁с пра
▁же ла
▁кото рой
не го
жа ть
▁так ,
лся .
▁раз го
ф о
▁м я
по мни
▁на за
▁а р
▁х а
об ще
▁дол жен
▁же ,
ющи х
▁не у
д ви
▁э к
▁ Ю
▁де ся
▁вы ра
▁из -
▁хо ло
ч ной
ло ,
▁па р
▁об ла
▁по й
шь ,
с са
ско е
п ря
▁я ,
▁ф о
▁де ву
н т
▁ ца
▁пре кра
у р
щи й
▁у го
▁Р е
▁на зы
▁у м
▁с ве
▁    
бо р
ну в
▁воз ду
вали сь
ст ал
▁жи во
▁поз во
▁ме сто
вши е
си ли
не .
▁боль шо
ди те
▁им енно
▁после д
че ской
ва ние
ю сь
▁Б ы
▁пос мотре
з ь
н ный
мо й
▁ру ки
▁дол го
г .
▁что ,
ве ли
▁по бе
▁то р
▁кото рая
▁я зы
▁ст ре
▁се го
ф а
▁ 6
▁К то
ра з
н це
ши й
▁А лек
ной .
▁З на
во м
т ни
ы ,
▁за бы
▁каж ды
▁ л
▁на стоя
сть .
▁ис по
ды ,
ти я
ри л
▁г ля
▁По сле
▁эти х
▁з е
га ,
ж ала
▁от ве
ет ь
▁у г
п ал
▁со гла
▁друго й
▁д ве
▁оп ять
вши х
▁ст ро
▁в не
▁Р у
ди ть
те ц
ко м,
ет и
▁г и
ско ль
ч то
ду .
яс ни
▁рабо та
ешь ,
▁про тив
▁ц вет
ч ный
в ни
▁у з
г ре
▁тя же
▁Те перь
.  –
ра б
▁чув ство
▁спо соб
▁за па
▁ду м
▁у т
▁вме сте
г ли
▁чу ть
ны е,
ра ви
▁та кое
д ро
▁ I
ся ,
▁з ву
▁на ходи
▁свои м
▁о че
ч ение
▁хо зя
ст но
в ле
к руг
▁из вест
▁Л у
▁ста ри
▁о соб
▁- -
шу ю
ши м
▁д але
▁ни кто
▁ма тери
▁которы х
к ри
▁вс ю
ра к
ди л
ть ?
▁С е
то го
▁ ще
▁с ю
ги ,
ны м,
чи л
▁не кото
ц ен
ма ,
▁сер д
т ен
▁Мо жет
▁оста нови
▁бе с
▁П и
▁ответ ил
ти ,
▁го то
▁так же
▁од ной
▁сего дня
▁со стоя
▁у бе
▁С ер
▁до ста
▁а к
▁Д у
ку с
▁С у
▁е щё
н ер
в ало
▁не об
чески х
с кую
▁у жа
х у
ты .
!  –
▁сли шком
ч ку
▁прои с
ль ,
▁ра до
▁го да
до ро
ши е
о т
▁К и
ва .
▁не  
▁ра вно
си л
▁с лыш
л ли
▁во ло
▁г ре
▁м альчи
▁со бой
ков .
чи т,
д ем
пе ра
чу в
ты е
▁М у
▁мен я,
ве л
▁за ме
ка х
▁об и
кто р
▁м ало
▁по дум
▁мо мен
ди ,
▁кото рого
са ,
▁по р
но ш
▁ ци
ства ,
▁о но
▁По ч
▁говори т
ш но
▁на з
ча т
ры ,
к ал
▁в пере
▁нем ного
те ра
ла га
ло ви
ль зо
ку да
▁совер шенно
▁и гра
н ные
▁б ле
▁хо ть
к ро
сто ро
▁П ере
▁у чи
ве сти
б е,
▁од ного
▁г .
▁само м
▁и но
▁по то
▁По д
дер жи
вала сь
ди т
▁к ва
e r
▁о рга
▁ско ро
▁По том
ч ных
ро ван
▁ст ало
▁на пра
▁г е
ло й
▁са ма
▁ 7
▁то чно
до б
г ру
ч ные
▁ты ся
но к
▁ог ром
▁по каз
▁кра с
! »
▁о со
воль но
▁о сно
ко ла
ца .
кой .
ко ло
▁я вля
▁я .
▁ме ста
ту ,
▁на конец
▁ко го
▁с чита
ду ма
▁Ма р
▁х ва
▁А р
с ку
▁го воря
б я,
▁го спо
▁во обще
▁о пре
ча я
▁у вер
▁его ,
ж али
▁ви де
че ского
▁д ня
▁какой -
▁сво бо
▁дву х
лы е
ло .
но сти
▁необ ходи
▁эти м
▁Т и
▁подо б
ё м
ст ей
▁с на
▁ти хо
▁ко нечно,
▁чет ы
ви л
▁Д ля
▁по да
▁со бира
▁по ра
▁от ли
д али
▁П ер
▁во ро
▁мы с
в се
чески е
▁во круг
▁у ста
▁ц ен
▁ко ман
ти ть
▁о па
▁по яви
ко м.
тся ,
▁пи са
▁мо ей
чески й
ро де
▁на вер
▁го род
ва й
▁о де
в тра
▁з оло
▁за кры
ра в
ё т
б ер
▁по ро
▁и де
?  –
▁с мы
▁мо р
▁спо кой
че ство
ре з
ту р
ры е
са .
вал ,
с ен
к ну
т али
▁С ко
ще й
▁не ль
ется .
▁И ва
л ения
▁Ч е
▁о щу
▁И н
▁по вер
▁лю дей
в шего
▁пи сь
▁кажды й
▁ко ло
ют ,
щи х
а ,
вл ения
▁соз да
▁да вно
▁Д и
▁п я
ры й
▁воз вра
то к
▁ме ст
▁То гда
▁п ять
▁ 8
▁де ле
▁ка кие
▁Ф е
▁кто -
же ,
▁за ня
▁по жал
▁хоте л
▁от нош
▁сло во
▁с пу
но е,
ал .
х ра
▁са ми
цы ,
ча ть
▁про ти
щи е
ды .
▁хо чу
▁бе спо
▁со ба
▁чи та
▁то м
▁у ни
▁он .
н ной
ва ть,
▁соб ствен
ь е
га .
ко му
▁А нд
ги е
▁нач ал
су т
▁по ме
▁ка м
ни ки
▁при ходи
▁ра ди
енно е
ст ран
ви ть
ма .
лы х
хо в
ч али
ту .
▁ме ся
▁то н
ч ного
я х
ше ,
▁по тер
▁не т,
▁Ро сси
▁ря дом
д ва
▁рас по
ме ри
▁зна ю,
гля ды
▁не при
ва ю
ни ца
жи т
▁мо я
▁кото рую
ре ,
чи н
▁челове ка
▁гла з
▁Поч ему
▁Ве дь
▁а д
те .
▁само го
чи ть
ча сть
▁ст али
▁по ко
щу ю
▁ру ку
▁по вто
▁Г а
ше е
▁с не
ще го
▁действи тельно
▁помо щ
ства .
ци ю
▁О б
▁д ро
▁Г ла
▁мы сли
▁на ро
▁у по
▁кон це
юще й
ро к
та я
ц ,
▁на чина
ет е,
▁у зна
▁ш ко
ки ми
▁з ло
▁особ енно
ду т
юще го
▁ис че
те ли
▁лю де
гу ,
ы .
ты х
н ных
ль .
▁ре з
▁за тем
сту па
е к
в ен
на я,
я за
▁1 0
▁о то
▁ми р
в алось
ны м.
ни ,
▁ли бо
▁д ра
▁ i
ски м
▁на  
му .
▁об на
ни я,
▁за да
▁Г де
▁го су
с ю
▁за ко
до ва
▁со бра
▁бо га
▁Л о
▁при зна
▁долж ны
▁голо с
▁ H
▁ве се
н к
▁з о
▁все ,
▁с реди
ст ру
я н
во ро
▁ p
? ..
▁ко с
вая сь
мо л
вать .
ша ть
▁х и
▁глу бо
▁за бо
▁П ре
аль ные
▁о го
жи л
▁ча сто
а .
▁ши ро
ч ения
▁при го
не чно
▁ви д
▁з у
▁ро д
▁ве че
▁дол жно
пи с
▁-  
▁слу чи
▁ста р
ала .
▁до мо
ча й
пол ни
▁д ре
▁ско лько
▁замет и
ции ,
ги .
стви е
▁у ме
ли сь,
▁ко раб
▁ответ и
▁ви дел
тся .
? !
▁д лин
▁у пра
т ки
ш ку
▁Го спо
г ну
▁Одна ко
▁с кры
▁кото рое
▁воз ра
▁ш у
▁с ред
▁ме ч
▁могу т
▁та кие
е ль
ё л
▁при вы
▁пре жде
▁про б
▁о ди
▁Р и
▁со об
▁на ши
те лей
▁си ст
▁В ер
мер ,
л ение
ц е,
▁расс казы
▁д во
a n
▁ка пи
▁бу ма
▁четы ре
▁про шло
▁з вез
▁та й
ва р
▁суще ство
▁ро ди
ти лся
дер жа
▁е дин
вл ение
▁раз у
▁про с
ер к
▁уди ви
лет е
▁о тец
хо т
вы ,
▁со се
лен ы
▁по я
воз ь
ло сь,
▁со зна
▁м ной
▁то му
▁стра ш
▁не т.
▁ста ть
▁при ш
▁кра си
ству ет
▁кра й
▁пред по
▁не из
▁З ем
ни е,
▁об яза
▁до б
▁вс помни
к си
ч ем,
▁мед ленно
▁ t
▁други х
▁серд це
то чно
ни ков
▁на по
▁о фи
▁я р
▁та ким
▁во ск
▁ 9
▁сто ит
▁буду т
▁пред ставля
в ли
▁про тя
▁Во з
н ка
e n
▁расс каз
де шь
▁м г
▁с вер
с се
ла сь,
▁го ря
щ ем
▁п ят
▁за кон
ющи м
▁мне ,
тель ный
▁су дь
▁бро си
▁раз ли
н ки
▁со вет
ров ь
у .
ся .
▁после дни
ре е
▁на блю
▁ста нови
▁раз ви
▁сказа ть,
ство м
т ру
не е,
ро ят
▁за ви
го м
▁вну т
▁кро ме
ль та
аль ной
▁говори л
▁ну ж
г ал
▁не за
ло ж
▁со бо
▁пер вый
▁сдела ть
ча ет
e s
це в
▁то й
ко мы
▁небо ль
▁пред стави
ле ,
▁т ем,
▁по м
▁ре ш
▁Та м
▁ру ко
ния .
ри ть
▁ты ,
▁Ка р
в шей
o n
ё р
▁как -
▁сем ь
ри и
▁де во
▁д вери
▁спра ши
▁бо я
ции .
▁Х а
▁его .
▁по стоя
▁не ве
▁меня .
ш ка,
▁с ъ
▁Ф и
ко .
▁ка рти
▁мо гла
гра фи
к ля
▁даль ше
▁Мо ск
вши сь,
щ ение
▁2 0
▁до ба
▁исче з
▁Бо ль
▁сто л
ти .
ри я
▁Е ще
ни х
▁х ра
▁раз о
▁с ку
ни е.
ло ги
▁за щи
▁по сте
ство ,
▁Хо ро
ва ются
ле г
▁пре вра
▁ст ала
чув ство
▁Ни кола
лись .
▁п ти
ни це
ж ь
▁спе ци
▁ма р
▁ху до
ен я
ры .
▁Н ет
▁вы с
▁гла в
▁мол ча
рем енно
▁нель зя
▁Д ж
▁не му
ви н
▁ра нь
▁от прави
д ный
▁де л
▁Д же
▁з во
▁не ме
▁за втра
▁мг нов
ро ва
▁Алек са
гра м
на ми
аль ных
▁К ра
▁на ру
нов ь
б ря
же ли
го в
▁до бро
▁ха рак
ты м
▁со м
ь ез
▁любо вь
▁с ере
▁уви дел
▁ста ра
в ро
▁ка кая
▁бли з
тель но,
ли к
▁И ли
во ра
▁про це
пол ня
▁по па
▁пе с
ми ра
▁е два
▁ис кус
и х
жи ть
де ля
мот ря
▁раз ве
▁же л
▁П е
▁необходи мо
га я
▁па ра
де ся
пол не
ма три
▁С ей
▁каж до
▁1 5
▁каж ется,
▁может ,
▁случа й
же шь
▁ко ри
ем а
▁ ал
▁в низ
ро вать
▁прои зо
▁н ена
▁на шей
▁Т ут
ни цы
хо м
ет а
▁стоя л
то м,
▁мен е
▁ве чер
▁Алекса нд
▁пре ж
▁при з
▁мог ли
▁у стро
▁ни ми
▁про фе
ше д
ш ем
ц .
цо в
▁та кого
жд ен
▁С то
▁И м
си т
чи во
▁но га
щ ения
▁од ну
пра в
▁у до
▁ст ен
▁му зы
▁все й
▁муж чи
ла д
▁г ря
то ч
▁ок ру
▁кото ром
▁челове к,
▁м ень
ль но
▁от ра
й дет
▁о кон
зу льта
лась .
гу .
▁наза д
▁го лу
п лы
▁г ром
ене ра
ти й
ли т
ров .
▁ко ле
▁сторо ну
▁прекра с
ле д
▁ли тера
▁и дет
юще е
▁с мотри
▁мо его
▁у д
▁ис пы
▁с часть
п я
▁до сти
аль ный
ре .
▁сво ем
▁н ы
▁большо й
▁что б
▁случа е
▁Ко н
лет а
ж ении
▁о ши
част ли
ста ,
ро н
▁По э
дя т
▁сказа ть
ль зу
про чем,
▁ква рти
▁проти во
▁о пу
п ь
▁дела ть
▁с лы
i n
на х
л ё
▁госу дар
▁и д
ж ем
▁кре п
▁вы гля
▁вер ну
▁все -
▁согла си
▁та ких
▁поэ тому
… »
▁и сти
▁дере в
▁ф у
▁Ч у
д ной
▁ s
▁ка кое
▁ча сть
▁на и
ли я
▁мо е
▁те ло
▁не воз
ще е
▁при чи
ру ,
чи ,
сы ,
▁ла до
▁га з
▁голо во
е ди
▁с  
вы ми
▁Да же
▁за пи
▁други е
ри й
▁в новь
▁это му
▁се ку
▁за с
ль я
▁Сей час
ни л
ка м
▁по чувство
б ри
▁гру п
▁мину т
на че
▁рас ска
ко ва
ла я
ла н
▁х ле
▁нео жида
▁то вари
▁сдел ал
ч ная
ро м,
▁сол да
▁само й
ни ть
▁она ,
то в,
▁с хва
ни к,
▁по ста
▁та м,
х е
▁пла нет
лось .
▁зем лю
▁тем но
че й
жд ения
▁на род
за ть
▁Ч а
б ви
ти е
али .
ва йте
ного ,
▁Г у
ни .
ш ему
▁ .
при мер,
▁во сто
ни ем
ро в,
▁А .
ну ли
ня я
▁пра во
▁З десь
▁м ер
▁С т
п ли
да ет
▁Г е
▁самы й
г ло
▁по тре
н ци
ей .
▁ино гда
▁зн ал,
ность ю
ме я
до к
▁ск возь
▁ X
▁это ,
▁взя л
▁ки в
▁ча сти
▁бе зо
де ,
▁ф ран
▁пло хо
▁бе зу
▁у ч
▁само е
ри т
▁о стро
▁при д
▁произ нес
▁в ско
▁п си
▁1 2
▁пы та
▁сказал :
вно е
▁к ня
▁сторо ны
▁за клю
до м,
ан та
▁ре зульта
б ен
▁по ве
▁до вольно
▁го вор
ми н
в шая
▁та кая
ц ем
г ен
щи м
▁при бли
▁с му
▁о хо
ши н
ют .
▁вы шел
▁посмотре л
▁Ч ерез
▁ a
▁на писа
▁ка би
рем ен
▁свои ми
ался ,
▁м ерт
▁было ,
▁не бе
▁о коло
дно .
▁жи ть
▁ду ши
к ли
▁На до
ля ,
▁было .
ма х
▁у ча
▁по стави
т аль
ле .
ч ным
мы ш
▁потер я
▁по пыт
ри н
▁пожал у
▁ми мо
▁в полне
ре т
? »
▁за хо
▁по мни
▁лю бви
▁по се
▁у тра
▁но ги
▁э нер
чи к
▁ло ша
тель ной
▁В ла
ви ли
ных ,
▁подум ал
л ка
▁ис пу
не в
то н
▁К ро
▁проб лем
за н
▁ [
▁Т у
▁до м
но му
чи е
▁испо льзо
▁долж на
н ения
▁спроси ла
к т
▁п ры
фор ма
▁пра кти
ри к
ени й,
▁лег ко
▁за чем
▁пы т
чен ы
мен я
▁име ет
ть я
▁по и
ж у,
▁э лек
▁Ко нечно,
ро с
▁о жи
е -
▁ж ена
во бо
▁ка ким
▁из у
▁ c
▁в ста
ню ю
ло к
г нул
ю сь,
▁момен т
ст ,
ле й,
▁ d
те й
че ская
▁фи зи
зо р
▁бу к
▁си лы
тель ные
мо м
ле е
но м,
▁за нима
▁взгля д
▁у ст
▁у мер
че шь
▁вз дох
▁по шел
ц у,
ры х
та ми
▁на йти
▁дру гу
▁нач ала
п но
▁Ч ер
п ля
▁мя г
▁люде й,
▁когда -
▁к ли
▁коро т
ка ми,
▁д я
▁о р
p о
ну т
▁говори ть
▁м ере
▁сво ему
ни ю
пе чат
▁ш о
▁с ня
стви я
▁сю да
▁м ра
▁ж ур
сто м
ра бо
▁1 7
▁сер ьез
▁ре бя
ту а
▁сол н
▁которы м
▁Поэ тому
▁объ ясни
▁С лу
▁ ль
г ро
▁на пря
▁до ме
ха ,
▁в роде
че ра
те л
до м.
▁при мер
▁о пусти
▁явля ется
▁су м
▁пу сть
▁но р
ствен ный
▁нач аль
ту ю
э н
▁сто ль
д ко
▁го ду
▁поня л,
▁ли чно
▁н рави
▁с ни
▁ S
▁а б
▁рань ше
▁к лю
▁из обра
▁по ряд
сто в
▁з нал
ж ки
▁пу сты
во лю
▁где -
е вич
ра ми
ался .
н ему
жи м
▁С па
▁ск ло
ра х
от вет
▁го ре
б ре
▁на шего
ско му
▁в клю
▁образо м
▁ли ца
л ки
▁объ яс
▁то бой
▁каз алось,
сь .
▁живо т
со к
▁ду ше
▁по кры
Е Н
▁обна ружи
ф ер
▁у кра
ствен ной
▁за го
н ного
▁доста точно
к нов
▁фи гу
▁го лове
▁с частли
▁по за
▁го сти
▁д ене
▁во все
▁ко ли
▁о сторо
ша ,
▁ру кой
▁е ди
▁по го
ф он
▁ст ру
▁ “
▁Г ри
й о
▁з де
че ское
▁бо р
▁врем ен
▁х ри
щ ему
сле до
н ю,
▁оди но
▁Хоро шо
бы ,
та ть
и ть
▁вы з
▁ шел
ве й
▁ку ль
ня т
ех ал
▁ис клю
ство .
▁про з
ри о
▁ш та
▁т вер
▁се бя,
з ем
▁поло ви
сколь ку
та щи
▁со бы
▁го д
ма я
▁е е,
▁из мени
▁пло ща
▁мо ю
▁Ш а
▁смотре л
ал у
▁дру з
▁при ят
▁на й
вший ся
▁следу ет
▁зна чит,
▁поли ти
▁си дел
▁ви деть
. ,
▁про во
▁си м
o r
▁д вор
ка ть
▁ба н
вы .
▁ту да
ти н
▁По ка
▁по про
ру .
▁челове ка,
▁вто рой
лен а
вши м
▁от куда
▁види мо
▁ка че
▁по казы
с но,
▁женщи на
▁реши л
ш ка.
то м.
ня ,
ложи л
каз ал
аль ного
▁И ван
▁зна ю
▁Е му
ста в
то в.
▁За тем
▁по верх
дца ти
▁внут рен
▁фо то
▁ус лови
▁чув ству
▁у спо
▁боле з
на д
▁приш лось
▁глаза ,
▁и наче
че к
ени ю,
ж ные
▁ус лыш
▁вс по
▁о жида
ч ,
▁в до
▁ A
п ле
да я
тель ного
▁кру п
▁ко му
▁со хра
ди .
▁ком па
ги х
пи л
▁им я
▁О дин
▁мо з
▁ни з
га н
ти ли
с ё
▁за дум
▁Может ,
▁С ем
▁вопро с
ву т
▁от носи
▁раз ре
па н
▁г енера
си ть
▁хоте лось
▁ле ст
▁1 1
▁во спо
ле в
▁зна чи
ди ли
▁жизни .
ч .
с лен
ж ный
▁вы бра
чно е
д ки
цу .
▁Ко ро
▁сто лько
но в,
▁Ве ли
▁на ших
▁ме л
▁по каза
н ение
бо ро
▁ку р
▁В .
ж ной
▁П ред
▁мене е
▁ме сте
▁пра з
h e
ен ,
ц ь
▁со ответ
▁вы ше
жа й
▁к ровь
▁а п
▁С ло
▁пе ч
во ,
▁пред ста
▁пле ча
▁по ля
▁чет вер
▁Т ем
ти те
со н
▁потому ,
▁си ла
то е
▁и бо
ни к.
б ь
▁Г ер
ло со
по р
▁Пу сть
▁не р
▁Ми ха
▁про да
▁Это т
ма на
▁тре х
a r
че го,
▁у тро
▁з и
▁Со л
▁2 00
▁воз ник
▁кра со
▁Ф ран
▁врем я,
▁И ,
▁два дцать
не й,
с ной
де .
▁продол жал
▁вме сто
к ру
си бо
▁мои х
▁тре ть
▁пере да
лы м
▁ба бу
ши л
б но
▁за стави
▁де я
▁деся ть
▁глу би
▁хозя й
▁бе ло
▁но во
п али
▁дви ж
▁жизни ,
кла ды
▁к руг
▁о ружи
▁орга ни
рем я
ходи л
ти ла
ва я,
▁М еня
ш ке
мы ,
▁из да
▁За чем
но ми
к ет
▁од ном
▁силь но
▁весь ма
т ка
ста н
▁при ро
▁о гра
ч но,
ма ти
га ть
мо в
▁удо воль
▁от да
▁ 0
це й
вал .
▁воз ь
▁ …
лю би
▁по ги
до ви
к та
▁сто и
тель ных
▁па ру
▁Х ри
▁ми лли
чи .
▁х ло
▁од ним
▁Е е
▁при шел
▁ге ро
ени й.
х ло
▁лю дя
ш ки,
д ала
ха ть
ч ную
▁П рав
▁голо вой
▁Не у
▁пи с
▁уд алось
▁во ен
ле й.
▁ m
то ра
▁се бе,
▁Что бы
▁Д ру
▁о су
▁при нима
ро м.
зи л
ну лись
▁энер ги
▁Ж и
ч ка,
ра ль
▁она .
▁уби й
▁сказал ,
…  —
▁ан гли
▁1 6
ха .
ходя т
▁от вер
ер у
▁На конец
▁С те
▁не де
▁подо з
▁ M
▁во до
▁у сили
▁бу ты
к нула
▁С ка
ты ми
▁хо чет
н ется
▁кори до
пу ска
▁пре ду
дь ,
нулся ,
тельно е
ст ри
▁невоз можно
ж ных
▁ника к
лу ю
нулся .
▁дале ко
▁Че лове
над ле
п ала
▁в пер
ш ал
▁про стран
т ря
ч ки,
бу р
▁т вор
▁по ки
▁воз ле
▁кро ва
▁уви де
аль ное
т ала
▁но ,
▁Э ти
▁глаза .
▁Ч и
г ры
но м.
▁д ли
▁ку х
▁фран цу
▁под нима
▁заме ча
▁ка кую
к с
▁ва жно
оло ги
чески м
▁ве щи
г ер
▁ф анта
▁день ги
▁нео бы
▁за м
▁буд ем
▁тру дно
▁Ни чего
▁х во
▁ут вер
▁И х
ца ми
нь я
▁не зна
▁от чая
▁замет ил
▁кото ро
говори л
ши ть
д ка
▁гля дя
▁оказ ался
▁при надле
▁со про
▁ж ало
▁тре бо
во л
▁соб ственно
▁му жи
ви д
▁бо ро
б лен
▁холо д
▁Но ,
▁при гла
сы .
▁ма ма
лу ,
га ет
▁ин форма
▁ C
н али
ю щая
ву ,
▁та н
▁та ко
тель ным
ж ало
ры м
пи ть
хо да
▁по проси
▁С .
ж енно
▁кон чи
I I
ена ,
i s
▁19 4
▁те пло
н та
▁хо л
▁по зна
▁По тому
▁дру га
▁зна ет
▁по ез
▁по ку
с л
ля .
ч ке
▁де вя
▁зна комы
▁со ци
▁О чень
э й
▁слу ша
▁се кре
o u
▁Зна чит,
▁не го,
▁глаза ми
▁ли ,
х нул
▁вы ,
за .
вя з
a t
▁у ро
жд ение
Е Р
р д
▁нена ви
▁с верх
▁Раз ве
▁по рт
ти т
▁Ма ри
▁на ми
ал ы
▁на пример,
▁ти ши
ки й,
па ра
▁последни й
жа ет
▁до га
▁ма ть
▁ис к
▁с чит
▁дви га
ко и
О В
вер я
нии ,
ча ется
е л
▁на ше
▁бо е
▁т ю
▁тру б
на вли
ка р
С Т
▁обы чно
▁по ним
жа я
▁Б и
▁смер ти
▁ми стер
ми р
▁О ,
йте ,
ный .
▁ма га
▁до бра
▁ма с
▁вет ер
▁В прочем,
▁по дума
▁е сте
ни н
▁Е сть
чи й
▁ми ло
▁по ле
н ное
▁те бя,
▁зде сь,
▁пре ступ
в шую
обра з
▁дум ал
▁К ри
мери кан
ъ ,
▁об у
▁бы ,
▁подня л
г на
▁у ров
ки н
п ен
▁ко нечно
ст .
▁С вет
▁неожида нно
▁д ал
▁ча са
ему ,
▁мыс ль
▁в ъ
▁чем -
▁т вой
▁ста н
▁бу р
▁вне ш
▁самы м
▁Д жо
▁обра з
пра вля
▁Б ез
б ере
▁т ет
▁ре бен
▁оши б
▁тре бу
▁благо да
н ная
▁рука х
мы й
щ ал
▁хо ч
▁под ро
си ль
сть ю,
ень ,
вора чи
▁за кри
▁из о
▁А ль
с ер
б ля
▁То л
го й
э р
▁осторо жно
▁ра н
▁тре во
та й
▁о гля
▁з доро
ба ,
▁ст ены
▁вы зы
▁при сут
▁ко е-
на дцать
▁ж ерт
ка ми.
▁на сто
▁мет ал
▁вну три
▁по в
тель ства
д ри
▁поло жи
▁пу те
▁самы х
▁пу ти
▁1 4
ва ет,
▁ч ере
▁сна чала
▁Хо тя
▁Б ра
ал я
г али
▁си туа
о на
▁пос лу
сть я
ня ть
▁сто ли
▁чи сто
▁С ле
▁да ,
се л
▁с ре
▁па м
би л
▁окон ча
▁дума ю,
▁рабо ты
▁моло до
▁по стро
д ался
о ру
▁Про сто
▁позво ля
▁ва ми
▁Г ор
▁па рти
вед ения
▁н али
▁вне за
▁же лез
▁Т ри
же .
▁си х
цы .
шо й
▁интере с
▁ар ми
▁какие -
▁г ри
▁в за
▁ ў
▁Б ер
б ло
▁сле г
т вер
▁т .
▁подо шел
▁т ря
▁До л
▁мо на
▁успе л
▁слу ж
▁на прави
▁ста ру
ш ения
▁дер жа
▁лю блю
l e
ны ми,
▁раз ,
▁мага зи
ско в
▁глаза х
▁ча с
е дин
ра зу
▁об ер
▁ос ве
те лем
н ным
не е.
вшие ся
▁друго го
▁к ем
▁По л
▁Бо г
▁д ней
ствен ного
▁ого нь
▁1 3
▁Ва м
до ров
▁рука ми
▁ф е
▁сол нце
▁мину ту
r e
▁от дель
нов .
▁во ды
▁разго вор
▁во сем
▁до ж
▁ды ха
т ный
т ной
ля р
▁во т,
на м
▁ско рее
▁то ро
па д
▁секу н
▁мень ше
i t
▁хо чешь
▁ста нет
т ю
сти ту
▁пись мо
ни ка,
▁б ал
▁по скольку
▁пя ти
▁па мя
л ер
ва ется,
▁дре в
▁ид ти
▁уни что
▁те чение
мо е
х ну
▁у ва
ди ла
p а
▁ „
▁пу ть
▁ P
▁на стро
та р
▁не да
▁Мо жно
▁сви дет
я вля
▁об а
д але
те сь
ду ш
▁о зна
▁ужа с
А Н
▁3 0
▁па па
му ю
▁раз ме
шь .
че скую
▁люди ,
▁одна ко
ра м
лу .
▁слег ка
мен а
▁в ст
▁ча сов
▁под ъ
▁те х,
▁ст ы
ц ер
▁у ходи
▁моло дой
▁фи лосо
▁Алек се
▁возду х
▁голо ва
▁ше сть
ры в
▁рас кры
▁неиз вест
▁ос вобо
стви и
▁Го ло
А .
да м
ш ение
мо н
▁т ран
лет и
ри ,
▁про води
▁навер ное,
▁ре чь
бы .
▁Ко р
▁сте п
▁те к
▁п ала
▁Э та
ша .
▁мно же
▁пер во
▁не ви
▁е е.
▁де в
▁сов ремен
▁о ко
▁ко ст
▁ца р
▁з али
▁зем ля
▁пре да
▁п ет
же й
▁литера ту
▁моло ды
▁Вла ди
д ень
▁в печат
▁о пера
▁смер ть
▁в чера
▁ус ме
рь ,
▁о казы
тель ство
▁сооб щи
рая сь
▁возвра ща
ме й
ды ха
▁и х,
ни ком
ре л
жи ,
ин тере
▁ника ких
н енно
▁п ья
п ет
▁всем и
бе ль
▁ми ро
▁пу бли
раз до
▁мо ря
▁бы вает
▁Т ре
▁воск ли
ен ный
▁ва ш
▁наконец ,
▁ве ри
▁произо шло
▁ц ве
▁ка кого
деся т
▁раз но
▁за то
к али
▁Ф а
▁мно гие
вших ся
б ,
▁ й
▁себя .
▁ни кого
▁ч ему
лем ен
▁По с
▁то му,
▁бо л
нул .
▁бе ско
ву .
▁поя вля
▁бе д
▁кон ца
аль ная
▁ко нец
▁це ло
не й.
ня .
▁А х,
▁ V
▁каби нет
▁кро ви
▁К ла
▁рез ко
▁до рого
▁ду ра
▁профе ссо
▁непри ят
тель ,
▁про грам
▁бо й
▁С вя
▁М .
▁пу сто
ем ся
▁им ени
▁да ть
▁к лу
▁ко ль
▁бо рь
ро вич
▁по лез
▁ми ра
ро вал
▁ли це
ж ка
ста .
то ри
▁ве роят
▁худо ж
О Р
шь ся
▁про ше
ф фе
И Н
нии .
! "
▁ме ха
кло ни
▁газ ет
▁ж ал
▁прид ется
▁О ста
▁свет е
де лен
▁С тра
▁самы е
▁Мо й
▁бе сс
▁пре до
пи сы
ше к
▁мал ы
▁я щи
ли ть
д ленно
▁г не
▁о по
▁та кую
тель ная
▁И с
▁ T
ста я
ди на
▁по це
▁те а
▁ми ни
▁опа сно
▁я сно
лы ,
▁ж ени
▁тяже ло
▁дет и
▁Ра с
▁пе рио
▁вас ,
▁тыся ч
▁На вер
▁по во
▁ре а
нов ременно
▁коман ди
▁мо щ
▁по вери
ешь ?
сы па
▁день ,
т р
▁при бы
се да
▁ка са
▁вы ходи
▁з ерк
▁ост алось
▁вз ять
▁внима ние
ство вать
▁ка ких
ли ги
ла г
р ения
▁В з
шь ?
▁уди вл
ти ться
▁него .
но ся
▁за по
▁сосе д
▁стре ми
▁про па
▁вер нулся
▁ника кого
▁лет ,
▁ру ки,
▁при нци
▁уви деть
▁одна жды
▁а мерикан
▁об стоя
мо р
ди я
▁на про
▁улы ба
сты е
▁с чет
▁говори т,
обра зи
в но,
▁зе лены
▁бра т
жу .
ня л
▁горо да
со м,
▁насто лько
▁разго вари
▁П ла
ре с
▁вы да
▁раз би
л ень
▁повто ря
ци й
▁обра ща
л ле
▁ду хов
▁нас ,
▁з да
▁но вый
▁Ч его
▁но г
▁ B
▁сер дца
▁ему ,
▁ми ре
▁за вер
▁Во л
▁спокой но
тя ну
за ,
▁путе ше
▁не сколь
▁Са м
ни ка.
ц вет
со лю
ни ку
та х
ду мы
▁по со
▁до мой
▁ле жа
▁вс пы
▁помо чь
▁сто ло
▁та ком
мы е
▁У же
▁гра жда
д ж
▁пла ть
ме ,
▁на ша
мо го
▁эк спе
ну ю,
▁Б ар
▁за ра
▁харак тер
тя ги
▁го раздо
со в,
чи ты
▁за хва
ствен ных
ю щую
н ала
ко ми
в шее
▁неме ц
▁бу дешь
▁за пла
▁сы н
▁Г ен
▁свя за
▁ме ль
▁приго то
й !
▁из мен
▁рас про
▁стоя ла
▁ответи ла
▁под твер
▁те о
▁не что
▁сла бо
р э
▁постоя нно
ни т
▁может е
▁ра ст
о з
ри ца
▁францу з
н ную
ли л
▁деву шка
▁возможно сть
▁раз ру
ль ный
▁кар то
▁ру б
ж ку
▁англи й
нь е
до р
▁ско ль
п ры
▁ку ла
▁нор м
▁есть ,
▁под го
▁но вые
вали ,
ре ц
▁про сти
▁зна чит
▁случи лось
▁у каза
че ства
▁сп ря
кто ра
▁ва ши
сты й
жи й
ступи л
ша ет
ди м
на н
енно м
▁помощ ью
. )
▁станови тся
▁па ро
▁Ку да
▁го ды
▁а  
▁ре волю
▁се л
▁какое -
▁я ви
ри ан
▁В д
ме ется,
су ,
▁ n
▁си я
к ров
с пи
▁со р
ющи ми
▁им еть
▁И  
бо ра
▁по ру
▁про ду
▁со с
▁не ё
▁от сут
▁ №
мо би
▁хозя и
▁у мира
▁по н
▁пер вого
▁говор ю
ф у
▁пред мет
й т
л ла
ше б
▁недо ста
▁Дж он
▁зна ет,
▁оче ре
▁ D
к -
▁и ю
▁зем ле
▁на зна
▁Ско лько
▁Ка кой
▁пле чо
да ми
ало ,
н ю.
▁же сто
▁пси хо
▁пос пе
п ру
▁у че
▁чу де
▁Р ы
p и
▁за га
▁Ф о
сть ю.
мы .
▁2 5
▁ста ро
вно м
▁уста нов
▁истори и
▁по са
▁рас су
ча ,
▁ва ше
▁ме ди
▁за во
▁Ж ен
в лек
▁ни м,
▁па у
▁ба р
д ные
ени ем,
▁мне .
до в,
▁ба ш
▁С его
▁ви ду
ло жен
▁по пу
ло т
▁некото рые
▁пол но
▁пере жи
▁ули це
п енно
▁спа с
▁у част
▁це ль
▁про си
▁жи вет
та м
▁Ш е
ми ли
▁То т
0  
▁ве з
▁Ма й
▁В сё
▁19 9
▁голову ,
▁ру ба
пе й
я м
▁за ка
▁ре лиги
аль ным
▁до сто
ложи ть
▁по е
со м.
▁мог ло
чо к
▁от сю
н ку
ри ла
ал ен
▁ро дите
не сти
би ть
▁в ку
▁друз ья
▁ме то
▁Сего дня
то ,
я сь,
▁вос пи
▁на шел
▁до ку
▁пос ы
ка я,
▁Г ар
▁Кро ме
чи ла
▁П ра
▁свя зи
▁вы стре
▁дет ей
но к,
▁ле с
▁ •
▁мо жешь
ного .
▁ск ри
ски ми
▁дея тельно
▁кри кнул
▁Мо ло
▁п лен
▁я вно
об ре
▁откры л
ш ень
пис ал
▁ус лы
ва емы
ль ной
▁каждо го
▁С на
е в,
ни цу
▁глу по
стра и
г ей
▁наза д,
▁оста ви
▁больше ,
▁су ме
▁е в
▁м н
б .
сси с
▁ b
вле ка
пу ск
▁си лу
ственно е
▁ ...
▁С ла
▁Анд ре
▁о пы
▁Неу жели
лы ми
▁впере д
▁19 1
▁пол ностью
▁зна ешь,
г е,
но с
лю ,
▁Росси и
▁д ни
▁под ру
▁получи л
▁вос при
▁за ку
н ди
ба .
▁На м
▁госпо дин
▁на пи
▁си л
▁лю дь
вался ,
▁лю бой
▁стоя ли
▁ Й
▁ле жал
▁ча й
▁дома ,
▁вер х
▁капи та
мен т
▁ w
ена .
су .
вани ем
▁ ля
▁прав да
▁с ц
▁по на
▁П ар
▁мно гих
▁тор же
н ё
▁ l
▁По з
в ной
▁ради о
▁Ива нови
▁ва ж
▁с ва
ствен ным
ч ка.
ди ви
пе л
▁раз ум
я ми
ма с
▁пер вой
ен ные
▁те бе,
ку ра
вы х,
▁од новременно
▁лет .
▁З о
зы ,
на дца
▁пожалу й
▁об щ
▁челове к.
со в.
▁высо ко
▁ка за
▁суще ству
▁любо пыт
▁преду пре
ж ением
▁о ско
ко р
▁мы ш
▁со держа
▁в лия
п ,
ешь ся
▁со ве
▁ин стру
▁у доб
че ском
▁В то
▁Д ва
▁стра да
▁сту п
▁раз дра
▁ро ман
a l
▁ве чно
А Р
▁уг ро
▁Вд руг
ствен ные
▁Те бе
▁Н .
▁при нес
та ет
▁за яви
ти лась
▁нес част
▁вы р
▁име л
▁ш ля
▁мо ре
ста ти,
▁но ж
▁с ен
▁про кля
▁хоте ла
▁ N
▁Воз можно
▁удоволь стви
вала ,
▁окру жа
▁друго м
▁к  
▁го тов
ш ёл
▁ко ми
▁по жи
▁помощ ь
▁Ш у
▁послед ние
чи ли
мет и
▁ос нов
▁элек тро
ко номи
▁проис ходит
▁гря з
л ку
▁Ва сили
▁сти хи
интере со
▁ост ался
ски ,
▁за пре
▁Со вет
▁оста вля
но -
▁ночь ю
▁то т,
▁не й,
▁Прав да,
ко ле
▁ны не
▁что ?
▁ни м.
▁до чь
▁которо му
▁сло в
▁голово й.
▁Им енно
ду ю
▁аб солю
▁со ставля
мы м
▁ве ще
ко во
▁край ней
че ,
▁Ни кто
▁ни х,
▁Х у
▁встре ча
▁какая -
жа ,
▁ h
ч ался
▁Ч ем
▁за мер
ски й,
▁И та
▁Спа сибо
ш ет
▁ве с
▁опа с
н ном
т вор
▁з ал
сти ть
вл ении
▁Г и
▁времени ,
▁рабо ту
▁И .
С С
▁поня л
ста нов
▁Та к,
▁Па в
▁ли ш
жи н
▁в верх
ч ки.
ши ми
▁воспо мина
▁Что -
▁с ро
▁рас па
] .
▁ма стер
▁хри сти
▁гру дь
▁б ри
ная .
▁на се
▁э ффе
▁ла м
ало .
▁раз ных
▁восем ь
▁об ре
ви ни
▁смотре ть
▁И но
▁по ми
▁нес мотря
▁почему -
▁за д
▁обо ро
▁бе се
▁ f
би ли
▁ш ут
▁на в
▁Да .
▁ви нова
▁мо ро
▁ок на
▁зна мени
▁Г ра
во с
ер ков
▁впер вые
▁г ар
▁не пре
▁преж нему
▁о в
зо в
▁Бы ло
▁ш ту
▁ко лен
▁со жал
▁тво и
▁испы ты
▁смотри т
▁г ер
ни зу
е й,
▁вс ему
▁ста рый
▁у хо
▁муж чина
ш ки.
▁жи ли
▁жизнь ,
▁Сер ге
▁ш ум
з да
▁дере вя
с ни
ве ,
▁Пере д
▁убе ди
вы й,
▁фи ль
О Л
▁ки ло
▁ф ра
▁о чи
▁так .
з ,
▁ви дела
▁проис ходи
▁зна ю.
▁ра стер
▁авто моби
▁куда -
▁по гру
▁сем ей
▁отнош ения
п .
▁ю но
▁в стал
▁от ца
▁с пусти
▁жизнь .
▁боль шин
▁он . —
▁Е в
ч ку,
▁са ха
ч он
▁куль ту
▁смо жет
▁поги б
чу ,
▁вы пи
дов лет
▁о писа
ти лись
▁вдо ль
▁це ли
ка х,
i c
мо к
сту ю
▁мо им
▁По й
▁вс лед
▁при вет
▁ан ти
▁т ь
д ного
лю .
▁об ма
▁те ла
▁женщи ны
▁про чи
▁си га
▁за бра
ех али
▁комна те
га ми
▁ш ка
▁други м
▁пон рави
▁случа е,
▁то бо
▁возможно ,
▁19 3
▁слова ,
▁у вели
▁внима тельно
▁за б
жи е
▁ро зо
▁не про
ш кой
▁т ени
▁нач али
мот ал
▁за му
▁На д
ну ться
▁гром ко
▁Я ,
ни ков,
▁дела ет
▁дву мя
чу .
▁у чены
▁ут ром
в ена
▁фо на
▁кос мо
▁О тец
▁цвет а
▁мо жем
▁я ро
▁фото графи
▁Е вро
▁С ан
▁хорошо ,
▁ш ли
п ят
▁ме ло
▁до каза
▁при по
▁б рю
▁б ла
▁И о
▁кры ль
ре в
▁Бо ри
▁дело ,
▁зем ли
▁оче ред
з ер
ё н
▁все го,
пи сь
▁ка ра
за ции
▁себе .
▁находи тся
▁ше п
▁ o
▁люде й.
все гда
▁свя щен
а ти
▁М э
▁С ы
▁у то
щи ми
ственно ,
ма р
▁все .
▁Т ру
▁помо щи
▁по лага
▁за ним
▁по говори
щ ет
▁прав да,
д ных
бе жал
▁и гру
▁ду ша
во .
▁челове ка.
▁кон тро
▁но вого
▁следу ющий
▁су хо
▁по ви
▁ж ,
▁жи л
▁бу дь
▁М ал
во й,
▁о х
г лу
ж ался
▁ва шей
слу ша
нь ,
▁ду шу
▁че ст
▁комна ту
▁вол шеб
▁по льзу
▁жа р
▁кост ю
на ч
ы й
▁Лу ч
▁З и
▁не вы
! !
▁вско ре
▁ни кому
▁ка мен
▁обяза тельно
▁са по
ши ,
▁наи бо
▁теле фон
▁а т
▁су б
т ные
го .
▁Ду ма
▁ра за
▁проше п
▁ком п
д жа
п лен
ны ми.
▁Д об
ч ал,
▁нас ла
▁по вы
▁у па
▁О но
▁вы хо
▁тер я
▁профе сси
▁кри ти
▁И ль
▁г ал
бо м
▁о ка
чи слен
▁с да
▁при кры
сто ит
ры з
ря до
▁голо сом
▁Л ени
ень е
до вал
жен ный
▁тра ди
▁ка ком
▁об ли
▁Ни ка
ваться .
кти вно
▁ли ?
▁1 00
к ту
▁воскли кнул
▁воло сы
ти м
▁раз вер
▁уни вер
▁друго е
▁при шла
▁ру ку,
ч кой
ем е
▁не в
▁стро и
▁малень кий
ло н
▁при каз
ни й,
г нал
▁пи сто
▁ L
бу ,
▁бо м
▁голо вы
▁19 2
▁ба ра
▁гу ба
▁смо г
▁бро сил
▁ду р
ме ча
▁за ве
ди и
ч ением
▁к лет
▁смы сле
a s
ру ет
▁раз ные
сте й,
▁кни ги
▁дере вь
▁д вер
▁рас се
▁ви дно,
▁кого -
жи те
▁у те
▁вой ны
ну вшись
▁Б лаго
▁С по
▁Во ло
чен ный
▁опре дел
▁из ба
▁п лем
са ми
▁го ри
ен ных
▁от ту
в ка
▁во н
▁наза д.
▁лицо м
▁дверь .
▁испо льзу
с ке
▁по зи
▁обра тно
▁з але
▁ну жен
▁пыт ался
▁прекра сно
ц ени
▁Мо л
▁несколь ких
e l
▁вся кий
па р
мен та
▁но чи
ви зи
▁Анд рей
▁ро ма
▁уг лу
ри .
▁мо ги
▁поня ть,
▁расс матри
▁Ка жды
в ный
ствен ная
ци ей
▁д емо
си мо
▁обе спе
в ки
▁С мотри
▁ч рез
▁ру к
▁при ли
▁во шел
0 -
▁кол ени
чи тельно
o m
▁по шли
▁Ш и
ди й
▁Ита к,
▁Н ет.
з .
ме .
ни ки,
д ю
▁огра ни
▁каче стве
▁ап пара
▁оста навли
▁за ставля
тель ную
▁вы го
▁во обра
бе з
▁тру дом
▁Пу шки
▁Одна жды
▁э кономи
▁прави ль
ро ди
▁за й
▁Пет ер
чно м
▁мо лит
▁пред при
ра л
▁на мер
б ран
ерк ви
но к.
▁и г
▁посте пенно
▁а в
▁тво я
▁зна ть
▁сме я
▁по б
▁и ди
▁от каз
д ку
▁осо бо
▁объ я
▁внеза пно
▁начина ет
▁другу ю
▁под ви
▁протя нул
▁ру ки.
▁по о
▁по кой
▁люби л
▁противо по
но сти,
▁разго во
пол з
▁праз дни
▁ни что
▁О с
▁говоря т
▁во и
к ала
▁ж у
▁в я
▁в ере
▁при я
▁увер енно
▁19 6
▁х ру
▁Ко м
па ,
ч енно
▁воз бу
e t
▁Ино гда
▁какую -
▁обы кнов
▁ди ре
▁о ке
▁исто ч
▁А  
води т
ешь .
йте сь
▁по льзо
▁при ве
▁в зо
▁неме дленно
▁к ле
ч ы
▁О р
го ль
▁ва м,
▁А ли
▁вы ну
▁сторо ны,
▁ст рого
▁безо па
▁па д
▁до ктор
▁Ка ж
▁весе ло
▁вы дер
▁орга низ
во к
▁т . 
▁тогда ,
слу жи
А Т
▁уч ени
▁По жал
к ер
жи ма
▁я й
ж ным
ко ль
▁обра т
▁спо со
▁ви жу
мы х
▁На де
к тив
це в,
зи ден
цо в,
▁не й.
▁ро т
ро ни
▁до го
ще ,
▁каж дой
о боро
ко вой
али з
вед ливо
▁зе ле
▁Е й
ри на
▁коли чество
▁Ж е
ла :
▁из го
р ени
▁чего -
▁образо м,
▁воз му
Е Л
▁глубо ко
▁Г ре
▁но вой
дра в
▁но мер
ви ча
▁говори ли
тру дни
▁само му
▁вы шла
га х
ж ,
▁на ве
▁к ло
▁рас стоя
сты м
▁а та
зи ть
▁вы тащи
▁дома .
ш ку,
ство вал
о ни
▁они ,
▁у ма
▁из бе
▁совер шен
ность ,
▁ма сло
ен .
▁т ала
▁от дал
алась .
▁напо мина
▁упра вля
о те
▁подня лся
▁у довлет
▁хоч ется
▁о за
▁са ди
▁съ е
Е Т
▁за гля
▁деся ти
▁Ка кая
▁по тря
▁э по
▁т е,
аль ную
▁полу ча
О Н
▁до бы
▁э лемен
▁произ вед
▁по сту
▁зна ть,
чал .
▁мгнов ение
▁сом н
▁Кажды й
▁Сер гей
o t
▁Ме жду
▁А л
▁закон чи
u s
т ных
▁пар ень
▁од ни
▁се к
▁Лю бо
▁со ста
▁оказ алась
▁осно ва
н г
ща ет
▁вече ром
▁ни чего,
по в
▁ма ги
ле л
▁опре делен
▁ Щ
ваться ,
тель .
▁говорит :
й ся
▁е з
▁по тя
▁чув ства
▁сту ден
с не
▁ш то
в ку
▁Сна чала
вы м,
ну л,
▁услыш ал
ст в,
▁по вед
ен ной
по й
» , —
▁бро са
▁нау чи
па ть
да н
▁дверь ,
теля ,
▁В ме
не сли
▁врем ена
▁дум ал,
▁Де ву
▁ру ку.
ля ть
▁ста ка
▁оче ви
ч ными
▁на чин
▁ /
▁тот час
р ка
ци ю,
▁пере ме
▁Д ей
▁вос хи
p е
▁и мен
ались .
▁чу дови
▁бле стя
▁мы ,
▁при ез
▁степ ени
ши т
▁ин тер
▁зна ете,
▁Ан то
▁им пера
▁ F
▁ск ла
ль е
ко с
▁уви дела
г ала
ги н
▁усме х
▁Ра сс
д ное
▁на ходя
ении ,
▁уча сти
▁лет а
цо м
▁на шу
▁жи в
▁широ ко
▁о каза
▁восто р
▁Слу ша
▁чу жо
▁Жен щи
▁Ла дно,
стве ,
▁стра шно
▁не жно
вани я,
▁О ст
бу .
ен т
▁п лю
▁нач ало
▁которы ми
сле дова
▁Пожал у
▁о ру
▁во ду
▁Александ р
▁дело .
в ным
▁за т
то к,
рь .
▁во да
▁про ш
▁ст ена
пе ль
▁за сты
▁но си
▁взгля дом
▁кив нул
▁Па ри
▁каким -
вая сь,
▁я с
то й,
▁я бло
▁т ща
▁на всегда
▁хо тите
▁го да.
га р
▁на чи
вши ми
▁Ви ди
▁ро бо
▁сле д
же ла
▁появи лся
▁гру ди
▁вы полня
▁раз мыш
▁О п
▁о ри
▁Ц е
ци я,
до в.
▁об су
▁це лый
▁у шел
▁не чего
до би
ща ть
▁теперь ,
це пи
▁ R
▁неда вно
д ная
▁бли жай
дем и
л лю
▁про ник
▁доро ге
▁ка та
▁повер нулся
▁непо дви
▁дви жения
▁На та
▁Челове к
▁беспо кой
вшего ся
▁про ходи
▁до би
▁спи ной
▁по шла
▁в вер
то .
▁возвра щ
▁бы стре
▁три дцать
ь ,
н ке
ма т
▁н у,
▁ни ж
ные .
лу ч
зы .
ти и
ски .
▁фанта сти
▁ду ш
▁при слу
▁ре д
пусти л
▁осу ще
▁И го
▁то .
▁кар ма
▁об лег
▁ре да
ж ного
му ще
▁Ра зу
▁дене г
▁Му ж
▁2 1
▁со н
▁Лю ди
▁уда р
▁офи ци
▁сер ди
ч ку.
▁ш ла
▁ва шего
▁Ва силь
▁объ яви
▁свет и
▁улыб нулся
▁некото рое
▁Д он
▁гор до
▁ар хи
▁э кра
▁есть .
▁получи ть
▁поло жил
▁си дя
▁наблю да
▁на ста
сты х
▁вы во
ба ты
емо й
▁по р,
▁про бор
ва ем
вания .
▁Г ро
хи ,
▁на ме
▁сист емы
▁тво ей
р ё
▁виде л,
▁пото м,
▁слыш ал
▁Возможно ,
▁свидет ель
▁до ми
до н
лы .
е в.
ст ала
▁пол ков
▁Де ло
зо н
ско го,
▁их .
▁ку п
▁пра ва
▁но вых
▁какого -
▁пере ста
▁не и
ных .
▁из ум
ти к
▁б ре
пе ча
▁ми г
вшей ся
▁работа ть
▁о прав
▁наибо лее
▁уз нал
ци ю.
▁В ся
▁2 2
▁креп ко
▁ника кой
ко ви
▁тех ни
▁д ете
ня ка
▁от вра
▁ро да
ются ,
ти ло
▁Го вори
▁теле фо
▁извест но,
▁у  
▁п ля
▁по п
▁у пал
▁Бо га
▁ру ке
▁пис ал
хва тил
▁Ма к
ти я,
▁Т ро
▁капи тан
▁во р
щ ер
▁ком му
▁сме ш
▁с .
▁ша г
▁кон цов
▁Гла ва
▁ла ско
▁мо ем
▁у йти
▁о пыт
▁язы к
▁ аль
д ли
▁ри су
▁врем я.
▁ми ли
▁увиде л,
▁ц ерков
▁поня т
▁пыта ясь
▁д вена
▁сопро во
ви т
▁ис кать
▁о хра
пы ,
▁говоря ,
е ва
ем он
▁боль шим
лете л
сла в
▁ко т
ски й.
чно .
стави ть
п ку
п ливо
вь те
▁и ми
▁К ре
л ал
чески ми
▁дума ть
бы е
▁ска жет
▁от ре
▁Хо л
▁поня ть
▁времен ем
▁По до
п еть
▁ле йт
▁на цион
ли п
▁даль ней
▁рас ши
▁возможно сти
▁ди а
стей .
▁Со в
▁во сь
▁объ ек
▁сом не
▁распо ря
т ало
▁О ль
▁С ере
аль ,
▁у казы
▁нав стре
▁оказ алось
▁ци вили
▁голову .
▁Никола й
▁бра ть
▁горо де
▁под с
▁та ин
ми три
▁тыся чи
▁сама я
▁У ж
▁бо же
▁день .
▁жи ву
ка !
▁Ма ма
▁Дже й
▁з доров
▁наш ем
▁ис следо
▁то по
ска ть
бо в
И К
хот вор
▁сол неч
▁От куда
▁на х
г е.
▁сере ди
▁взгля нул
▁про шел
▁ло ги
▁раз да
▁на ре
▁пред ложил
▁Б ро
▁воз мо
▁ G
▁боль шую
▁я го
▁кор пу
▁благода ря
▁элек три
▁ис полни
▁t he
▁пос вя
▁товари щ
▁ве сти
вает .
чен ные
▁бо г
▁лейт ена
▁состоя нии
▁раз .
▁ва риан
▁си дела
▁христи ан
га нт
▁м лад
▁по  
▁кра са
ца м
чет а
▁1 .
ва й,
к ции
▁Г ру
▁бере гу
▁гу бы
▁о зе
▁будет е
▁милли о
▁место ,
▁произ вод
о до
▁пос мотри
▁ф он
▁ E
▁эти ми
▁вос ста
▁зас мея
▁во ору
▁понима ю,
▁вс кри
▁ско р
▁Ан на
▁растер я
ве .
▁Ж из
▁одно му
ением .
▁го рь
▁досто ин
▁пер вым
▁Мо р
теля .
▁у стави
▁от дел
▁си дит
▁ш ер
▁кило мет
▁Навер ное,
▁пла сти
ло жение
▁ча ще
▁одна ко,
▁тю рь
▁ми ссис
▁б лю
▁по жа
▁да ет
▁опре дели
мо с
вали .
▁а рти
▁Т во
чи в
▁доро гу
▁19 7
▁домо й,
? "
▁тебя .
▁боль шие
▁за ба
▁ва ша
▁ан ге
п ки
▁к е
▁ду х
▁пре вос
▁впере д,
▁нач але
▁чер т
ш та
▁за мол
▁си дели
емы й
щи к
▁ле жит
▁каз алось
▁говори ла
▁вла сти
▁ре дко
аль ном
▁оде я
▁пожалу й,
ли лся
▁вер ши
▁19 8
▁это .
▁М альчи
▁вы ясни
▁успо кои
дни й
д ник
▁приня лся
зи и
ни ла
▁му д
▁де ви
▁при шли
▁оказ ались
г ром
▁про гу
▁д ья
ре до
▁Бо же
ющих ся
▁под чи
▁Не кото
ни ли
▁что  
▁мест е,
▁Р я
▁ро ль
▁за о
▁пер вые
жа .
▁лицо ,
ж ение,
са х
▁ин ститу
▁по ступ
▁А в
▁посмотре ла
▁мед ве
кро ви
▁говори л,
▁Миха й
▁2 .
▁мо ему
ри со
▁маши ны
▁приходи лось
та ния
да х
▁под ним
▁позна коми
▁19 5
▁ра ду
▁твер до
▁пер вую
▁ва го
▁зна ком
ни ков.
жен ные
▁ска жу
▁пере во
▁п ал
▁доку мен
▁приня ть
c h
▁ве ка
▁на сколько
▁ч ёр
▁и ду
▁с э
ж ение.
▁оста ется
▁д вое
▁люби т
лю блен
▁фор му
▁согласи лся
би н
▁каж ется
▁Не с
▁зна ко
ни те
▁оди на
▁о  
▁п лы
▁бо го
▁безу м
ении .
▁в ен
▁ладо нь
ж .
тя бря
н ет,
му ри
ви ла
вы е,
▁К ру
на то
▁ощу щ
▁нель з
▁пред лага
▁г ло
▁зо вут
▁тор го
▁го да,
▁же ст
ч ались
▁пере с
се ,
ф .
▁э мо
▁ак кура
де в
▁фа к
▁( «
▁запа х
ня ет
▁ре бе
▁сто й
▁множе ство
ве ро
▁от ы
▁ку ри
▁стари к
▁нас .
▁о ча
▁очере дь
▁из  
▁пере се
▁под вер
▁2 4
с ный
▁практи чески
▁про говорил
▁смотре ла
э л
▁Мо я
ющие ся
ете ?
▁времени .
▁лю бя
▁ж дет
▁тер ри
бо ль
▁ло в
▁ку со
▁ту ман
▁А х
ф ри
▁уди вля
й -
▁вы ход
▁чи сле
нула сь,
▁се вер
▁боль шая
▁раз обра
▁это ?
▁свет а
це в.
ме ль
▁до кто
▁по ры
▁дома ш
▁кос ми
▁А мери
ё з
▁ W
▁у мо
жда ть
▁под держи
▁то чки
ш ку.
▁непо нят
▁цен тра
▁Ст ран
▁Ра бо
▁ост альные
▁ лен
▁19 0
ф ,
сты ,
▁По ли
▁о тор
▁дя дя
▁испу га
▁ми кро
▁видимо ,
▁до воль
во й.
ско й,
▁людя м
▁по ль
зи н
▁собо й.
▁2 3
▁офи цер
▁верну ться
▁у са
аль ше
▁закри чал
▁ра йо
▁эк с
▁Ру с
пол нен
▁проз ра
▁ск ром
▁бли же
▁про чь
ы е
▁на ту
▁пам ять
х ал
ш ко
▁кра сно
▁ко ф
сте ра
по м
▁до м,
▁ щи
▁Д ень
▁при ба
▁ве ду
▁И сто
ки е,
ни ке
▁раз вед
д не
▁прибли зи
▁I I
▁сле дов
▁домо й.
в ные
▁и ллю
▁уст ало
▁нем но
▁Ли шь
▁к ля
▁со трудни
▁маши на
ст р
▁ото з
во ли
н ал,
▁зво н
▁секу нд
▁про те
▁наде я
▁в низу
▁Да вай
т я,
ч не
▁останови лся
те лей,
▁будет .
▁отту да
▁ра сти
▁о про
▁вероят но,
▁вы йти
▁дол ла
▁само лет
▁В  
А Л
▁сторо н
▁По лу
▁с ма
▁ви дно
пол н
тельно .
ч ало
▁при дет
ка деми
▁поли цей
▁мо й,
▁э пи
▁со рок
ш али
▁тре тий
▁про ек
▁Д ер
ются .
▁с го
▁о дет
▁замети л,
▁про х
▁раз дался
▁пре з
чай но
▁мальчи к
▁но с
▁со т
▁показ алось,
▁бук в
▁отве чал
ди лся
▁неболь шой
▁неве роят
чка ми
▁меся ц
ров али
▁ст рем
▁сторо ну,
▁осо зна
▁же .
▁не п
▁С тали
▁не е,
ет ы
▁при да
▁б ь
▁ту да,
▁пол ной
▁вы ско
ше л,
▁вспо мина
▁попыт ался
▁Гри го
р ко
стя х
▁ф рон
▁Д митри
▁паль цы
▁Хорошо ,
гу т
▁а ре
▁п ру
▁про жи
▁специ али
▁от чет
ен ного
▁результа те
▁ле з
▁устро и
й дя
▁при ем
ст ный
▁доро га
▁ви дели
▁Оп ять
со т
▁в прочем,
▁т ень
▁Ни ки
▁коро б
зо м
▁жела ние
▁Э н
во ло
▁авто р
▁у га
▁литера тур
▁чувство вал
▁благо дар
ы х
бли оте
▁до стал
▁на оборо
▁По -
▁спо р
д ал,
▁собо й,
ги й
ба я
▁е .
▁но ги,
▁сторо ну.
ле б
▁су щ
▁некото рых
▁от рица
▁М ного
▁з ри
▁неде лю
▁ху же
▁Не сколько
▁Ка пи
▁ r
▁ка п
▁Ва с
▁Кто -
▁послед нее
▁сы на
▁хо ди
▁кре по
▁пос лыш
an d
▁собствен ной
ж ная
сле д
▁ч ь
▁упо тре
ско ре
бро си
▁меч та
▁не тер
▁челове ку
▁слова .
▁пример но
▁род ствен
но логи
ко мен
▁от ря
ван ный
ве ц
i l
▁пер вых
мо ,
вался .
р но
▁вз ры
▁ц еркви
ало в
▁при с
▁кон стру
ю :
▁зн ала,
▁солда т
▁сейчас ,
м ся
▁о хва
▁с нима
▁случай но
▁ок но
▁ма й
▁ни х.
ви а
у л
▁за  
▁тем пера
▁вы шли
ете сь
з м
▁про че
▁до стой
▁продол жа
▁с би
ве ла
с ленно
▁ме ж
▁ v
▁пере го
со на
стро й
▁тру д
▁внима ния
▁вы бира
к i
▁ра й
ходи ть
▁види т
▁во ди
ска х
си ,
ж ения,
стве .
▁су пру
до вать
ши ли
т ного
▁зу ба
▁фи р
▁под дер
▁хорошо .
▁ду хо
▁у се
▁от ры
▁лучше ,
драв ству
▁задум чиво
▁П Р
▁дерев ья
тельно сть
▁ост ались
▁про ща
р ный
ки па
▁вме ст
▁воз ника
▁Ан гли
▁вели коле
▁отсю да
▁вся ком
▁Ка з
▁Пет р
▁от кров
u n
лы й,
ш ,
▁смы сл
▁кораб ль
носи т
▁ко жа
▁раз ъ
▁доба вил
▁надо .
▁говоря т,
▁памя ти
би й
▁был ,
ня ми
▁Ива нов
че .
▁в дох
▁каж дом
▁неу да
бу ю
▁Боль ше
▁п ен
▁метал ли
▁ст рой
▁Ма кси
▁использо вать
▁у жи
▁ви н
на !
▁ра ство
▁т ка
▁сра в
▁кар ман
▁дру ж
дол го
ность .
▁сто ла
б л
▁тя ж
▁о ку
▁ки но
▁спу стя
чи ка
▁оста валось
▁неви ди
▁с бор
▁•  
▁уста нови
▁взя ла
г нуть
▁ж дать
ющий ся
▁п але
то к.
▁пре по
▁Луч ше
▁по кло
ча сти
o l
▁забо ле
▁броси лся
юсь .
ю !
с су
ни й.
▁су да
▁воз вы
э та
▁ви но
▁пос ла
▁Бы л
▁зна ешь
▁вз рос
▁яр ко
▁доро ги
▁истори я
то л
▁по га
то й.
▁схва тил
▁отправи лся
к ле
▁смотре ли
▁по воро
▁слу жи
▁д .
не шь
▁ лы
▁голово й,
▁экспе ри
стави л
▁гла вно
сто го
▁На с
сса жи
▁ цы
ст ной
вы м.
▁Х и
▁су ро
▁про бу
▁за жи
да ть,
нулась .
▁сра вни
▁А вто
д ё
▁За па
▁бо и
не ра
▁про вери
ля х
ч алось
щ енно
▁ку пи
пи ра
▁А ле
▁произ води
▁с м.
▁име ют
▁ти па
▁про хо
▁е же
в шему
▁по х
▁де ка
▁суще ствует
во в
▁за мо
▁при хо
▁дево чка
▁но вую
▁каса ется
▁в кус
▁реши тельно
▁абсолю тно
▁благо род
вает е
ть !
▁се стра
фи ци
* *
▁А й
▁ча сы
сто к
▁кам ень
▁кол лек
▁устро й
▁Что б
▁Та ким
▁сторо не
бра л
e d
▁четыре х
▁об ру
рен е
▁кня зь
▁дво ре
▁Р об
ше ль
▁почувство вал
▁уго л
ши .
▁ки сло
▁Ни когда
▁фу нк
▁Па у
по н
▁появи лась
д ным
▁ша н
▁ве щ
▁хло п
▁худо же
ъ .
▁ж ут
сти л
▁вы и
▁по пал
▁су мас
▁Ва р
▁ст .
▁похо же
▁мину ты
▁за я
▁от правля
▁тща тельно
▁ста раясь
▁сем и
▁вниз ,
▁До ро
▁л ени
го ло
▁об ез
▁Ве сь
ну ло
▁с мотря
▁ре ша
▁дальше .
▁оско р
▁П .
▁на писал
▁з ало
о графи
а на
▁рус ской
н да
О М
да ют
▁действи я
▁В не
▁поло жение
ка ет
▁универ сит
▁впере ди
жи х
кан чи
т ную
▁б ло
▁ ,
▁при е
▁Ц а
▁кни га
▁Д э
▁Мо и
▁с за
▁вздох нул
ем и
▁Х ар
▁писто лет
▁ма г
▁попроси л
▁дел ал
▁до че
▁во в
▁расс мея
ы м
ря ,
▁д емон
▁ми сс
по лу
▁сказала :
▁Пер вый
▁ав гу
▁сп аль
▁со ро
▁вспомни л
▁надо ,
це п
▁на шли
ени ю.
т ку
▁Ка кие
▁В ремя
ши те
in g
▁гла вное
▁дру га.
▁при чем
▁си деть
▁зна ч
▁обе ща
жда ет
▁В ет
▁чи сло
▁гро ма
И Е
▁вы пу
▁О бы
ри ли
▁отве ча
▁За то
ступа ет
ни ц
▁Гла за
ка х.
▁со еди
▁по гля
▁слова ми
ю з
▁дру га,
▁ж дал
▁20 1
▁нога ми
▁сла д
ля л
▁сос редо
ству ют
▁за пу
▁Пет рович
пусти ть
▁на гра
▁пу ль
▁госу да
пь ют
ща ется
ж ения.
▁По нима
стро и
к са
▁ше сти
▁на ка
щ али
▁Г лу
▁№  
▁охо тни
дет е
▁о цени
вя за
▁от ды
▁ск ре
ти я.
▁ти хи
▁дела ть?
▁теле ви
▁нас ме
▁на ступи
▁чита ть
▁или ,
▁Петер бур
▁По хо
▁Ин тере
  -
▁ма я
▁пре р
▁про би
СС Р
▁че сть
▁писа ть
лен ной
▁по вез
▁ рю
▁напра вля
ев на
▁мно ю
ще .
▁рабо тал
ми те
▁глаза ми.
сторо н
спо р
▁К э
▁ни же
нула .
▁сере бря
▁от  
▁пси хи
▁во ды,
у ю
▁приходи тся
▁иск рен
▁хоте ли
▁сопро ти
▁гро з
ло го
м енно
▁повто рил
▁р ва
та ться
▁са мую
▁о кра
м !
▁от казы
▁при обре
▁Сте па
▁ис ка
ех ала
з ву
▁про шу
▁приня л
▁пы ль
▁безопа сно
▁не пло
ез жа
▁подоб но
▁ви се
▁Про сти
▁о ре
▁бы вало
▁Во т,
ва нии
▁до ли
)  
▁а м
во дя
▁з ре
▁лицо .
▁это м,
▁разу меется,
▁Хо ть
▁как ,
▁про сь
▁вс лу
▁Ско ро
▁подго тов
к !
сы п
с ал
▁ли ст
▁раз ма
па ти
▁раз ы
же но
р пи
▁б ер
▁си де
▁в ле
▁ин жен
теля ми
▁кон ф
ж ем,
▁глаза ми,
▁спросил :
те лю
К А
▁вся кого
чи ки
▁общ ем,
▁дви жение
ст ры
▁М но
ч ё
я х,
▁показ ал
сси й
▁пой м
▁ребя та
кто в
▁да вай
] ,
▁вас .
▁тво е
га ют
▁бу ль
▁К стати,
▁чер ный
▁я . —
▁ла гер
▁по йти
▁н ало
▁по бли
▁меди ци
стя ми
▁е ле
▁Са мо
▁пре бы
се .
И Т
ч ко
▁пре и
▁сдел ала
▁увер ен,
▁пос ети
▁нуж на
▁сверх у
ер ,
▁постави л
▁с ки
▁свя зь
u r
л ко
сло ви
▁ре сто
▁при мен
чи лся
▁от ъ
ств .
▁за дер
▁у пря
▁глу хо
▁по бы
▁вз дро
▁не е.
▁упра ж
▁Т ер
ва в
▁сви да
▁бе лый
▁ужа сно
▁ры ца
▁припо дня
▁поме щ
▁про йти
▁сига ре
▁мо л,
▁Дж ор
▁при вез
▁наблю д
у с
ра чи
▁сле дова
▁пред на
▁навер няка
▁Гер ма
▁Все ,
▁расска за
▁каких -
ча .
▁То ,
ены ,
ска ,
▁подоз ре
▁Ты ,
▁секун ду
н ти
л i
▁нрави тся
▁Ну жно
▁пробор мотал
ш ала
вя т
▁Ж а
▁други ми
▁объяс ня
▁во д
дь .
м. ..
▁чрез вы
▁со обра
вается .
▁кре сло
з ма
▁челове че
▁С реди
до й,
▁у страи
▁пи ть
▁забы л
▁таки ми
ши на
▁б ит
▁при шло
вани е,
▁пово ду
▁прави льно
▁сте кло
▁на м,
вают ,
▁з ме
▁И и
те лось
ли ?
▁си лой
▁ку ста
▁В скоре
▁те п
ви лся
▁стран но
▁при ст
▁сти хотвор
▁бе г
▁А ,
▁спраши вает
спо соб
▁дру гая
▁сло жи
▁О соб
▁Л .
ри сто
▁поце ло
▁ст во
▁бога т
ж ную
▁при казал
пра ши
▁Бу дь
▁а э
▁з ер
бра сы
▁2 6
▁неп ременно
▁слу жа
▁Деву шка
▁ко ра
▁дер жал
▁привы к
ться ?
▁воск рес
▁ше по
▁мере ,
▁ос мотре
емо го
▁паль цем
▁оста вил
▁бо ло
ка м,
▁оконча тельно
▁на каза
▁я ко
▁офи це
▁сдел али
▁Хри сто
en t
▁маши ну
▁мона сты
▁в зор
▁до жд
▁опре деля
▁С э
▁си ло
▁лест нице
▁е вро
▁неболь шо
▁к али
▁д вой
▁Не ль
рь я
м ь
▁С ту
... "
ника ми
▁чу до
ль ного
вы р
▁з в
к ция
н ц
ги м
▁обра тился
▁кажды м
▁ве ж
▁авто ма
▁фа мили
▁м ной,
▁би блиоте
▁ва р
▁хозя ин
▁ры ба
▁пе ча
зо ви
▁учи тель
на ми,
▁П рави
▁ла бора
▁а ген
▁чи тал
▁С ССР
ве си
▁к но
че но
▁раз гляды
▁Л он
▁впечат л
» ?
▁Каж ется,
▁о гляды
▁от ки
ходи ли
▁ды м
▁поз дно
жа в
гра ни
▁хо дить
▁подум ал,
▁оста вить
▁д али
▁нуж ны
▁С ти
▁кла сси
емы е
▁стра х
▁ми р,
a m
▁н рав
г ри
▁при ним
▁б из
▁А га
▁сло жно
г ался
▁про н
жен ы
▁пос реди
▁цен тре
т,  —
▁собы тия
▁пора зи
ме ра
▁п ье
ла м
▁кар мана
ст ные
те лей.
▁Э й
▁О бра
с ред
▁больше .
▁попро бо
▁3 .
▁счита ть
чи х
▁професси он
ен та
▁челове ком
▁неза мет
▁коро лев
▁М ер
▁авто бу
▁здесь .
▁Хо зя
▁при зы
▁сист ема
▁рабо те
▁Ти хо
шо к
▁пока чал
▁обла сти
жи .
ень я
ть,  —
▁под ходя
▁пер вая
o s
▁С ме
▁с прави
▁ус лу
ч алась
▁д ю
▁на шим
ни цы,
▁сред ства
▁се ль
▁гражда н
ми т
м с
▁П ря
▁хле б
▁Во сто
▁за пер
▁ва ших
▁кни гу
▁Ж у
▁места ,
й,  —
▁Ии су
▁но вое
▁ро жд
▁руко води
▁ост алась
▁ин диви
кра ти
▁поста ра
чен ных
▁бо ли
ен ным
▁Б ор
!! !
▁сп ло
▁раз ор
ну ть.
▁бе лые
▁ле су
▁от каза
▁ра но
чит ал
▁органи за
▁дро жа
ле но
чи к,
▁комна ты
▁д не
▁ли хо
▁тоже .
▁большо е
▁кон та
▁по ступи
▁психо логи
▁п ь
▁ч т
▁мысли ,
▁ y
на дцати
▁место .
ви ться
▁за мы
▁М ало
▁же ле
чи м
▁но  
▁д нем
▁2 7
▁кла д
▁кон кре
в ных
то ры
▁С во
▁Г .
▁у кры
▁по ворачи
теля м
▁осуще ств
▁меся ца
▁ g
▁мал ей
▁со тни
▁со бе
▁находи лся
▁раз рабо
ст али
▁мест е.
▁поце лу
▁пос у
О Д
▁религи оз
▁двери ,
▁Ка кое
▁как  
р ение
▁О дно
▁мгнов енно
▁з рения
▁по пы
▁б ю
▁На пример,
▁воз дей
нь ко
ша т
▁де ду
▁нас чет
▁Э р
▁пре зиден
▁пла т
▁18 9
▁ша р
▁направи лся
▁чер ные
ше .
▁чер но
▁спра ведливо
ся т
▁К е
▁е й,
▁Жиз нь
ка ?
▁не ле
▁* **
лен ный
ва ешь
вала .
ту ра
▁p а
▁лег ен
▁маши н
нно сти
▁само у
▁моло де
▁вы бо
▁настоя щий
▁у х
▁2 8
▁ле жала
ф ан
▁о бой
▁в ряд
▁Из -
шен ный
го м,
▁приз ра
то ва
▁Ген ри
▁X V
▁игра ть
▁ре жи
▁при со
и мо
▁рас ста
▁У ви
зо й
▁чем о
▁на клони
▁пи та
р ной
▁голо са
▁ис следова
▁вы ступ
▁спа ть
ё тся
▁сю да,
▁дра го
▁позво ли
▁раз гля
▁это м.
ж ались
си .
▁деле ,
▁о чер
зо ван
▁с вали
▁за ты
▁гу ля
▁г им
▁ста рого
▁ша х
▁Во -
▁Д жу
▁жи вут
д нее
мо щ
▁навстре чу
▁пре ле
▁но ги.
▁Особ енно
▁назы вается
з во
▁Н ью
то рии
▁все х,
я тся
▁Мал ень
▁только ,
▁С пи
▁я сно,
▁счасть е
ба р
▁неза ви
че к,
▁узна ть
▁С к
▁ко в
▁Он ,
▁сня л
▁ка мер
) ;
е. ..
▁за про
▁Пет ров
▁кра ю
т ник
▁мяг ко
▁реши ли
я л
▁вопро сы
▁мо ему,
▁па ссажи
дни м
ре й,
▁будет ,
▁5 0
ю щем
▁пись ма
бы х
▁Но чь
сколь з
▁голо с.
▁ло д
▁С мер
▁со ло
▁э кипа
▁ныне ш
▁за говори
▁Н ем
▁сто ле
ва ми
с ня
▁дев чон
▁обра до
▁пер вых,
к.  —
▁ры б
▁пла н
ф ы
нно сть
i on
▁Ч ар
ль ные
ст ен
д ется
де я
▁боль но
▁вла сть
▁обо зна
▁паль ца
▁ва н
▁ис ку
▁про явля
▁К ры
го в,
▁т вори
) :
с али
▁му чи
вани ю
▁ви д,
▁сохра ни
▁рас ка
▁у кре
▁радо стно
▁при клю
в ная
▁наз вание
▁расс вет
▁м ной.
▁по у
ж алась
▁Иванови ч
▁ци ф
▁в ре
▁З дравству
ло вич
▁вол ну
▁ком по
▁отве чает
▁ст ене
▁тво его
▁свет ло
▁возду хе
▁на па
▁i n
▁непо сред
▁По слуша
т !
▁истори ю
▁4 0
▁это го,
▁пер вом
▁боль ших
▁состоя ние
▁каж дую
▁По мни
▁паль цами
▁нет ?
▁ ?
▁ле вой
▁лю без
▁ги гант
▁рус ского
▁появи лись
емы х
жен ных
с ные
ер ы
т ?
▁комп лек
▁ки тай
▁пра вой
▁ц енно
л ени
▁сумас шед
▁За втра
▁сказ ала,
▁по ш
▁возду ш
▁С Ш
де лы
мы сли
ж ется
ен ная
▁Во ро
▁ви дом
вшая ся
▁у ша
с ная
▁я н
▁уви ди
▁х ала
то го,
ро вания
т ная
▁явля ются
▁В ан
во му
▁ e
▁ни чем
▁по ду
▁не дели
▁меха низ
▁рассказ ал
▁ат мос
ну ть,
ен у
▁до вери
▁Васили й
▁соответ ству
ти в,
▁проце сс
▁ло па
▁удиви лся
к нулся
ну три
▁об ви
▁теа тра
▁с бе
▁интере сно
▁Ма т
▁Г ля
мет а
▁Д жа
пы .
▁Влади мир
бо к
жд ал
▁у дал
Н О
ри тельно
▁у й
▁ре комен
т ался
▁о сле
▁Э ли
▁предна зна
▁Э й,
ри те
▁подъ ез
ге ль
▁оби та
ь .
▁большо го
▁раз бу
▁ста ту
▁Се вер
▁еще ,
ми ни
ты й,
▁спа сибо
▁спа са
▁говор ю,
▁Ма ть
▁ничего .
ко л
пе ри
▁подро бно
▁при бо
▁пожалуй ста,
▁ан али
▁вто рого
▁за помни
▁мы сле
▁само стоя
▁за би
▁з ря
нет .
▁То м
▁пере до
нь .
в ного
▁пу лем
▁мя со
ци я.
▁собе се
▁Ко ль
▁кон тра
▁То р
вшую ся
▁Ста р
▁Ми стер
влен ный
с -
А В
▁во дой
▁Кон стан
▁пле чи
▁противо ре
ра ть
▁пона доби
И Л
▁ря д
▁от чего
▁двери .
▁по рядо
▁представи ть
фи ка
ск ал
чен ной
▁по ту
де ра
▁до м.
▁при ходит
▁потеря л
▁на стой
че шь,
▁за ж
▁ком пьют
▁один ,
▁ка те
ле ц
▁даль ше,
▁женщи на,
▁почувство вал,
▁впере д.
▁стре ля
▁мину т.
ти на
▁вы ходит
ст ных
▁Сол нце
х нула
▁при чина
▁зна ете
▁нем ало
▁пол ча
▁Д але
▁Во обще
▁чер ной
▁пи ро
▁от ме
▁ф ар
▁Ли цо
▁раз бира
▁П ан
▁ди с
но сти.
▁дела ют
▁Ц и
н че
▁наз вать
▁ _
▁букв ально
▁име ю
▁краса ви
▁и дут
тем ати
▁d e
▁прошеп тал
ли на
▁ро ско
я з
▁в аля
▁рас хо
вле чь
т ки,
▁выра зи
▁ле дя
▁ста нов
▁дра ко
▁ум ень
н ду
▁силь нее
вани е.
▁с ет
▁всегда ,
▁а у
▁об станов
1 .
▁пол ный
▁до са
▁очеви дно,
▁пер вое
▁сп я
▁о те
▁Б ил
▁сле за
▁Пре жде
▁По го
▁Д ра
▁за рабо
▁свя з
▁руко вод
▁сколь з
▁ф ер
▁кры лья
▁пой дет
▁вез де
▁ч лен
н те
▁пу нк
▁с мени
▁разви тия
▁у ши
▁кол ле
▁сва дь
▁дер жать
▁бе лой
▁гру бо
ш ни
▁вече ра
▁по те
▁свет ,
▁беско неч
▁От вет
л :
▁де жу
▁пам ят
▁утвер жда
▁интере су
▁Лени н
▁Т ур
▁а ро
▁беско нечно
▁ку сок
▁Ска жи
дня я
н і
▁вы клю
жно ,
▁ино стран
▁к ров
о не
т ное
▁ле кар
▁перио д
▁под ра
ствен ную
▁де ли
▁Го воря
во м,
▁ре аль
ер .
▁Л ей
ди ль
▁пре дела
▁рус ский
то на
г де
т ром
▁пять десят
ство м,
▁поло жении
ло ва
▁про цен
▁по лет
▁у ш
А М
ко вых
на ве
ки м,
▁ко ш
ра ли
▁слы ши
▁ос ла
▁судь ба
▁про гре
▁Алексе й
▁ад ре
мот р
▁ра кет
▁Ко нечно
▁филосо ф
▁Ми р
▁сожал ению,
▁при дум
▁подо шла
▁пи шу
▁ночь ,
ль ных
ва ющий
▁Вы со
i e
бы м
▁Что ,
▁разли чных
▁женщи н
▁воспи та
ст ное
▁ч ём
▁побе жал
▁Ста рик
▁сказ али
вшим ся
▁а пре
▁день ги,
▁поня ла,
▁сво ё
▁испы та
ла з
▁про вел
▁мо то
к ен
до й.
▁1 ,
▁на кры
▁п pо
чь ,
▁ста кан
▁два дцати
А К
▁специ ально
▁с я
▁на помни
▁ро вно
▁вол н
▁о ч
▁Вы ,
▁расска зать
жно е
▁м л
зу ,
ри а
та ми,
к ты
▁близ ко
вя зы
▁Пос мотри
▁по прави
▁един ственный
▁коро ле
▁п ли
▁зву к
▁ди ва
▁уда рил
▁в у
▁от дох
▁у дер
▁ва шу
▁обра щ
▁не вольно
▁вы полни
ро й,
▁стара лся
пер ва
▁не когда
▁и сте
▁надо е
▁С тре
▁Да вайте
▁наро да
н i
▁ш тур
▁под да
▁Да й
▁со стоит
д я,
q u
▁работа ет
▁евро пей
▁обо р
▁воло са
▁му жа
фор ми
▁ф ут
▁ин те
▁расс ла
▁постави ть
▁ і
▁Что ?
▁З е
▁o f
▁ш пи
▁реш ение
бы й
▁во ды.
▁е ю
то вой
▁хоро ший
п ти
жен ной
си я
▁т рени
▁ст р.
▁комна ту,
ема я
▁по интересо
▁при ехал
▁рука ми,
▁ка мни
▁гра фи
вали сь,
са н
▁послед ней
▁с лове
▁а ,
▁До ктор
▁П ло
▁ок ре
▁Т я
ни ю,
ри ка
▁А д
▁да й
нно му
▁ту ма
▁поку па
▁хо дил
▁т рое
▁хи ми
▁тво ю
▁глуби не
▁па рт
▁с цен
▁по ясни
▁ 00
▁и м,
▁каждо е
▁ре кла
н ем,
▁при дума
т ке
▁землю ,
▁вы тя
▁рас пла
сом ненно
ми нал
▁вниз .
▁профессо р
кла д
па .
▁Голо с
ди тся
▁ф ло
▁зага до
пе ли
▁Ме д
▁ O
▁прибли жа
ку ль
те !
▁на кло
▁кри к
▁ма сса
▁во -
▁зн али
▁ему .
б ка
▁собира лся
▁И ди
▁сте кля
▁ щу
р ки
▁ма тер
▁ л.
▁ле са
ча ми
▁индиви ду
▁много числен
▁из ъ
▁неиз бе
т :
чка х
▁пи шет
сть ян
▁кон цов,
▁у гла
▁писа тель
▁му же
▁ре гу
но :
▁сле зы
▁Бу д
ду ет
▁кому -
▁кори чне
▁мужчи ны
▁у стал
▁про ро
▁после дова
▁коло н
▁Дума ю,
ро вание
▁про то
ни лся
▁Та й
по ли
▁ста рой
▁со чин
▁при ста
▁деву шки
▁Вто рой
▁на верх
рь е
▁дру же
▁мыс ля
▁ре али
▁в ру
пу бли
хи .
▁рус ских
▁О й,
▁Д я
ше к,
▁ут рен
▁по гре
ти тся
▁К ни
▁2 9
▁не лов
ни на
▁ку рт
▁друго й,
ха жи
▁зу бы
▁се ла
▁расс читы
▁но гу
▁по гла
▁ска жи
▁заб лу
▁про сты
▁жи ла
▁помо жет
▁филосо фи
▁потре бо
▁ре ально
▁гар мо
▁Некото рые
▁закры л
▁Ар ка
▁похо же,
▁Э ль
г нула
▁при нце
д ря
i g
▁п алу
▁про вер
▁18 8
▁во де
▁слово ,
▁за ре
▁дорого й
▁то ва
▁кла сса
▁удовлет вор
▁пред стоя
т ным
дни х
▁поверх ности
▁помо л
▁ви зи
щен ный
▁тро пи
ш у,
a d
▁оста ться
▁Ка ра
▁смы с
▁из ви
▁ x
▁ма темати
▁за слу
▁следов ало
▁Ви ктор
ч ении
▁люди .
▁Но р
▁Ко л
тельно сти
▁та нце
ц ем,
▁сер де
▁Ви кто
се й
▁телеви зо
▁В спо
▁ви жу,
▁коро ль
зи ли
▁з до
▁сов ме
▁момен т,
▁К .
на х,
▁в хо
▁г ли
▁В ал
ч ена
▁тво их
▁па х
▁Э л
ши ла
▁огром ный
2 .
▁генера л
▁лест ни
▁пу сти
води ть
ска .
▁взгля д,
▁пом ню,
▁гу бер
▁К ли
▁зна к
▁бо к
ко вы
▁у ве
тел лек
▁нет !
нови ч
к рой
▁обра зу
▁Не о
▁ми ра,
»,  –
ницы .
ве то
▁Ге ор
▁про ч
И Я
ло в,
▁О бе
▁у ны
▁про бе
ю ?
▁разо ча
▁хо ду
▁Во й
▁Е дин
u m
▁с х
▁помо г
ж ке
▁I II
м,  —
▁прави тель
э ль
▁мо но
▁ост альных
ну вшись,
▁Дол го
▁говори ть,
▁и ной
▁обстоя тельства
▁поним ал,
▁экспе ди
▁фор ме
▁Госпо ди,
ры х,
▁оста нется
▁пер ене
▁Ма рти
▁послед него
▁мол чали
▁ис полня
вл ением
▁ко пи
▁напра влении
▁пред ложи
▁под зем
▁со держи
ство вали
▁кла сс
аль ными
▁убе жд
ла нд
▁Та кой
▁при кос
▁со чи
▁вза имо
▁о з
▁до носи
▁Т ра
▁име ли
▁Ев г
▁к рю
и ч
▁ки рпи
▁Л ь
▁Фи лип
стви ем
▁похо ж
5 .
▁до ступ
▁подро б
▁назы вают
▁Разу меется,
▁малень кая
▁продол жала
в шем
▁Де во
▁С нова
▁великоле п
▁радо сть
га м
▁глаз ,
▁вы жи
▁но вая
▁мет а
▁пере вер
▁в по
▁сто лом
ра д
▁ш ку
▁не хо
…  –
▁со ли
▁До сто
▁н я
па я
ст ным
▁необы кнов
▁за говорил
▁пере мен
▁чи нов
▁Ф ор
▁людь ми
▁кра т
▁Ж ан
▁Любо вь
е ц
п е,
▁и стре
▁с м
▁не му,
ран да
но ю
▁ква дра
▁ст ер
▁не з
ско й.
у н
на ?
ро ,
сто в,
▁реши ла
▁дня ,
ки ды
▁доба вить
▁землю .
▁Я  
▁улыб кой
ван ные
▁сто л,
▁подум ала
▁и то
Е Д
▁за интересо
▁посмотре ть
▁последни х
ш ний
▁ту т,
▁ли сть
х али
▁спа сти
▁отнош ение
▁дела ть,
шка ми
▁распо ложен
с сы
ко вые
▁по сти
▁х ро
▁за хло
▁жиз нен
об рет
▁а -
▁уче б
пу та
▁му дро
▁под ле
▁исклю чительно
▁цивили за
▁ра сто
не к
▁ну жда
ди ться
▁в .
ш .
▁не раз
▁то ч
ень ко
▁ум ере
д ную
ви га
▁При вет
▁ви да
▁воспо льзо
▁бес пре
ло жения
▁бра та
зи ла
▁с бо
▁му со
ска за
▁неве до
▁до во
▁вся ких
▁го ры
ма ть
▁стра ха
▁о доб
▁ни куда
▁стра не
▁зу б
▁хотя т
▁ули ца
▁ J
си ла
▁девя ть
▁свет .
ш ался
▁Та м,
▁по кра
▁пред седа
▁18 7
ня ется
▁торо пи
▁стра ны
▁ца рь
и ми
▁Те бя
▁собо ю
жда я
▁мо ли
▁преи муще
▁жи вой
▁которы й,
▁вся кой
▁ли ца,
▁бе ссо
в аль
▁уби ть
▁инстру мен
▁глаз .
▁плеча ми
▁выра жение
▁сна ря
▁же лу
вал е
▁со су
▁но я
▁Па вел
▁голо с,
с.  
й ка
б ет
▁сами м
▁ступ ень
▁хо хо
влен ы
▁рука ми.
▁кораб ля
пе ливо
▁ма кси
лен ные
▁Р ей
▁у держи
▁рань ше,
▁жур н
▁наста и
▁настоя щее
▁до полни
х ран
▁увели чи
▁X I
▁ма ссо
▁реши л,
▁во ин
▁оде жду
ми лся
▁ря дом,
зи я
▁по рой
▁пом ню
вая .
▁Но  
▁от ва
ла ми
▁геро и
u t
▁кре стья
▁на ступ
пу ,
ше но
▁значи тельно
▁большин ство
че й,
▁бри га
▁кре сле
от кры
▁бесс мы
▁у дали
)  —
шу .
▁гра ни
▁на чать
▁о чу
▁вели чи
▁мо н
▁На у
▁ве дет
хо м,
▁па да
▁ще л
фе ль
▁харак тери
с ля
▁ч ле
▁свидет е
▁зем ле,
▁С ви
▁зн али,
▁вы шло
▁Зем ля
▁Миха ил
▁малень кие
▁ма тро
д нев
▁пере вод
▁ре с
▁Пожалу й
▁услы ша
▁распро стра
▁ту ск
▁ли стья
▁ян ва
ли й
▁за те
▁ле жали
гна ть
те ?
II I
▁Во зь
ъ е
Е В
▁срав н
▁на ря
д це
▁В ален
▁хва тит
▁не су
▁во ж
▁во к
▁за ря
▁З оло
че в
▁Нель зя
▁пой ду
▁кра я
▁авто мати
▁на г
чь я
▁Пре кра
▁На ш
▁с дви
▁раз де
▁продол жи
▁зна чение
▁небе с
▁ко фе
▁ле то
д з
▁буты л
▁не со
ща ,
▁ми ра.
▁настоя щему
▁напро тив
▁край не
▁фор ма
▁Са ша
▁на ко
▁ро ссий
ка и
▁зн ала
▁видимо му,
ве ль
▁чрезвы чайно
▁с ним
▁нибудь ,
▁хочу ,
ци й,
ру я
▁непло хо
▁А б
ри лся
▁гори зон
▁Па па
тель ными
▁H а
▁относи тельно
▁лег че
▁мо нет
▁Женщи на
▁клад би
▁Ря дом
▁груп па
▁Б ли
▁В але
бро сил
▁пре одо
▁у п
▁смер ти.
▁малень кой
▁ра ско
▁У с
▁я пон
ству ,
▁ра стя
▁попу ляр
▁Б ере
носи ть
▁Наконец ,
▁вы ро
▁усмех нулся
мо й,
▁груп пы
▁ого р
▁с эр
▁Фе до
ща ться
- -
ря док
про с
в лю
ала сь,
▁ин теллек
ги ба
▁сне г
a c
▁стои ло
▁Мно гие
▁на ча
ко го,
тал ки
▁чудови щ
▁рабо т
лен ,
▁вс ем,
▁О ле
▁представля ет
ва то
▁Каз алось,
▁так :
▁нео т
р енно
▁Со гла
ю щему
▁собы ти
▁оста нов
▁за ро
▁спу тни
▁мо сков
▁К ня
▁из я
▁ку пить
щих ся
▁пол ном
м :
▁ответ ственно
▁плать е
▁тру да
▁кон ку
ш ке,
ского .
▁дете й,
▁хва тает
▁при ми
▁вели кий
▁жен ы
▁Д верь
▁у ко
▁во пло
▁сторо на
▁18 3
▁ча стью
▁Ф ер
бра ть
ри ю
▁отнош ении
▁под со
▁са ра
▁жела ния
▁наде жды
ба н
▁М .,
вшее ся
▁ко п
▁фе вра
▁за каз
▁Поч ти
▁Моск ве
▁вытащи л
▁ста рые
▁Бе ло
▁улыб нулась
▁под ходит
▁о писы
▁много ,
▁порт ре
▁проис ходя
ющей ся
▁смо гу
▁при йти
▁вер но
i d
▁де ше
▁площа д
▁до му
▁зву ки
та и
▁прислу ши
▁цель ю
▁Как -
▁б лу
▁в ски
▁встре тил
▁Вме сто
▁от ка
▁Б ри
▁молодо го
▁способ ен
▁В ен
▁ка кими
▁де ла,
▁От кры
▁сила х
▁опу бли
▁Сов сем
▁Ф у
▁ви з
▁напра вл
▁произ ведения
мо м,
▁Сло вно
при мер
на р
▁фи нан
лы е,
▁18 6
▁очеред ной
▁за канчи
▁сооб щ
ш него
▁с ала
▁СШ А
▁проблем а
р ку
▁всё ,
▁уда ст
вно сти
жа н
▁кате го
▁ев рей
сь !
п лю
▁та щи
ство м.
п ка
те ли,
б ко
▁прият но
▁отоз вался
ха я
ало м
▁возра зил
3 .
▁С ю
▁ж але
▁н ра
ступа ть
▁проис хо
▁ло м
▁Нес мотря
▁вы йдет
ру ют
▁созна ние
ня тно
▁хи тро
▁Ма рия
▁отли чие
▁по ти
▁бе лых
▁ух мы
▁вопро с,
▁у е
▁Со ло
p у
▁при ме
▁спи ну
▁про шла
с к,
▁много е
▁бы ст
▁бе зна
вала сь,
▁под ы
▁раз вали
▁сме ло
▁п pи
▁па тро
ти х
▁от ста
▁обще ства
i r
хо м.
▁объясни ть
▁торо пливо
▁она . —
▁сто ят
▁спу ска
ю …
▁п ало
▁кли ен
▁за х
▁один .
▁комна ту.
▁н але
▁пу тем
▁з верь
▁да м
о ти
▁узна ть,
ч ала,
да !
▁арми и
▁незна ко
▁за бу
▁в пло
ше й,
▁а виа
▁пят надцать
▁ли ф
▁друз ей
▁до говори
▁пред лож
▁В сем
▁друго му
н ской
бе .
л ении
▁кор ми
▁про я
▁тако е,
▁кни ге
д жи
▁беспо кои
▁лоша дь
мер но
м но
ч ком
ж ена
▁не ре
ло м,
че стве
▁зем ли,
ме ли
▁Ф ло
ня ли
▁пу зы
▁нельз я.
▁ра м
▁з р
▁Т .
ки !
” .
▁при бе
▁согла сно
аль но,
ва ющие
▁дет ь
▁бабу шка
ду шно
▁а стро
▁не дале
▁роман ти
▁показ алось
ва юсь
▁18 4
▁сы гра
▁хра ни
▁ночь .
▁Ба бу
▁про мыш
х !
▁оке а
▁та рел
ста ти
▁си г
▁Ф .
▁В ит
▁на би
▁ве лел
зи лся
▁по лю
▁скла ды
▁голу бо
▁город ,
н ными
▁бли зо
▁и таль
вол но
▁ребен ка
щие ся
▁со ль
▁бесс мер
д кой
би на
▁секре та
▁со един
▁нас ле
к нуть
ст ного
▁Досто ев
▁У чи
▁а кадеми
ни ми
▁попа сть
го м.
▁любо м
Н Ы
▁ка б
▁Капи тан
▁глав ный
р ту
▁си гнал
▁он , —
ро да
6 .
▁Госпо дь
▁ка пу
▁пере стал
▁мор щи
пре дел
вы й.
▁А к
▁Го су
▁т ен
з ли
ющего ся
▁глав ным
▁4 .
▁гим на
4 .
те сь,
г ались
шен ные
▁сосредо то
О С
хо жу
▁за р
▁Ш о
▁хоро шень
▁лучше .
ше вели
▁Благо да
ни ки.
▁горо да,
▁ца ря
▁солн ца
▁хо д
▁со образи
ло к,
л ения,
▁отвер сти
▁л ё
▁пере би
▁про шли
т ки.
з не
▁Ц ен
▁дума ет
▁Ка тя
▁меся цев
▁на пу
тельно м
ры ми
▁в пи
▁по яс
▁ты ?
▁серд це,
ка м.
▁ос ень
▁внеза п
в ла
▁высо кой
▁и ско
7 .
ч ке,
ро .
зи ра
▁Во н
▁бро ви
▁ло к
▁поз же
▁благо полу
▁раз бой
▁ев ре
▁иде я
▁Д .
▁про вали
▁ка фе
▁бы вают
▁ува жа
▁оружи е
чно -
▁ди пло
▁м ете
▁го д,
▁холо дно
▁ру кой,
▁радо сти
м ?
▁рассказы вал
▁м ла
▁Ни чего,
▁К али
r o
▁без за
ва ны
▁и …
жд ении
▁дости г
▁ре ки
ф аль
8 .
п ети
▁в са
▁при роде
ня х
▁Ко то
▁про вор
э т
▁длин ные
▁Одна ко,
▁подня ла
▁по гло
ла я,
▁челове ческого
ень ка
на ми.
▁зави сит
▁обла да
▁наш ему
▁з вали
▁с него
емо е
▁по по
▁противопо лож
▁ве л
▁проблем ы
▁дер жи
▁Б об
де б
▁Бо жи
ре ти
ен ти
▁би лет
тя т
▁челове ком,
лен .
▁суще ства
лете ла
▁недо ум
во ка
▁Вне за
▁ри т
▁не му.
ш ля
▁у мол
▁раз ры
▁Л ет
▁че стно
▁е хать
▁ре й
▁извест но
▁Пет ро
▁за су
▁ш лю
сло в
▁пу ска
▁челове ческой
▁во шли
▁под лин
▁аккура тно
▁ре чи
▁при т
ни ца,
▁под но
▁Об ъ
▁ве ща
▁при меня
▁уго дно
▁ка ,
вер енно
▁поза ди
▁беспо лез
жал ,
▁Б ен
ки нул
▁куль тур
▁здо ровь
▁показа ть
▁кре стьян
▁вы ру
▁пере о
лик нула
жно м
деся ти
▁ин сти
▁места .
▁свер ка
▁стру кту
▁про яви
▁обстоя тель
▁не ю
▁про по
▁вер у
д ёт
▁поговори ть
▁на рко
лет ь
▁Ти мо
▁про вести
▁воспомина ния
▁кор ре
▁откры ть
▁серьез но
▁в ступи
▁п ей
зу .
▁С не
▁же ?
▁ве к
ха р
лли ген
сю ду
▁ли цу
ж ению
▁до нес
▁3 5
▁фор м
▁молоды х
ну сь
▁за наве
▁за и
▁глу пы
▁больше й
▁вой ска
чи я
▁жур нал
▁ K
▁любо го
▁при каза
▁ста рая
▁в ход
e ,
▁по люби
ня ла
▁На ч
▁насла жд
▁су д
▁про мол
▁по гу
▁под чер
▁компа нии
▁собствен ного
▁з ве
▁стре ль
▁распро стран
▁кру гом
▁све же
со вой
▁ло жи
к,  —
▁поез д
▁вз до
сси и
▁ла в
▁исче за
м …
сты ми
▁принима ть
▁Н А
▁сто лети
И Й
▁н ал
йте .
чно сть
▁X X
0 .
ни ем,
▁Ку р
▁бо ги
ни ю.
▁по дар
▁С ли
▁ри м
▁О ба
▁тер п
▁г воз
ри з
▁зави симо
9 .
▁об ши
▁та ба
▁со чув
▁жи дко
з ал
▁му ра
▁оче реди
▁о во
▁тех нологи
к і
▁об ры
▁В ра
ху .
▁дума ешь,
▁жур нали
▁Э д
▁рабо ту.
▁оп ла
▁опусти л
▁при влека
▁зара нее
мо з
▁заму ж
▁пре ды
▁мину т,
т ли
▁выну жден
ника м
▁ка на
▁Х ва
▁под хва
▁ни ми,
▁не прави
ходи ла
▁ката стро
▁озна чает
Е Й
▁об щем
с ну
▁бере т
▁Д ю
д ало
кли на
▁Й ор
▁пред ме
▁ме ша
ы р
▁про бо
» …
й ся,
▁ло б
▁сообщи л
▁то ?
▁дума ть,
▁при ду
▁осно вном
▁комна те,
▁сле ды
▁навер но,
▁з дра
▁г г.
▁дум ала
ру с
▁крас ный
▁на т
чи ков
рован ный
▁лов ко
▁И бо
▁вид не
▁зна я,
▁дела ть.
▁на полни
▁те ло,
▁удовольстви ем
▁хи щ
б ле
▁По м
су ль
▁не ба
щи ,
▁па три
▁вы лез
пи т
▁нас лед
▁начина ется
▁собесе дни
▁высо кий
▁взя ли
нь ка
ж ными
р ные
▁в пра
▁веж ливо
▁жа н
▁пол .
▁буду чи
▁голо се
▁та кой,
щен ные
▁про щ
жен ная
▁дере вни
▁просто й
▁шко ле
чи к.
▁1  
ша ется
▁фор мы
но,  —
▁Д ени
▁t o
▁ребе нок
▁мар ш
▁забы ть
▁тала нт
▁сказ о
мини стра
ственно м
▁сторо ны.
ж ко
л ения.
б рь
▁Почему ?
▁кон сер
▁уби л
▁родите ли
▁появля ется
▁у пре
▁дня .
▁ф ла
▁кри чал
▁сю жет
▁любви ,
▁требу ет
▁занима ться
са м
▁от дыха
ров ала
▁по бо
▁поо бе
▁сердце .
▁обо их
▁слыш ал,
▁По ра
▁к стати,
▁у вле
й ки
да ть.
▁Нью -
▁о цен
▁про чита
▁обез ья
вет и
▁предпо лага
▁сза ди
▁Спасибо ,
▁поряд ке
влен ные
▁раз мер
▁вы пря
▁по си
р щи
сто м,
▁этого .
▁не дель
▁кол ду
▁про дви
▁нес часть
▁В ин
А Я
та на
пи си
ро й.
▁крова ти
▁счит ал
▁Иго рь
▁кри чит
ж ки,
▁а с
▁о ли
▁Са ма
▁ло жки
▁женщи ны,
ло в.
▁главно е,
ц ем.
▁из обре
▁ввер х,
▁бере г
воль те
▁жен у
▁ру га
▁бе сси
▁ба ры
сту ,
р ного
▁успе ла
▁невозможно .
та ми.
▁вер нулась
▁пе сен
▁тихо ,
▁О х,
▁плеча ми.
го в.
▁з вер
▁со кра
▁ма ть,
▁при це
гу р
▁кор зи
▁во е
в ень
гра д
▁темпера ту
С К
жно сть
▁Дей стви
▁сем ья
▁силы ,
▁за мени
е !
▁присо еди
▁услови ях
▁З вез
▁рассе я
▁Про шу
▁середи не
▁кол хо
ма ни
▁Бори с
▁по ла
▁соб лю
▁мет ров
▁быстро ,
▁пи джа
▁вы дох
О Г
ча ют
жа т
▁успо каи
▁оста ваться
▁у мы
▁при не
▁Ра ди
▁ов ла
▁да .
▁гото вы
▁хло по
▁у луч
▁ста рых
▁послу ша
▁мыс ль,
▁рука х.
▁следу ющее
▁за ры
▁дей ству
ги вая
ван ных
чен ного
▁Ч ерт
▁Мо ро
▁со став
▁Ро ди
мо в,
▁прошло м
▁поня тия
д -
б лаго
▁вто рых,
гра ф
ран же
▁оде жды
▁мо кры
бе ли
вни х
▁каждо му
▁поло жить
▁на дел
▁Та кие
▁о се
▁Ра й
▁вско чил
▁два дца
нь ше
ству .
▁о са
▁па ри
▁0 ,
▁К ей
е,  —
▁су ть
▁це лую
▁Пи тер
▁бы ть.
вл ения,
▁ва шему
▁Д ы
▁дело м
▁то п
▁бра тья
▁прави ло,
▁уг рю
г но
▁Д жи
▁По ль
▁преды ду
▁тя го
▁наде ж
▁и мена
▁каком -
▁экспери мен
▁ла дно,
▁коль цо
с к.
▁отли чно
л ением
▁пото л
▁сте к
▁вы зо
во -
ря х
▁ско н
▁воз гла
▁с но
▁за гляды
▁с ке
▁ря дом.
▁труб ку
▁ту ал
▁над пись
▁позволя ет
▁С каз
▁суме л
▁18 5
▁по гляды
ш ной
▁Сем е
▁па н
▁увер ен
▁во йти
▁Б .
▁го ду,
▁По мо
▁Д ере
Е М
▁У кра
▁похо жи
▁Да ни
▁нах мури
нё с
▁бе дня
це .
i m
▁сто л.
▁а ?
▁солн це,
▁вд во
▁му зе
▁бере га
к ?
▁пе щер
▁в ред
▁соз дать
О Т
▁з ла
т ков
▁H о
▁слу шать
али сти
▁звез ды
▁3 1
▁услови я
е ?
▁Все го
ка тери
▁гро хо
▁По дума
▁ули цы
▁ре ги
▁Бо лее
▁ин спе
▁Похо же,
▁на ра
▁ма сте
▁у ра
▁подоб ных
▁Ш ар
вают .
то ро
▁А -
▁д ала
д р
ж на
▁началь ник
▁ро ждения
▁откры ла
▁в ходит
▁меня ?
▁ладо ни
▁осно ве
▁Бы ть
▁люби ть
▁случа ях
▁не сомненно
▁са м,
▁проз ву
у голь
▁ра ски
ки ?
▁О че
▁у шла
▁от дела
вет а
▁вы би
▁темно те
▁т ва
▁друго й.
т.  —
▁Л ев
▁попро бу
▁каж дая
▁сла ва
ч ник
▁а .
пи ли
▁т ё
▁по зо
▁уви дели
▁име ла
▁со ж
ло м.
ди !
▁А рт
ва тель
▁успе ли
жа ют
▁за ста
▁су доро
енно му
спо рт
▁Ве ра
▁пыта ется
вл ения.
▁фор ми
▁сто ять
▁Вз гля
ска я,
▁при вести
▁фа ши
▁чуде с
▁Не  
мот рю
ала кти
▁гне з
чь и
▁фо не
▁з вери
▁каз ался
▁В аль
▁написа ть
▁прон зи
▁про вед
▁ко г
▁с мен
▁на гру
▁ба б
до ль
▁с сы
▁пре пят
▁ф ру
ци й.
чен ным
▁товари ща
▁от дать
Р А
▁во шла
ст ря
▁зна ют
ди ть,
▁Во круг
▁ск лад
▁мыс ленно
н ца
▁застави ть
че л
▁ох ран
▁Ко ман
▁жа дно
▁из ли
н -
▁дела .
▁застави л
▁па пи
но р
ме ц
ди т,
▁ли нии
▁дел али
▁из вини
▁су хи
▁про ме
мо сть
▁замет но
▁наз вал
▁роди лся
▁Ко му
▁на сы
▁стар ший
▁свя зы
▁но ча
▁на сторо
▁с про
▁вы ве
зи а
су р
▁назы ва
▁С об
▁ба тю
▁бе жать
е ра
на род
▁про сил
▁ос ен
▁буду щего
▁Но вый
▁Про ща
▁ни ми.
▁гра ф
щ ала
▁ and
ва х
▁Га в
▁ма сси
мо сти
▁упо р
▁инте ллиген
алось .
▁ка ранда
ки й.
▁отвра ти
▁ри со
▁во ду,
▁встре чи
▁оказа ться
▁2 -
▁рабо ту,
про из
▁з ала
▁гер цо
▁поспе шно
r a
▁n ot
▁еди но
▁на шла
О Й
▁С дела
ч ет,
▁ста ну
п лет
проси л
т -
▁со крови
▁Никола евич
▁си не
▁ту р
▁ми р.
▁успо ко
▁встре ти
▁деятельно сти
▁и гро
▁отец ,
цион ной
че к.
▁у ско
▁О ли
▁захо телось
▁А м
▁день ги.
▁Е два
▁бума ги
ст ная
за р
он ,
▁изя щ
ка -
▁у ют
▁па ци
▁Это ,
ра и
▁пос ме
▁во ду.
те к
▁т ему
▁Е катери
ск али
▁ли мо
▁Про фе
▁Ве че
ж ё
▁объ е
ва ющих
▁хо ти
▁Интере сно,
▁Где -
▁1 -
▁кро во
▁ду ха
ты вает
в ёр
▁Ки рил
▁Про шло
▁ни где
▁вось ми
▁счасть я
▁участи е
сты .
▁до пусти
▁Ну -
влен а
ша я,
▁В у
▁жесто ко
▁Э к
▁К ло
▁Это го
нице й
▁плем ян
▁хоро шего
▁сц ена
▁о пер
▁Наде юсь,
ва на
д ном
▁компьют ер
▁дога ды
▁Г енера
▁с со
▁пер сона
▁По про
мо й.
▁язы ке
▁пер спе
▁прошло го
▁на рисо
▁ра б
▁у казал
▁пале ц
▁дыха ние
▁И наче
ало ги
▁До м
ря .
▁потре б
▁ск ал
▁пло тно
▁хва та
▁го д.
▁шко лы
▁остави в
▁пол ное
▁до вер
▁италь ян
лете ли
б ал
▁воск ликнула
стра да
▁жела я
му т
при ят
▁фа кто
▁Г ан
▁заяви л
▁воспри нима
ва ю,
▁се дь
вя тся
▁ру кой.
▁но вым
▁со юз
▁свя зан
вно сть
▁н ём
▁Л ор
ти ем
▁вла де
ере мо
▁увиде в
▁взгля да
▁ма хнул
▁Х ан
▁бу х
ца ми,
▁вы деля
▁ули цу
▁от пусти
▁не м.
▁ш лем
▁Д ет
мо м.
▁ди ван
▁пло т
▁С лы
▁по чита
▁Зем ле
▁вы та
▁воро та
▁боле е,
▁З у
▁Пря мо
▁Э х,
▁упра вления
▁но чи,
нов ение
ала н
▁сказа ть.
▁похо ро
л ем,
▁не вер
▁планет ы
▁м м
▁Зна ешь,
▁от пу
▁приз н
сси я
▁ча с,
▁начина ют
▁хва ти
▁Де ла
▁кру жи
▁Л ин
▁В пере
▁П ы
▁да ют
▁пес ни
▁хва тало
▁пу стя
пла нет
▁вой на
▁Мальчи к
▁д нев
▁реш ет
▁ва шим
з ей
зи т
▁га зо
▁Е ли
ни ем.
▁пи ло
▁О лег
▁со чета
▁обще го
ню дь
▁прежде ,
▁назы вали
▁сло в,
▁вещи ,
▁люби ла
▁а ктивно
▁без раз
▁от ца,
▁послыш ался
▁печ аль
▁Д ве
▁ото дви
▁х му
00  
▁ска мей
▁небо ,
▁вы кри
▁разо м
▁Ре бя
▁Ма н
▁говори ли,
▁разго вора
▁за служи
▁ра в
▁испу г
▁при ка
▁ска жем,
▁Ле г
▁ше вели
нов ения
▁стан ции
▁ресто ра
▁Э м
▁прав ду
ж ник
▁ощу щение
▁Е щё
▁гото ви
▁до ктора
▁ф аль
▁ж аль
▁Сер дце
▁коро ля
▁сим пати
▁де д
дели ть
▁у пала
▁вы мы
бо т
▁Су ще
го р
▁дога д
▁М ен
▁предпо ложи
▁Со вер
▁То чно
▁которы е,
▁изго то
▁Пи са
▁музы к
▁а по
▁меня !
▁до ль
▁с ало
▁О к
ющим ся
лю б
▁Г ал
▁буты лку
ц кий
▁ча стно
▁Внеза пно
▁сейчас .
ба ми
▁с держи
▁двена дцать
▁мо ти
▁смо гла
ло си
ф ет
▁удивл енно
▁Из вини
▁Ка м
▁ро ли
▁огром ные
▁что .
▁но сом
▁5 .
▁реа к
до к,
▁отсут ствие
▁  -
▁под альше
▁Та тья
▁медленно ,
▁корот ко
▁тра ге
▁зна ния
▁полови ну
▁ко лю
▁Л ен
кну ли
▁пока чи
▁На по
ло к.
▁су нул
жа ется
ка :
об ла
▁по рядок
к ва
л л
▁горо да.
▁та бли
▁не жели
▁чужо й
▁ры ча
▁вот -
▁вели кого
▁меха ни
▁при откры
▁Го лу
▁напо мин
▁ис кал
▁кив нул.
фа ,
▁подоб ные
▁род ной
▁Лу и
со й
б ла
t e
▁Та кое
▁у ез
▁О д
▁со ору
▁уда ри
▁прави ла
▁смер ти,
▁зре ли
▁по не
▁ |
шь !
▁под ве
ш не
▁мла ден
ше к.
жен ным
▁принадле жит
жа ть,
▁соб лаз
след ствии
▁два жды
ч ения,
▁устави лся
▁неу доб
▁повер нул
▁кам ня
▁вы су
рез ал
▁золо той
▁со гре
▁бы .
би т
щ ены
▁си день
▁недо воль
▁послед нюю
▁тебе .
▁лоша ди
▁ге рой
ко -
▁удаст ся
ра ми,
▁От ли
▁об ман
чь .
нь ю
▁Бу ду
ж ье
▁При меча
н ский
жен ного
▁Ио ан
▁лю д
▁М я
▁во дя
▁ди визи
▁счасть ю,
▁друг ,
вать ?
де й,
де лся
▁полча са
мотре ть
▁Ку зь
▁тро га
жд али
до вой
че й.
▁так ?
▁клю ч
И М
▁приро ды
▁доб рый
▁ки пя
▁комп ью
▁с ми
ч ения.
▁про пи
▁вер но,
▁ра д
▁фа бри
▁С пе
▁команди р
ско м,
▁от зы
▁по хи
▁на печа
но во
▁ре зи
пе .
▁на йдет
▁и гры
т ались
▁дет ей.
▁сен тября
▁за ду
д ем,
▁быстре е
▁да в
ш ке.
▁б рыз
н ского
▁пе ри
▁Б ал
▁упо мина
▁рабо тни
▁пере дать
▁те ла,
мо ро
т ль
▁воло сы,
▁вы дви
▁после ду
че скому
ж ений
▁в люблен
▁хо чешь,
▁с ход
▁слово м,
▁муж чин
▁пои сках
ня ться
▁У тром
▁он . –
▁ба та
шен ной
чи ться
▁тобо й,
▁любя т
▁за пис
t er
▁дож дь
▁миро вой
▁В стре
▁ок руг
▁ро т,
▁замети ла
▁Слуша й,
▁чер ных
▁на полня
▁произнес ла
▁про й
▁от се
▁до казы
▁4 5
▁Зем ли
га ми,
ра я,
▁Ве роят
▁получи ли
х у,
▁аэ ро
▁гу б
▁есте ственно,
ш лось
▁по жела
▁буду ще
▁кон вер
ю,  —
▁с мя
▁прочи м,
▁кро ше
▁поэ ти
ч ению
▁ны нче
▁кни г
▁пла щ
шен ы
▁как ?
ни ком,
▁пос лал
й н
ру до
м ере
▁рус ские
И С
▁женщи на.
▁сю да.
▁Вме сте
ды х
▁нам ного
▁Ко ло
▁по ж
▁вы ры
▁во ле
▁и ко
▁и щу
▁ше ю
▁оста вался
ра до
▁отли ча
▁по шло
▁пригото вления
тя нул
к су
▁ог нем
▁препо да
▁ми ре,
пу .
г ни
▁ве рить
ну лось
▁та ра
▁жи вых
ц i
жа ться
▁от нося
че лове
▁с мир
▁рас пу
дно му
з ен
▁цвет ы
▁ква рт
▁по клони
▁не бре
▁о ранже
▁ог нен
▁вто рая
▁выгля дел
▁предпри я
▁ва шем
▁скри п
▁я  
▁мел ко
▁кварти ре
▁треть его
▁з он
▁су дя
▁май ор
▁ж дали
▁си ро
▁по же
▁про вин
▁Вспо мни
▁незави симо
▁прист ально
▁Мед ве
ну ла,
▁места х
▁про говори
▁в ете
▁употре бля
▁Ма ша
ха н
▁Ан ге
▁беспо мощ
▁сня ть
▁у точ
▁та м.
▁про мы
▁Оль га
чен ная
▁вели чай
▁уров ень
▁да ст
▁же ной
▁раз ра
▁способ ность
▁при се
▁I V
▁Лон до
▁ку пил
▁ =
▁от нюдь
▁тихо нько
▁че лю
▁про ли
▁нужно ,
▁пре ми
м -
▁Фе дор
▁наоборо т,
▁объясни л
▁В чера
▁про е
▁из мер
▁отнош ению
▁обер нулся
▁ори гин
▁На ши
▁дум ала,
▁вол ны
▁здоро во
▁удо сто
▁пет у
▁зем ле.
води л
▁ч ей
▁от мет
сно .
л али
▁вы пуск
но вой
жен тль
рован ные
▁Все лен
▁ок ном
до воль
ви з
▁по сторон
▁при мет
х ли
ж ку,
▁а гре
▁ж ду
▁малень ких
▁тран с
▁бро дя
▁Александ ра
▁ласко во
▁подня лась
▁необходимо сти
ен ную
▁3 2
▁рус ски
▁драго цен
хо в,
▁Си ль
▁соба ка
▁пла ка
▁О бо
▁чувство вал,
▁прошеп тала
▁вы слу
▁бе гу
▁зако но
▁вы ш
да в
▁лу ка
▁иначе ,
▁была ,
▁станови лось
▁Та кая
▁ша м
▁Влади ми
▁вопро с.
ре й.
вич ,
▁пере пу
▁хво ст
▁В сю
▁А т
▁рассказы вать
то р,
ё рт
ни ци
г ран
▁бра т,
▁ад министра
▁дере во
▁людь ми,
▁ост ров
ки :
▁испуга нно
▁ог не
▁Госпо дин
ство вала
▁бело го
▁дире кто
▁по дела
▁терри тори
▁посте ли
▁э ль
▁ра вно,
▁вы ле
▁дале е
▁То вари
▁оказ алось,
▁да вайте
ши й,
▁англи ча
▁видел .
▁пропо ве
▁поверх ность
▁пу ть.
дет ель
▁вся кие
▁ог ня
▁Джор дж
▁про ходит
▁с ливо
ш ало
▁возь ми
▁на пример
▁ответ а
▁Росси я
▁посо вето
▁пред вари
▁рабо ты,
▁за бе
пе ла
▁сист ем
▁Ива на
н ки,
лоси пе
▁под бо
▁пере кре
▁вам пи
▁Со ба
▁Ва ше
▁Сла ва
▁по че
▁опу ска
▁захло п
ре за
жи мая
▁Спо соб
▁ч .
▁П ь
▁яви лся
▁у ходит
го й,
▁ша гов
▁упо мя
ли вый
▁покра сне
▁ра сту
▁сла до
▁деву шка,
▁ка пли
▁хле ба
▁H е
▁ма ту
▁та бу
▁Ско рее
▁Ж ена
▁молоды е
▁арти лле
▁выи гра
▁ла п
▁са м.
▁2 ,
▁незамет но
▁ми стера
▁отчет ливо
лен ных
ста ми
▁у хва
та х,
▁у си
▁пу га
к л
▁у ку
ез д
сь е
▁слу жить
▁Ф ри
▁малень кую
▁кро вать
▁каз алась
▁си л,
▁но гой
г нув
хи вая
▁ли ца.
▁кем -
хо нь
▁с ры
▁О го
▁миллио нов
ри и,
▁Росси й
ко ю
▁ужа са
▁сти ха
▁д воря
▁интере со
▁продол жил
▁обеспе чи
сть !
ш кой,
нет е
▁выс казы
▁выгля дит
▁тек ст
▁пу стой
▁дере вен
▁игра ет
жд ения,
▁игра л
ль д
▁ад вока
▁семь и
шки н
v e
▁искус ства
с ени
▁действи е
я,  —
▁моз г
не ль
▁пре тен
▁Ва ш
▁Ко с
▁Ан тон
▁И спо
▁слу шал
ную .
▁госпо д
▁стреми тельно
▁чер ного
▁вещ ь
▁тала н
▁подня ть
стре ли
▁т ём
▁ск вер
▁челове чество
▁свет а,
▁зе лё
▁ги б
▁гля дел
▁раз деля
▁би о
▁эк ран
▁ба бо
▁коло коль
ро и
▁немного ,
▁Го род
но е.
стви е,
▁да р
▁чемо да
▁Да -
▁мо ре,
ска ми
▁ок на,
▁Мо н
▁сна ружи
▁ка ба
мо в.
▁я к
▁у ходя
▁верну лись
▁го ду.
▁сем ье
▁за вое
▁сла вя
▁А нато
▁любо вни
▁продол жает
▁доче ри
▁от мети
д ре
▁з лове
ко вого
▁вспомни л,
▁заго ре
▁До ма
▁бе жал
д аль
▁С П
▁б рез
▁ис па
▁Ле о
▁Обы чно
▁до ст
▁А да
▁невы носи
ки х,
▁бур жу
стя м
▁Говоря т,
▁t h
▁э н
▁Гар ри
” ,
▁На таль
▁крас ные
щий ся
▁ко з
▁холо дной
▁Нет !
▁чуть -
▁спроси ть
али сь,
ф ей
▁Да р
▁от клю
▁жизнь ю
▁Не по
▁Ро ман
▁сле з
▁обна ру
▁кора бли
▁про веря
▁Си би
▁вы нул
▁за се
▁за ма
▁тет ра
▁Мо сков
▁ответи ть
▁вы ши
▁ми сти
▁воро т
▁вин тов
▁Ма рга
ны ?
▁сло вом
л,  —
▁разно образ
▁ал кого
▁стран ное
д ения
▁д ней,
▁Хо ло
▁но чной
▁Д альше
▁тра в
▁назы ваемы
▁пере ли
▁бар ха
ры вно
дя .
▁Бо го
кре п
▁сказ али,
▁ве сен
▁ка н
▁Подо ж
▁на пис
стви я.
▁гря зь
▁спи не
▁д р.
▁вообще ,
▁г. ,
▁скоро сть
▁де лу
жа ть.
вы е.
Е К
▁ок тября
▁слыш но
▁ре б
▁прекрас ный
▁возника ет
▁в цепи
▁не гром
▁ответ .
▁по пере
▁В ста
▁вопро са
▁напро тив,
▁С пу
▁ас фаль
▁пе со
▁пыт ались
ру ется
▁слу ш
▁пол ную
▁подго то
▁мило сти
▁Е .
o w
▁возду х,
▁Чу ть
ж ья
▁тоже ,
▁Б ан
▁кварти ру
▁понят но,
▁чи сла
▁с дер
▁вы тер
▁По скольку
▁шо ссе
▁Чу в
▁лу чи
до вали
▁вы у
▁зна ем,
▁доба ви
чно му
▁от би
пол нения
▁И р
▁ма йо
▁от кро
▁ша п
с ных
дал .
▁без мол
▁площа ди
▁пре у
▁макси м
ты е,
▁у бира
че е
го ви
▁незна комы
рован ных
▁ле пе
ч енное
▁све то
▁способ но
▁много .
▁внима ния.
▁за у
▁сте кла
▁улыб нулся.
▁Бу дет
▁ст ри
▁длин ный
▁Профе ссо
▁р жа
▁Пау за.
нес ла
▁аре сто
▁бли ж
ту и
▁обрат но.
▁бе ль
на :
▁маши ны,
es t
▁при носи
▁движ ением
▁зе лень
ше й.
▁относи тся
▁вер нуть
▁поз д
на х.
▁за думы
▁в па
▁появи лось
▁возду ха
▁до  
▁д ней.
▁В зя
▁мень ше,
▁ко жу
аль но.
▁город .
▁п .
▁авто ра
▁С тро
▁вет ра
▁показ ался
» )
▁не лег
▁от с
▁хру ст
▁стари ка
▁По бе
щ ением
▁разли чные
ль ная
▁рабо ты.
▁деву шку
▁Я ков
▁огром ной
▁гото ва
нач але
▁ви дя
▁рука х,
▁гру зови
▁Види мо,
▁с перва
▁подоб ного
▁за ки
жно сти
ч али,
▁вы й
ван ной
в ную
не ли
к за
▁ок но.
ну тся
▁тра ги
▁не м,
тив ной
▁ска нд
▁п лет
▁откров енно
ска ки
▁боя лся
▁по кон
ра т
▁простран ство
▁гру стно
бур г
▁г лот
▁малень кого
ка,  —
▁пен си
▁у род
▁мер з
▁хо дит
▁деву шка.
▁сло ж
▁уз нал,
▁поряд ке.
▁звез до
▁реш ения
▁публи ка
▁Д ети
▁18 2
мен е
▁безраз ли
▁бе лом
▁фут бо
жо к
йте сь,
▁раз д
с ное
щи ки
▁могу .
▁нехо ро
▁находи лись
▁сист ему
▁га ран
ем чу
ди лись
▁Бы ла
чо м
▁холо диль
▁при влек
▁го дов
▁1 . 
▁дви нулся
▁по ни
▁виде о
▁Росси и,
▁вмест е,
▁на пад
▁комму ни
▁дека бря
ст ки
▁поинтересо вался
то ли
к нув
▁же !
▁чь и
ния х
▁расс ер
▁се д
▁вз волно
▁Ли за
▁имен ем
▁под ми
▁сек су
▁Со ю
▁уме ет
▁пти цы
л ений
▁за ча
▁Дже к
щен ных
ер ьез
сто в.
▁Н Е
▁вмест е.
▁по вел
▁Сле ду
чь ю
▁ве лосипе
▁у бь
▁на го
▁раз бе
▁с вед
ско чил
▁Те ле
▁бро н
▁С ен
ти вшись
▁из меня
▁безна де
▁темно -
▁вы бор
▁Д ро
▁да бы
▁боль шими
▁Когда -
▁не чи
ди шь
▁низ ко
▁да нном
▁Ко го
▁С Т
▁уров не
ми л
сла ви
ди ть.
со х
▁лю бую
ка.  —
▁Л ё
▁на ду
▁золо ти
▁с рок
▁Л я
▁Вет ер
чал у
▁да вать
▁соба ки
▁слы ша
▁наз ванием
ги вает
» :
▁ка кому
ло г
▁Г али
▁ли ши
▁из бран
ти ю
вались .
ва ний
▁за держи
▁ка пель
по доб
▁ма ни
▁М алы
ре е,
▁клу б
! )
▁Бо гу
▁сп ал
▁уст рем
ра х,
▁газ ета
▁про йдет
▁дя дю
ла ?
▁серди то
▁попа да
▁обще ство
▁каз ались
▁удиви тельно
▁гру ди,
▁понима ешь,
▁сви ре
▁ле том
▁разгля деть
чо к,
жу ю
▁мо раль
▁писа теля
▁к ал
▁мно ги
▁всё -
▁гла ве
▁прово ло
▁сдела ть,
да ?
верх у
▁дет и,
▁карти ны
▁ко ме
▁Да вно
▁лейтена нт
ша ют
▁во ли
а ни
▁нач алась
▁немно жко
▁хо дили
i a
▁сдела ть.
▁стран но,
бли зи
▁С ин
▁руб лей
ться !
ч ке.
▁по л,
▁Мо гу
▁у стре
▁у лови
▁ответил :
▁ка ю
▁вере в
▁о пе
▁созна ния
▁ре воль
ща .
▁да ?
▁Все гда
▁бара ба
ред ка
▁пре ры
▁Не бо
▁После д
▁опусти лся
▁Ко ля
▁превос ход
▁ис пан
▁внут рь
▁зна ют,
▁лейтена н
▁вы бе
▁шко лу
▁ви ду,
з ра
ни цу,
▁Е лена
ст рю
▁тыся чу
▁У и
▁пре обра
▁из вести
▁Муж чина
жда ется
▁У о
ко вый
▁спа ть.
▁утвер жд
▁кров ью
▁дерев не
▁такое ?
▁ю б
цо в.
▁Пи сь
▁у бо
▁со пер
▁пыт алась
▁пер чат
▁по бу
▁отчая нно
u l
ни ком.
ра жи
▁зада ча
▁перед ви
▁проис ше
▁су мер
▁о ду
▁станов ятся
▁до жида
▁за сто
си н
ща ют
ч кой,
ко вым
ш ный
▁по тен
▁тем ные
▁знакомы й
▁у бор
ве е
стви я,
▁ги по
▁гра ду
_ _
▁гру з
▁потря с
▁пей за
▁объяс н
▁тол ку
ней ших
▁ля гу
т ет
▁ви на
▁да вал
▁собственно ,
▁был .
▁фа ми
фа .
ск е,
▁сохра нить
▁дол го,
▁преду с
▁Су дь
▁силь ный
▁вст ала
▁вы те
▁зем ли.
▁пла ни
▁у каз
▁д веря
▁чер ты
▁с лю
▁написа но
▁нужно .
▁измени ть
▁маши не
▁но чи.
▁вов ремя
▁загля нул
▁нетер п
▁оста тки
▁ U
л э
▁кни ги,
ст ере
ти е,
р ных
▁гре б
▁коман ду
▁гу сто
▁во п
▁удал я
▁поло тен
▁ст я
▁Пет ра
ды е
▁лё г
▁обру ши
▁выз вать
▁вер си
▁с гу
▁мене е,
▁смо гли
▁тру п
▁Т вой
▁ро мана
▁М ей
▁на ми,
шен ных
ф ф
▁г ни
ров ки
▁Ч еты
▁Воз вра
до к.
▁у сы
вы х.
▁слова х
▁ма не
▁ко стра
▁пос ред
   
ли ан
ш ней
▁А фри
▁ре м
▁смы сла
▁стран ный
▁стены ,
▁са д
▁од ер
ш ы
▁Сли шком
▁матери ,
▁ок но,
▁ки н
пи ско
▁университ ет
▁рас чет
ш тей
▁доба вля
го вор
▁тради цион
си в
ги я
▁жи ть,
чала .
▁д жин
▁спе кта
р к
га й
▁пре следо
▁вто р
▁энерги и
т. )
бо та
▁от ступи
▁оке ан
с ного
▁зависимо сти
▁любовь ,
▁ули це,
▁мальчи ка
▁ко ня
▁тол па
▁ йо
йте !
▁тра м
▁ноя бря
▁вызы вает
▁три дцати
▁комна ты.
▁То т,
▁Про дол
▁под пры
сс ер
▁ма ть.
▁бал ко
ча ть,
▁шко ль
▁ц ени
▁по жало
▁мра чно
▁мысли .
пу ль
▁Пет ь
▁про ве
▁запи сы
▁разви тие
▁настоя щего
▁б лок
▁за бро
▁растеря нно
▁вы пуска
▁души ,
▁За й
▁комна ты,
кла сс
▁Ле они
▁фигу ра
▁причи не
▁Мар к
стви е.
▁биз нес
▁дверь ю
▁дене г,
▁эк за
о тно
▁В пер
▁впечат ление
▁д жентль
▁3 4
▁ше ст
▁государ ства
▁пти ца
▁Ч ет
▁Ка за
▁восста нови
▁прох ла
▁харак те
▁Мо е
▁П ять
на в
▁3 3
ди те,
▁ра вни
▁ты .
▁оправ да
▁госпо ди
▁с ведения
▁ж ре
▁начи нал
ди ра
го н
▁нес пра
▁Боль шой
ше в
▁К ал
мет ь
▁за бира
▁поз дра
▁голо сом.
▁но сил
▁сер ь
▁мог .
хо й
▁гори зо
і я
▁В ил
▁незна ком
▁пу ти,
▁про фи
ж ны
▁х ит
де л,
▁вы па
со н,
▁характери сти
▁би ологи
н ень
▁газет ы
▁обнаружи л
▁ре ме
▁ко жи
▁вы хода
▁и м.
▁ку пе
▁п еть
▁поч ер
да ми,
жд ения.
e .
▁су ет
▁дру зь
▁огром ное
▁бро не
щ ался
▁ри ско
▁пол тора
▁те ла.
▁ка ре
▁моло дая
▁не во
▁посы ла
▁У м
▁голове .
во и
▁сп лет
да й
▁И ме
▁Голо ва
▁дума ете,
▁Ш ер
▁у со
мо .
▁гал сту
▁впер ё
ре б
д али,
▁Моло дой
▁назы вать
ш ени
▁г вар
▁я вл
▁равно веси
▁все х.
▁Коро ль
▁му ску
рован ной
▁види шь
▁г ени
▁пере хва
▁находя тся
▁гра на
▁По доб
▁к г
ены .
▁пу ти.
ти вно
▁сере бри
▁сло м
▁лабора тори
▁вой ны,
▁тре щи
▁вопрос :
▁крас ной
▁ин дей
▁су нду
▁пой дем
к ружи
ч ный,
▁По дня
▁уго дно,
▁любо е
▁един ственно
▁луч ших
▁при ну
▁ночь ю,
▁доме ,
▁насме шли
за ми
▁под вод
▁высо кого
▁любви .
▁ло ж
ст ало
▁тор гов
▁разно цвет
▁музы кан
▁Па ра
де ц
р ена
▁ле ди
он .
▁те ло.
▁не ред
▁Б ру
▁за клина
ч ёт
▁водо й,
▁Ра ньше
▁ту ф
▁по ма
▁вто ром
сти ли
де ло
▁дру жи
▁Ин тер
▁неподви жно
▁согла сен
▁ру мя
кал ы
▁вдох нов
▁д ря
же й,
▁до веря
ши е,
▁иде и
▁по т
▁ба ба
▁особенно сти
▁На род
по к
▁по чи
▁с держа
▁други х,
ро к,
▁ми лый
▁два ,
0 ,
▁получи ла
▁в ал
▁обяза н
▁ру жь
▁сме х
ж енное
▁у бра
▁за писа
▁измен ения
▁дей ствовать
▁собира ется
▁Ро ма
ж алось
▁вечер ,
▁пол з
▁С им
▁об щи
▁г ну
Т О
▁ох ла
▁обо рачи
▁буду щее
▁не бы
▁Х ра
нди да
▁непосред ственно
▁Пожалу й,
▁гря зи
▁Во ль
▁по ско
▁за мок
л ?
▁извест ный
▁на ки
▁женщи ну
▁борь бы
▁сту к
▁И тали
▁оп ти
▁но жо
воз мо
сто м.
▁собствен ных
▁предста вления
▁конечно .
▁людя м,
▁ос матри
ди е
▁деревь ев
▁глу б
ть е
ры й,
▁дума ю
стави в
▁авгу ста
ния ми
▁Ми ссис
▁возра ста
чу ю
▁ог лу
▁кро хот
▁Бу р
▁могу ще
▁непо дале
лся :
▁о до
та !
▁За т
▁гру ди.
▁ю ри
▁ста нут
▁вла дель
за в
п то
▁болез ни
▁под ал
▁2 . 
се ль
). ]
▁недоста точно
▁за тя
▁учи ли
▁гор ло
▁умо ля
▁надо л
▁сим воли
▁у ми
▁атмос фер
▁по ва
▁наде жда
▁вой ну
▁происходи ло
▁нач алось
▁T he
▁Р им
ря т
м ят
се в
▁ка ме
▁оза бо
▁безу ми
▁рю кза
тер ,
▁протя нула
▁вок з
▁ус ер
▁До ста
▁неу жели
▁чер ная
▁ qu
фер ен
▁Вероят но,
▁э м
ни ца.
тив ных
кти чески
тель ница
▁проду к
▁ка ф
▁дере ва
▁пара лле
▁спе ши
▁компо зи
▁3 6
▁ко й
▁жал ко
▁Ш та
▁даже ,
влен ных
a g
А Д
ней ший
▁т али
▁м нение
▁Г он
▁ми ре.
▁not es
▁и муще
▁слы шать
▁все лен
▁хва тило
ш ные
▁показ алась
▁броси лась
ou r
▁Ста рый
▁ию ля
▁способ ны
за ция
▁оши ба
▁вс ему,
▁свобо д
▁лам по
ло е
▁На стоя
▁ло жь
ди р
▁обще й
▁кол ба
▁при па
▁обра тил
кну ло
▁Расс казы
щен ной
▁протя жении
▁мор ской
ч ение,
▁У ил
▁те ку
▁за сте
на м,
▁безо бра
▁тер петь
▁водо й.
▁за п
▁вздох нула
▁ситуа ция
▁воло с
л ке
▁обе щал
д же
▁осле пи
▁нер вно
э м
▁У бе
▁о хот
▁о пи
▁при вяза
▁со хран
▁из нутри
▁ситуа ции
▁вы са
▁э волю
▁пред ше
▁спа си
▁язы ка
▁ #
▁сто ла,
▁полу чается
▁проце сса
л ение,
та я,
ъ ек
▁с хо
то -
▁тво им
▁раз га
▁ввер х.
▁помо гает
▁ф ыр
▁ост альное
▁дево чки
в алось,
ч ков
▁за вод
▁при вед
▁це лу
▁вслу х
▁Сло ва
▁бога ты
▁смотря т
▁по ехал
рен ный
▁кня з
▁заня тия
▁искус ство
▁спра ва
▁Действи тельно,
би ль
вало ,
▁С разу
▁Пой дем
▁оста вили
фор м
▁па к
▁Ру ки
▁небо .
▁н .
по ль
▁Ж о
▁я …
▁при ла
▁рес публи
▁це по
▁шка ф
▁Дмитри й
▁закон чил
▁дела ется
▁покло н
▁предпо чита
5  
нь о
▁обо рудо
▁зелены й
▁ос ени
▁со ч
▁может .
▁поро ге
▁х мы
▁за пя
▁истре би
б лем
▁па сту
▁прос ве
▁пре вы
▁ка стрю
ши тельно
▁заклю чается
▁ро с
▁каче ства
▁ока жется
▁Исто рия
▁а вари
чен ную
▁вспомни ть
▁объ еди
▁хоте л,
▁луч ший
▁за тра
▁У ра
▁подума ть,
▁пра вую
▁рас сте
▁О де
▁гра м
нима ет
▁ +
▁про ку
валась .
▁бы вший
▁воспри я
▁мо ре.
с !
о м
▁б ен
▁влия ние
▁Ю рий
▁В рем
ты вая
чи сли
чно сти
▁жи тели
▁при держи
▁уж ,
▁у шли
ри ф
▁Миха и
дум ал
▁ви х
▁пов ре
лю сь
▁Ри ча
чали .
▁райо не
о ле
▁две рей
▁ию ня
▁зерк ало
▁вы ходя
ти ки
г ети
ди к
▁Оче ви
▁вза им
▁служ бы
▁Дол жно
▁тор мо
▁сле ва
▁Де ся
» !
чество ,
▁да ма
ш кой.
▁вто ро
лы ша
▁Т ет
▁терри тории
▁в али
ва й.
ность ю,
и с
▁пу ть,
▁потен ци
▁добра ться
вед ли
i ,
ны я
ни то
▁свобо дно
▁под ходи
до ,
ч ени
▁( "
▁ка с
▁ме шо
▁в хода
▁лет е
▁из ы
▁оказы вается,
▁вы тяну
▁живот ных
вали лся
▁кри кнула
▁поза бы
▁уч ре
ны ч
▁на пере
▁Сол да
a y
▁мо я,
▁вы ступи
▁Иль и
ди лась
▁перспе кти
▁органи зо
▁про шед
▁действи тельно,
ре к
▁ри ту
▁съ ез
▁бо ти
▁Моск ва
▁обяза нно
▁бе лая
ли нд
ясь .
▁большо м
▁ча сов.
ня лся
▁в пря
▁дире ктор
▁ветер ,
жу сь
▁взгля дом.
ча х
▁ста ти
с нул
▁А на
стя ми,
▁на вы
▁по ст
▁Пожалуй ста,
▁взгля нуть
▁Пер вая
▁ша гнул
жал .
▁сто лу
▁вто рую
▁крови .
▁оказы вается
▁золо то
▁неприят но
▁комна та
▁слы шу
▁/ /
▁слова ми,
ни цу.
▁ти п
▁З во
▁са ду
▁положи ла
▁о ра
▁ло ко
та ции
▁Теперь ,
o o
▁кня зя
1 ,
▁Я н
▁во лю
▁шо кола
ў ,
▁С мо
ди ю
▁Ни на
▁неу веренно
▁знал .
ля ми
▁самоу бий
▁про ка
▁Ми ло
ЕН ИЕ
ко ва,
▁чувство вать
ч ется
e c
▁Са мое
▁3 7
▁исследо вания
▁отправи лись
▁Ху до
▁н ену
▁про сить
▁Про с
▁Е ё
то чки
▁уме л
▁пла не
т т
▁взя лся
кал .
▁нелов ко
▁скло ни
▁слово .
▁оп ере
ч ение.
▁души .
▁вер ху
▁Доб ро
мы ми
▁сопроти вля
▁сравн ению
▁И гра
▁Л ан
▁тру до
▁ро з
▁собствен ные
▁дет ства
▁экра не
▁Д аль
▁попыт ки
▁при щу
▁выско чил
▁п рене
▁с ходи
▁Сто ит
ды м
▁бор мо
▁кух не
▁созда ния
▁капи тали
я ли
ст ень
▁чув стви
▁То же
▁до ставля
▁пол ным
л і
▁останови л
▁боро да
▁кре ст
▁та кому
▁от ца.
▁си л.
▁ ё
▁поним ал
▁дер жит
▁А Н
▁чувству ю
▁Вели кий
ско е,
▁е ду
▁глав ного
▁понима ю
▁Пере вод
▁Ко нан
▁ца ри
▁чле нов
▁испо рти
▁п ружи
▁повер нулась
▁торже ственно
▁собра лись
ж али,
▁Й о
ца ми.
▁Д жен
▁продол жать
зи и,
ди в
▁мо ё
▁ули цу.
й.  —
р -
▁Дево чка
▁Василь евич
▁вра ч
▁Ми ша
▁случилось ?
▁тыся че
▁поз вал
▁случи лось,
▁све том
ро во
▁соответ ствии
▁пото к
▁уста навли
▁з им
▁ко сти
▁при сло
нем ся
▁ле с,
▁очере дь,
▁Лю би
▁ва ми,
▁ли сто
▁друго е.
▁остро ва
▁при род
▁го н
▁По ми
▁Мэ ри
▁невоз мо
▁под ло
▁жур нала
▁Дя дя
сы й
▁6 0
▁ба таль
▁поряд ке,
▁вос произ
▁доста точ
▁стра те
▁стен у
▁вер то
ско -
▁мо дель
х ма
▁Ск возь
▁ла па
▁Дру гой
▁две сти
▁хоро шие
▁Б рю
▁цен тр
▁ограни чи
▁спу ск
▁зна ет.
ци ей,
▁впо следствии
▁ми ру
▁проце ссе
▁начи ная
ствен ными
▁вели ка
▁возду х.
▁поэ т
▁име я
▁раньше .
ви с
▁я ?
▁В с
▁про гло
ту ры
дно сть
▁о же
▁мол чи
▁мар та
щи ков
▁были ,
ля ет
▁На ша
О Б
▁броси ть
▁от цу
до е
▁но ме
▁гру ст
дя тся
▁коле ба
▁дья во
▁Примеча ния
бер у
▁карто фе
▁полови на
стави ли
▁да нные
▁изба виться
▁ло ма
▁вы ше,
▁километ ров
▁проводи ть
О К
▁Пред ста
▁спусти лся
▁6 .
ность ю.
спо кой
▁пол ного
▁ча сов,
▁планет а
воро т
▁ро ст
вей ца
2 ,
▁магази н
▁от тен
▁вклю чая
▁проце ду
И Ч
ЕЛ Ь
▁говори ть.
▁у клады
▁находи лась
ми ная
▁Анд рее
▁от ку
▁здоров ье
▁Тол стой
▁ска жу,
▁свет а.
▁вра жде
▁высо ких
▁при водит
▁ф разу
▁ящи к
чу ть
▁во ль
▁неред ко
s t
▁обма ны
▁Совер шенно
▁тиши на.
▁уда валось
▁го сть
▁судь бы
▁Щ е
▁да нных
▁100  
▁ба ро
e m
▁янва ря
ж ку.
▁вы ступа
▁Госу дар
▁3 8
ку :
▁ту по
▁ '
▁по бере
▁комна те.
▁зна я
▁потре бу
▁бла жен
▁сэ р.
▁о сты
тив ные
▁об лом
▁про р
▁пар ня
▁больше ви
▁из лу
▁инсти нк
▁раз вле
но !
▁ор би
▁Ва ся
▁доро ги,
во дят
▁чет ко
▁хи жи
▁взгля нула
▁момен та
▁дре вних
▁маши ны.
▁кон цу
▁пере у
▁дале ко,
▁по дели
▁болез нь
▁между народ
▁Смер ть
▁б еру
▁взгля ды
▁сред не
л га
▁Та ня
▁не прав
лен ного
▁не торо
▁сразу ,
▁конце п
▁П я
влен ной
▁h t
▁милли ар
▁кон ца.
▁поко р
▁Г ит
▁взгля д.
▁од них
чка ми,
▁бо юсь
▁Из вест
▁при су
▁ло ву
лови ну
▁ж дала
▁распо лага
ф ере
▁еще .
нося т
ци они
▁от пра
▁за вед
сто л
▁уз н
▁ра нее
▁пере бил
ж ала,
▁Бо га,
ну в,
да го
▁коман до
▁мог ,
ны !
▁бу й
▁челове ку,
▁недале ко
▁З ву
▁сна б
▁О коло
▁Во прос
▁сами х
▁слу жит
ж ки.
▁Впер вые
▁ша ри
▁после дняя
▁бое вой
▁Ц ар
▁бе лым
▁наде юсь,
▁охо тно
▁Пав лов
▁на сили
▁ Ё
ў ся
▁го ст
▁Го л
▁на жал
▁церков ь
▁С лыш
▁приня лась
▁стару ха
нь е,
щи ка
▁ж емчу
o c
мен ный
▁стать и
ц ца
… .
ми ть
▁регу ляр
▁понима ть
▁праз дник
ня ют
▁пода рок
▁любовь ю
▁име ется
▁ка ндида
же шь,
▁слова м
▁голо сом,
an t
▁по боль
▁поло жения
ны не
щи й,
я ми,
ги и
o p
пол нение
▁ма ма,
▁в гляды
▁при казы
▁особо го
▁вы пить
▁пи ще
▁по тра
в каз
▁свой ства
▁из де
▁от того,
▁чет веро
▁ба ссе
▁вз ро
▁случа й,
▁сим во
ти лось
▁подо шли
▁ко нья
▁бо гу,
▁игра ли
▁против ника
▁наконец -
▁кри стал
▁капита на
▁обе д
▁А ри
▁Р .
▁гу бы,
▁Напо ле
▁с жа
лы м,
▁челове ком.
▁подо кон
▁Хо чу
▁мел кие
▁Бе с
▁голо в
▁зна ем
▁мужи к
▁ве ка.
ва ющей
▁ло п
▁похо жий
ба х
то ров
▁на бра
▁Буд то
▁оправ ды
И .
ти й,
ди и,
▁голове ,
▁холо дный
ман ,
б ю
▁искрен не
▁крова ти,
же к
▁ка ми
да рт
▁эпи зо
▁ис ход
он ер
▁при о
▁паль цев
▁интеллек ту
▁голо вы,
хо в.
▁пример у,
▁ро зы
▁челове ческих
си те
▁свое образ
▁М ет
▁сты дно
▁за седа
рё х
▁Бы ли
о ,
▁звез да
же г
▁Б ре
дне вно
част ливо
▁малей шего
ри ться
▁ un
▁вече ром,
▁вой ны.
вы ря
▁стар ше
г не
▁ма ма.
▁эмо цион
▁луч шие
▁види шь,
▁нога х
▁дер з
тив ный
▁Ни ко
▁по лаг
▁от ступ
▁Д жим
вле но
ва ющего
▁Ната ша
▁утро м,
▁информа ции
▁вклю чил
▁су п
▁видеть ,
▁крови ,
▁кон ю
▁Михай лов
д ение
▁Ста ру
о в
▁парти и
▁приго тов
▁хозяи на
цион ных
▁бес стра
▁он ъ
▁от цом
▁стака на
▁прене бре
га ми.
▁я и
т ном
рен ные
▁говори те
▁И лья
▁пол го
▁р ту
▁По том,
▁останови лся,
▁ш ле
▁Я ро
▁обе да
▁то чно,
чь ей
▁пол ная
▁види те
▁биз не
Р У
▁го стей
сто е
▁до ве
▁ска жешь
нь я,
▁полков ник
▁а ван
ван ная
чен ,
▁э го
▁контро ли
▁сло в.
▁вели ко
▁че сно
▁Вече ром
▁понима ет
▁нельз я,
▁на бо
▁К ля
▁н ала
▁ди нами
▁18 1
▁ли к
▁моро з
го й.
му ли
▁ма н
▁подума ть
▁ца ра
▁Ви ль
▁отец .
▁пра в,
▁невы со
▁де ль
▁зву чит
▁вст ал,
▁испо ве
▁спраши вал
▁гла д
▁Ми ро
▁доро ге,
▁ту ри
▁ш выр
▁женщи н,
▁у стра
▁э ска
▁К ин
▁вы бро
▁а кти
▁приня ли
ве ра
▁еди ного
чен .
▁продол жали
чу р
▁вой не
▁ст ря
▁солда ты
▁как ъ
▁бе шен
ки -
▁Нео жида
▁С тив
▁перво нач
▁броси ла
▁я , —
▁суб бо
ти е.
▁за рос
ра й
▁при вел
▁зат ем,
▁пред чув
▁возвраща ется
▁карти ну
▁по вели
▁из бы
▁под боро
▁необ ъ
▁свет е.
▁тео рети
▁М ур
▁наре зать
▁Го го
ри и.
▁поэ та
ну не
▁ку ро
▁уда ра
▁Роб ерт
▁на бира
▁ау ди
▁сни с
▁вели че
▁вдруг ,
▁Пушки н
▁обой ти
▁С вобо
▁раз лу
▁ю мо
чи ны
со н.
▁при чу
▁Хри ста
▁отправи ться
▁приня то
ск е.
▁жи телей
▁прос нулся
▁за шел
▁пар ень,
▁С он
то чку
▁Кар л
ты вать
▁коми сса
▁нога ми,
разу м
▁ад рес
ме л
▁те лом
▁Боль шо
▁полу ,
с ку,
▁выз вал
▁Ва сь
▁при ви
▁сво я
▁рабо тали
▁други х.
▁полу ч
▁возра ст
▁порт рет
▁пред стоит
▁я з
▁Го то
▁опа са
▁во зо
▁за сыпа
▁конф лик
▁раз ду
▁марш ру
▁мину ту,
▁ко нь
▁мас шта
▁современ ной
▁поста нов
▁Хорошо .
▁труб ку.
тан ный
▁понима ете,
пи ла
▁подтвер дил
▁За кон
▁кон то
▁ды ша
▁со у
▁е л
цион ного
▁Ро жде
▁пла к
▁_ __
▁уров ня
▁неизвест но
▁но вом
▁аро ма
▁гу стой
ци ей.
▁бывало ,
▁собствен ный
мен ты
▁из обрет
▁гра ви
▁ори енти
▁Тя же
▁ш па
▁Очеви дно,
жа нт
▁э фи
то логи
▁ап те
▁на нес
▁о гур
ваю щая
▁ди ко
▁матери ал
▁жен е
▁стран ные
▁обраща ясь
▁от к
▁свя той
▁мысле й
▁заним ался
▁но г.
▁ча с.
че б
▁ш ло
▁пи ли
▁получи лось
▁ш ну
▁се ли
▁про ще
▁проводи л
▁тет я
▁По нят
ти ра
▁закри чала
▁и ные
▁счита ет
▁Бы стро
▁На й
▁есте ственно
▁предста вление
▁внутрен ней
фе ра
сто й,
▁откуда -
▁Хол м
▁ни сколько
шь ся,
▁опубли ко
▁С ве
▁Авто р
▁И зо
цен три
▁Росси и.
▁доро гу.
р ная
▁поб лед
▁удоволь ствие
▁из редка
ни ку,
▁Ста ри
ч ений
▁У жа
▁К лю
▁от цов
▁тем ной
▁апре ля
т ками
▁согла с
▁отъ ез
▁Макси м
ва юще
▁буржу а
жи т,
▁настоя щая
▁А ни
за ет
▁А кадеми
ень е,
сле ду
▁Констан ти
▁яко бы
ля н
▁собра ть
▁язы ком
▁противопо ло
со ва
9 ,
▁есть ?
▁ули цу,
▁спа ть,
▁поло са
▁безу сло
▁О со
▁говори ла,
▁буду щем
▁тео рии
▁наблю дал
▁Ма рья
▁Сы н
▁худож ник
▁та ,
▁х ла
▁услы шать
▁ве щей
▁состоя ния
ш ении
▁оде жда
▁прер вал
ющее ся
нец ,
▁сегодня ,
▁под ер
▁Я по
сте ли
го род
▁по ступа
▁тобо й.
▁прои гра
▁друго м.
▁на бе
▁вс ка
▁Са й
▁полови не
тер я
▁са ни
▁можно ,
▁цар ство
▁вся кое
▁П ти
▁да нный
▁исте ри
ка ют
▁При чем
▁не ва
д ру
▁пред ложение
▁у влек
▁фа кт
▁ша ги
▁Сем ен
▁Ст ало
лем .
А З
▁це лом
▁дро жь
▁пу гови
▁импера тор
▁ис прави
▁просто .
▁раз дви
▁А га,
▁Же ла
зе й,
▁кла ссе
▁ря да
▁О дним
▁расстоя нии
▁ри с. 
▁побе ди
▁ка рь
▁кри зи
▁вы держи
▁К ен
▁Е сте
че сти
А С
би ,
▁крас ного
▁жи ть.
н но,
▁г ран
▁стари к,
▁культу ры
то р.
▁И са
▁вино гра
▁результа т
▁не кий
дна я,
▁со н,
▁выбра л
▁це пь
▁приходи л
▁ц еремо
▁с тере
ча ть.
▁мер ца
ника х
▁един ственным
▁ри ск
▁до пуска
▁Ко ли
▁Ка й
▁о си
▁мас ла,
▁пра в.
▁Со ф
▁Су дя
▁останови ть
СТ В
▁ви нов
▁м али
▁истори и,
▁и ных
▁е жели
▁вз рыв
▁со н.
▁обе их
▁ме сту
▁составля ет
▁нау ки
▁с ал
▁И сти
▁обо з
▁неу клю
▁ско рей
▁и щет
▁у му
▁В я
▁Цен тра
» ).
▁па дает
▁Т ь
▁от пуска
▁музы ка
▁неле по
вшими ся
▁т ремя
▁Моск ву
▁долла ров
цион ный
▁с мета
▁най ду
▁борь бе
▁наро ду
▁сопрово жда
▁дет стве
▁предпо ч
р та
ки на
▁п али
ему ю
▁настой чиво
▁о -
▁ба за
▁ба к
▁у кро
▁Стали н
▁се ст
▁С м.
▁бес пла
ск ри
▁О на,
▁ге о
▁исклю чением
▁у ехал
▁чувство м
▁ца ре
▁ито ге
▁ему :
a p
ци пли
▁помо га
▁вы став
▁Спо кой
▁ :
жен ,
▁родите лей
▁удивл ением
▁мини му
дет ,
▁сдела ет
▁В роде
▁ру ке.
▁по тем
чи тся
▁пожалуй ста
▁У ходи
▁мор ков
ен ты
▁не ф
▁обо ло
ла !
са нт
▁при ле
▁ни чуть
ди но
тер .
▁мерт ве
▁похо жа
▁гер ман
▁мужчи на,
▁При шлось
▁Ва ша
▁собра лся
ч кой.
▁мало .
▁ан алоги
▁то …
▁способ ности
т ал,
» ;
▁оче вид
▁страш ный
▁лет у
▁про ез
▁Кня зь
▁дол г
▁пользо ваться
▁выс шей
хи н
▁Ш ек
▁голо вы.
▁ску ль
▁мало ,
та ется
▁посмотре ть,
в ёл
▁Та ма
▁п че
ш ня
▁лез ви
▁К ер
▁мне :
▁за кре
▁кре сла
▁перед ал
▁Ма кс
▁ста в
▁крас ным
▁ты !
▁К ва
▁Укра и
▁рас плы
д ѣ
де й.
▁ран ены
▁Ма шина
▁то !
▁3 . 
▁вы пусти
▁После дний
тив ного
▁С ал
▁краси во
▁про сит
▁пар ни
▁физи о
ва ю.
▁пла мени
▁от деля
▁органи зации
▁осно вания
▁демо крати
▁чув ствует
ри с
▁г нев
▁ди тя
▁при нести
му ти
▁зелены е
▁Ни к
▁лично сти
тащи л
▁ви дно.
ли !
▁улыб ка
▁мальчи к,
щ ении
▁подоб ное
▁хоро шая
▁це пи
▁5  
▁Сло во
▁при у
▁ад мира
▁гал ере
▁требу ется
▁чер ными
▁деятельно сть
▁увер я
хи е
▁кур с
▁сме ша
▁Ко стя
▁по плы
тя ми
▁вы рос
▁сле по
▁ку би
▁ги та
▁гре ш
▁рас стре
щ ались
▁плохо .
щей ся
▁На и
▁высо кие
▁по шёл
т чи
▁ re
п ало
ван ге
во да
И Д
ку ?
▁р та
ван ного
▁ре в
▁нибудь .
▁отказ ался
▁Н еме
▁2  
▁От чего
▁Ма ка
▁размыш ля
▁Ба й
▁зем ной
▁вса дни
▁гля нул
▁Ф ин
▁доказа тель
л ение.
▁О .
▁за пе
▁ле вую
▁Не да
▁с мотрю
3 ,
▁тон ко
▁приго вор
▁солнце .
▁зло б
ву ю,
нет а
▁ме стно
▁ж дут
▁Гор ь
▁сказал .
▁действительно сти
▁бе жит
▁Ко ст
▁авто рит
▁я дови
шка !
▁на м.
▁сп ры
▁хоро шее
» [
▁У лы
▁ва м.
в ѣ
▁сви ст
▁зв ёз
стви й
▁тре пет
ально му
ор дина
▁из дале
▁понима ю.
▁ладонь ю
▁кош ма
▁распо лож
тел ем,
▁XI X
▁тяже лый
▁сле дом
▁поспе шил
ку ю,
прав ду
▁да вали
ство вало
ни н,
▁каж у
▁и рони
▁со кру
ски е,
▁чере па
▁площа дь
г нали
▁Моск вы
▁присут ству
▁ k
▁сво ём
▁иди о
ки ну
▁ко вар
ни ться
▁собы тий
▁встре во
▁Зачем ?
▁бан ди
▁поз дно.
▁бес шу
ка я.
▁э ст
r i
▁Б ла
тя брь
▁услыш ала
▁пред с
▁останови лась
▁позво лить
▁за ша
▁шепо том
▁гру дь,
▁це лая
▁в ходи
▁об вин
▁го ды,
▁т рой
▁спокой но,
▁чув ств
▁тан цу
▁существо вание
▁сме сь
ро ваться
▁лицо м,
▁вс ерьез
▁те сно
▁инжен ер
до .
со мо
▁сомн ения,
▁жи ль
▁з ы
▁3 -
▁дура ц
▁ла дно
ень .
▁показы вает
▁осуществ ля
▁определи ть
▁прочи х
ва вший
▁Прости те,
▁т рю
лон дин
▁тяж ё
▁ци линд
▁свет е,
▁З де
" ?
▁ис полн
в ене
▁сни зу
ско м.
лен ным
▁най ден
▁силы .
▁име ло
▁литерату ры
▁фаль ши
▁Та ра
▁« …
▁ба нки
▁паль то
▁гу л
▁от вори
▁вели кой
4 ,
▁тро туа
▁Попро бу
▁им пери
ти ка
▁обла дает
▁превра тился
▁c om
▁прямо й
▁встре тить
▁r u
▁вариан т
▁ве ла
с ла,
И Р
▁позво нил
ко ра
▁нас к
▁обще стве
▁голу бой
▁мои ми
п си
чен ными
▁ви ды
▁вра га
ми ла
▁подоз р
▁возбу жд
▁добавил :
вл енно
▁ко лы
▁с лых
ков ский
▁станови лся
▁це лых
▁при води
▁и ници
▁сте сня
▁одина ково
▁Дале е
цион ные
кло н
▁собира юсь
с па
шен ная
▁то ном
▁выну жд
д ры
▁ис пра
▁кото рая,
▁у держа
фа на
▁пи л
ще но
▁под хватил
▁Мол ча
▁собира лись
ле ва
емо м
▁г ен
чи лась
6 ,
▁избе жать
▁чер та
▁Тру дно
▁за тру
▁им я,
▁не сли
▁ку по
же б
л ению
▁ал ле
кра тно
▁ч ья
тан ные
▁три дца
▁с ень
▁угро жа
▁ j
▁ф ель
кто р,
ко вая
▁желез ной
чи ть,
▁су пер
▁со дро
▁экс пер
▁По ня
▁пи рами
/ /
▁спроси л,
ми ну
▁о вра
си лся
▁в люби
▁сом нения
▁воен ных
▁глуби ны
і е
▁у ник
▁ре ке
▁серд цем
ра ссу
▁про ры
▁при ех
▁стен е,
т но,
▁плать е,
▁слыш али
▁повед ение
▁полови ны
▁карти на
▁вд али
▁ожи дал
▁це пля
▁подня ться
де шь,
▁ку к
▁ху же,
ет ?
▁кон цер
х ?
▁чи стой
▁О гром
при з
▁радо стью
▁отве чать
▁м э
▁чувство вала
сть ?
▁Де д
▁потря са
▁по ле,
8 ,
▁вз дра
чь е
п лу
▁а ссо
▁На  
▁па кет
▁шо ро
ча ет,
▁поня тно
щ ена
▁О каз
▁соз дал
▁са нти
▁по ре
▁на сел
вай ся
▁С ред
▁слу жил
кну л,
ле со
▁ве ка,
▁пре гра
▁поня л.
▁По вто
хо де
▁У да
▁объяви л
▁соз ер
лин г
▁вер тик
▁от пуск
▁ша га
▁при сл
при я
жде но
▁рабо чи
ба й
▁вз ы
▁У пра
но ра
▁по пали
мен ,
▁револю ции
▁кры ла
ющи й,
▁си дят
▁причи ны
▁назы вал
бо й,
▁Рабо та
▁эк зем
▁пи щи
▁Ца рь
▁сред ств
до вала
es s
▁Вы ходи
▁утро ,
▁на ми.
▁без д
ваю сь,
▁С обра
▁по лы
▁ча сы.
зе л
▁рас кал
▁четы р
▁прода в
▁Н ы
▁полу чает
ц енно
▁хру п
нек до
▁сро чно
▁за дыха
▁Ко т
▁смер ть.
чи л,
▁тра вы
ника ми,
▁широ кой
▁сможет е
▁Дру гие
▁Сте пан
▁ша гом
▁жена ,
▁Хо чешь
ц і
▁равно душ
▁Р э
▁воз люблен
▁ху д
▁Свет ла
▁Четы ре
▁но г,
▁архи те
▁уже ,
▁приз ем
▁напра сно
▁раз ря
▁к м
▁пу ши
▁д ни,
5 ,
▁при несли
▁вет ви
▁то чку
▁распо лаг
▁профессо ра
тся ?
▁яй цо
▁Хозя ин
▁разу ме
▁Спу стя
ма ми
▁э ми
т но.
би .
▁ино планет
о .
▁ф р.
▁понима я,
ле ла
▁т щет
▁безопасно сти
▁испыты вал
▁по та
▁верх ней
▁С каза
▁Л ена
▁заставля ет
▁дет ям
▁хо де
оле то
ль ным
▁у це
▁напря женно
му р
▁Па три
▁Им пера
▁распа х
▁Из раи
▁тол пы
▁длин ными
р хи
▁оста вались
▁Профессо р
▁Гла вное
мотре л
▁колени ,
▁ор ке
▁зе лен
▁Х е
▁гла ва
ман .
▁во де,
▁за вы
▁Х ор
▁ощу щения
га ется
▁доро гу,
▁Петербур г
▁М -
▁во зи
ли цы
▁го ра
▁товари щи
▁Ма ши
▁кровь ,
▁чувство ,
▁ба га
▁бессмы слен
▁плечо .
▁челове чества
▁за вет
жи ли
▁иде ологи
ни ей
аль ность
▁тяже лые
▁за дни
жно .
▁у влека
ди ло
нце в
▁ча ст
▁нач нет
▁гу бы.
▁подо йти
А :
вл ение,
▁Бра т
н.  –
▁при шель
▁просто ,
▁кив нула
▁у стой
ссо в
▁ле су,
▁кар ты
▁двер ях
ць ,
ща я,
▁про сле
▁гро б
▁ши ри
▁каб лу
▁при сел
▁где ,
зи ру
▁ме шок
я х.
▁расска жу
▁Рас ска
▁х лы
▁Ц вет
ска й
▁Не ве
▁бе лыми
▁планет е
носи л
▁дога да
▁умере ть
▁ч лена
▁вс кры
▁на пе
▁отдель ных
▁дости жения
▁броси лись
▁прос вет
▁обы ча
▁Нем ного
▁прох лад
▁вещи .
▁за стря
ка …
▁дво рец
▁несомненно ,
▁ ён
я ла
▁ро га
▁подоз ри
Е С
▁Е ги
▁путеше ствен
▁таки е,
▁стоя л,
▁хоти те,
▁по пала
▁внима ния,
▁доби ться
▁о ше
▁голо д
▁дело ?
г алась
т алась
▁Оста нови
енно -
▁возь му
▁ку вши
н ка,
▁Ника ких
по ра
▁ви ден
ня лись
▁по шевели
▁повто ри
спо нд
▁пет ру
▁сер ы
лет ,
▁ре цеп
▁наск возь
стя ми.
▁по вести
▁ти ра
ска ть,
▁с вы
▁источ ник
▁теле грам
▁юно ша
▁существу ют
▁экзем пля
▁проме жу
▁из дели
▁П О
▁При зна
са жи
▁бы вает,
▁вол на
▁за глу
▁с частливо
▁карма не
▁Серге евич
▁за дро
▁золо тые
ки …
▁деся тки
нь ем
▁7 .
▁февра ля
▁посте ль
▁об щий
▁по душ
▁По шли
▁ше ле
то н,
▁лег кий
▁од на,
▁Лю д
▁реа ги
▁началь ника
▁М ю
ф ра
▁Ве ро
▁поти хонь
▁С вер
▁бы вал
▁по крови
▁е й.
▁сю р
▁фран ц.
▁наро да,
дно -
д зе
▁госпо дина
▁напомина ет
кто р.
▁мар ки
▁Ла ри
▁изобре та
вали л
че но,
▁маши ну,
▁Му жи
▁при мени
из вест
▁ощу тил
▁куста р
▁мол чал.
▁То ма
▁пере шел
▁От сю
▁пес ня
▁Г ей
▁ро т.
▁физио номи
▁я -
▁поми мо
▁принадле жа
ё к
ди я,
▁принима ет
▁l a
▁види те,
▁спи ну,
▁Б он
▁распо ложи
▁та ре
▁не дол
▁Нач аль
▁до му,
▁Д рев
▁попроси ла
▁поб лаго
▁взгля дом,
▁Га м
▁рай он
ен ными
▁па п
▁и дей
▁вид ны
▁недо у
▁печ ально
▁Е р
ро вать,
▁изы ска
▁отдель ные
▁сразу .
дет .
▁И гна
▁тихо .
бро са
▁З доро
▁подо бра
▁ку чу
▁да вно,
▁ка толи
▁чу жие
па ет
▁объя тия
чка ми.
▁от ро
▁приня лись
▁пред ъ
▁к ъ
▁моло д
▁воз ро
▁некото рым
▁осо бой
▁О дни
▁Роб ер
▁ко пы
цвет а
▁кварти ры
ющи х,
▁то ми
▁У диви
▁продол жая
т …
▁Со зда
лет ы
▁упраж н
▁от ряд
▁ше е
▁кабинет е
та м,
▁по нес
▁пес ча
▁выполня ть
▁хи хи
▁не яс
▁от тол
нем но
▁подо ш
▁офици ан
жи в
т ка,
▁сум ра
▁ко стер
▁следова тельно,
▁чер ным
▁па с
▁пригла сил
▁про сту
▁ р.
▁встре титься
▁вла ды
▁усе лся
▁пожал е
▁Ма тери
▁сви н
▁Т ю
▁упо рно
▁энер гети
▁позво лил
▁Но во
▁чер тов
▁ма нер
▁обра зе
▁подо би
▁очи сти
▁наши ми
▁друго м,
▁а ристо
▁дел ала
вер шен
▁собствен ную
▁кровь .
▁чер ную
▁при об
▁причи ной
та ?
▁го ры,
ха ми
▁раз ница
c e
▁оде жде
чо к.
б ление
му ля
er s
▁бо ли,
▁впря мь
▁В ене
▁мн ению
▁не ра
▁о чки
▁ч ем,
зи и.
▁вслед ствие
▁её ,
жен ную
▁зар пла
▁про сыпа
▁финан со
▁огром ная
▁поблаго да
▁Ч ере
▁дене г.
▁мой !
▁у ла
▁обра бо
▁ку па
я !
ше го,
▁на ход
▁Му зы
▁ко ля
▁домо в
▁су дить
мен ы
▁пойм ал
та в
▁жи вого
▁вы ли
▁шам пан
▁глав ной
▁подня лись
▁эффе ктив
▁ту н
▁про ле
▁за полни
▁п шени
▁О Н
р ги
ца х
▁на гре
д ала,
▁ча сы,
▁чер да
вь ю
фо в
▁сущ ности,
▁ле са,
▁действи й
▁попыт алась
▁Фе доро
г ере
▁могу ,
▁О би
▁поблед не
▁х ан
▁об нял
▁пой ма
▁про ходя
▁погля дел
с вя
▁Его р
▁Мари на
▁свет я
▁конку рен
▁изобра жение
▁вы ка
▁ны р
г реди
▁ко мо
м.  —
▁му нди
▁реши лся
▁при способ
▁ж аль,
▁да вая
▁ид ёт
ни ст
▁впло ть
▁то й,
▁н ю
▁це п
▁приро да
▁Нет , —
▁прия тель
▁сред ство
▁во о
▁улыба ясь,
▁из бу
п пи
▁Воло дя
▁не га
▁Фе дера
бо м,
на ти
▁хи ру
▁когда ,
▁коли чества
▁сту л
▁останови лись
▁вы пил
▁Мы ,
ш ена
▁Россий ской
▁ше ве
▁ресто ран
▁Александ рович
▁тер ра
▁ок на.
▁письмо ,
▁дела я
▁свобо ды
▁Ан ти
▁воен ной
▁заме д
з ды
▁ощу ти
▁П ле
▁а рен
▁закры ла
И З
▁се стры
▁внима ние,
▁су ста
те ли.
и х,
▁ска фан
б ерт
▁ш ур
▁быстро .
▁Джо на
н ется.
▁поки нуть
▁це лые
▁оча рова
чи вый
▁все возмо
▁стал ки
▁при ехали
да ние
чи ком
Я .
ть ю
▁плем ени
▁зо ву
▁спи сок
▁4 2
▁Ви ть
▁пле чи,
▁суб ъек
▁высо ты
ваются ,
▁га ра
▁Ме ль
▁стро ить
▁цели ком
▁до лю
▁Хо тя,
▁Смотри ,
▁скоро сти
▁ру к,
▁при н
▁неи с
▁самы ми
чи вая
▁с жима
▁я в
бе й
▁убе жи
ко вую
▁одино че
▁свобо ду
▁поня ла
7 ,
▁пе даго
▁сист еме
т,  –
▁прекра ти
▁благо сло
▁по мя
то ра,
▁дей ствует
чу т
▁ожида я
▁Ка н
▁х раб
м ра
▁Ели за
▁содержа ние
▁отве чала
▁вто рое
▁говорил :
▁го спи
▁д но
▁Бе зу
▁всю ду
чи лось
▁Ми л
▁стра ны,
▁осуще стви
▁столо м,
▁за мира
▁Л ер
▁от го
д ем.
▁цве тов
▁губа ми
▁10 .
▁пу та
▁послед ствия
▁об ле
▁ле бе
ти ру
▁сухо й
▁требо вания
▁Ха й
▁уничто жить
▁останови лся.
▁бе да
ч ной,
▁представля л
▁слыш ала
▁существо вания
▁вос станов
▁вра г
▁Са ми
ленно е
▁нетер пеливо
▁ро б
▁Ос нов
▁но з
ро вой
▁цвет у
▁вз мах
▁ра цион
▁тер ро
▁Расс каз
▁не благо
▁Ми тя
▁горя чо
▁поня ли,
▁ти пи
▁по чу
▁поясни л
ди т.
сты й,
▁К ле
▁тран спор
▁сказать :
▁побли же
ва ющим
▁сэ р,
▁наро чно
▁ щен
▁произошло .
▁Христо с
мо ли
пре ки
▁вы ?
▁в лез
мот ала
▁ли ц
ль ную
▁ко ры
▁тра ва
▁сто ла.
▁пло ско
▁геро я
во в,
▁оста валась
▁следу ющие
▁л бу
▁принес ла
▁стре л
▁зи мой
▁фу н
▁стоя ло
нен ный
г ене
жден ный
▁Во да
▁Михай лович
▁3 ,
нима я
▁Са ра
д ена
▁вста ть
▁бе л
▁По да
▁ра к
▁у ех
▁настоя щей
зу т
чет .
▁вокруг ,
▁зда ния
▁Н ю
▁подбо род
ou s
ма то
▁И ри
▁а том
▁насла жда
ден ,
▁я вления
ку п
▁раз дели
та ри
▁у хажи
▁наблю дать
▁поч тен
▁соро ка
ци а
▁но с,
х -
н ется,
▁Да , —
дно сти
▁окре стно
▁поза бо
нова ,
▁демон стри
▁вздро гну
▁ма дам
▁От ве
р эн
▁П ал
▁ч лены
▁за со
▁при тя
▁Бо же,
▁Тво я
▁смо жешь
ха в
во ры
▁неподале ку
с ку.
лет еть
пло ди
▁фак т,
бо в,
▁за гу
▁К рем
▁за дума
бы ми
▁возра сте
▁кно п
ди л,
▁други м,
▁не бу
▁сы на,
▁насле дни
▁истори и.
▁пи ш
▁эффе кт
▁Да н
▁прибы л
▁непо д
▁вздро гнул
▁сол ны
▁постави ли
▁за будь
▁плохо ,
▁побли зо
▁ду шо
▁настро ение
▁тон кие
▁отли чается
▁глубо кой
▁про сла
▁язы к,
▁говори шь
ни ку.
шед ший
▁видела ,
▁ми ф
▁го рю
▁Ф ар
▁со шел
▁зако ны
▁выгля дела
на й
▁Шек спи
▁Пер вым
▁За бы
▁вс плы
ро вать.
ков ник
▁здесь ?
се ли
ку !
▁интере сно,
▁посте ли,
▁все обще
▁аген т
жда ют
▁за явля
▁ еру
н ских
▁про лета
▁опо з
▁стои т.
▁Ка ким
▁длин ной
вич .
▁ста ви
▁возник ла
то ра.
та ны
▁заня ться
▁судь бу
▁мило сер
▁серь ёз
▁и ного
л ала
▁ребя т
▁пла мен
▁се сть
▁пере вел
▁само лета
▁у ще
▁ве дут
▁ужа сом
▁про бира
▁случи лось.
▁информа цию
▁а некдо
▁во проси
▁схва тила
▁матери .
▁но сить
▁бо юсь,
▁бата ре
▁Ост альные
▁женщи ны.
▁Бу дем
▁ре сур
ально сти
на го
▁спе ц
▁побе жала
▁гипо те
▁Те о
▁хри пло
▁проговори ла
ха м
ти й.
▁вопро сы,
▁произо йдет
▁отк лик
▁г эта
ски вая
▁Зде сь,
▁ку ку
▁пе щ
▁круп ных
▁об мен
▁д рем
цо м,
▁из ве
▁рю м
телем .
▁непри вы
▁тихи й
ли :
▁запа с
▁с бро
▁поцело вал
▁за са
▁да !
▁бассе й
го -
▁вы яс
▁об ло
▁стран ным
▁су деб
▁М ерт
▁про чие
▁ла во
ш ная
▁насе ления
▁двига ться
ваясь .
▁плат фор
▁3 00
▁хо тим
▁поки нул
▁Фран ции
▁по тери
▁отказа ться
▁стои т,
н ём
▁Э ми
▁по мы
▁за сло
ров ка
▁пов сюду
▁Кри сти
ко вать
▁Ар хи
▁воздух е,
▁дежу р
ва но
▁но че
▁пере мени
▁Э ту
ги б
ща ясь
▁Уи лья
▁про пал
▁у йдет
▁в правду
2  
▁хоте лось,
ро к.
▁у зо
▁помо рщи
▁други е,
▁ча са.
хва тив
▁а ж
ну тый
▁ру ке,
рован ного
ли и
▁вер ы
“ .
ке ?
▁с еть
▁бума ги,
▁бук вы
▁ ем
но доро
“ ,
▁не ту
▁очень -
ция ми
▁па тру
▁вечер у
▁кусо чек
▁взволно ван
▁един ственная
▁О те
▁Зна ете,
▁меч тал
▁бур кнул
▁распа хну
▁опасно сти
▁не ду
▁бе га
▁воспользо ваться
▁Кра си
▁ребя та,
▁снова .
▁ребен ка,
▁дис ципли
▁ответи л,
ты й.
▁похо д
▁пе чень
▁чере с
▁укра ин
▁с фер
щ ения.
▁а ку
▁по ступил
▁ок ружи
▁пла мя
▁сне г,
▁вокруг .
▁баш ма
▁не долго
▁позво ни
▁народ ,
ко ва.
▁зао рал
▁него дя
▁нес ет
▁впечатл ение,
▁пере клю
▁следу ющего
▁по хло
▁но гу,
▁замети ть,
вно .
▁ щ
▁Ав гу
▁П аль
▁Да йте
▁тем и
▁собственно е
▁ин тен
нь и
ри я,
▁те плы
▁связа но
▁слу жеб
▁кар ту
▁само ле
▁чу жих
▁так -
▁взя в
щ ения,
фо м
▁устро ить
ску р
▁Б ет
▁люби ли
▁неболь шую
▁спра вля
▁кре й
▁ру чку
▁тер ми
▁ et
▁эст ети
▁горизо нт
▁то вар
▁напо ловину
▁зуба ми
▁в че
вл ению
▁А лла
▁рабо чих
▁смя г
▁сообщи ть
▁пу х
▁не ж
са ми,
▁фе но
▁глаза х.
▁тем ных
фи зи
▁О казы
▁фами лия
▁кля т
▁чемо дан
▁чер ном
▁ве ков
▁обы чно,
▁пулем ет
▁Все х
▁осо з
▁небре жно
▁пло ти
во м.
сти ла
▁ту пи
ция х
▁раз бо
▁194 1
▁не ко
▁страш но.
▁Ми сс
▁наклони лся
м ъ
▁го стя
вно е,
▁   -
▁девя но
▁Не бе
▁под пи
шин ство
▁доста ть
▁согласи лась
рен ных
н ку,
▁до чер
▁полу .
▁смерть ю
▁вражде б
▁произнес :
ты х,
▁без жало
▁счастли в
▁Р ан
▁подо ж
▁Григо рий
▁обра щая
▁вы дум
▁при чин
▁ка нал
ни це,
▁защи ты
р да
▁ин ду
вал я
▁сказа но
▁ко шка
▁круп ные
▁учи теля
▁за полня
▁Все -
▁провери ть
▁Скажи те,
жали .
▁Неожида нно
h t
▁ле с.
▁по вод
▁про нес
▁би ть
p ы
▁добро воль
▁спо ри
▁ве дро
▁По р
▁ще дро
ш ю
пре сси
зо м,
» ),
▁пока жу
▁Те х
▁он ?
▁компа ния
▁лю бые
▁город ской
▁я дер
▁горь ко
▁С пра
▁от части
▁Сэ м
▁выходи ть
▁с бы
▁основ ной
щ ем,
т кой
ш них
ё т,
▁зара баты
▁обще е
▁ви дят
▁пе чат
▁под бе
▁боль ,
▁возвраща ться
▁Хол мс
▁санти мет
▁наз вания
▁запо ве
▁яй ца
▁бои тся
▁служ бу
▁станови лись
▁шесть десят
▁об служи
▁уз нала
ев на.
▁Ис па
▁ры да
▁людь ми.
▁созер ца
▁иди от
▁зда ние
▁объ един
ве ре
▁сер ые
▁на полнен
▁выра жением
▁огля нулся
▁рез ер
t p
▁Ночь ю
▁четвер ть
▁Отсю да
▁дума ет,
рен ной
▁на щу
▁Мат ве
▁вы вер
▁ну жды
▁вздох нул.
▁Пар ень
▁стара тельно
▁прави тельство
▁В нутри
▁кру же
▁горо де,
▁обы чный
▁1 /
▁поя вления
▁генера ла
▁я . –
▁Ме ч
▁сти х
▁поско рее
▁говори тся,
▁С ми
▁Григо рь
▁при ся
ш лись
▁Би бли
▁ноча м
▁Му ра
▁последни м
▁ру бе
▁за ру
ку р
▁предстоя ло
▁лихо радо
▁хо дят
▁к ален
ник е,
но вый
▁вер нется
за и
▁Бабу шка
▁на р
▁пере ры
▁пере йти
▁пере бира
на …
▁е хал
▁тво ем
▁00 0
▁установи ть
▁за ши
▁бо дро
▁тер пеливо
▁Бе л
ски х,
▁на вести
▁о ве
▁мете о
▁неспра ведливо
я :
▁под писа
▁сы но
▁Эти м
м бо
▁разгово ры
ет !
▁вер нее,
▁Д ья
разу ме
▁ж дать,
▁увидела ,
▁стен е.
▁Ребя та
▁совер шил
▁но вень
бя за
▁откры вает
▁уго дно.
▁зали ть
▁находи ться
▁Х э
ди и.
▁сер ый
▁нам ере
▁после довал
▁ le
то ром
нец .
▁бю ро
▁По ля
▁ото шел
▁ча со
▁бессмы сленно
▁Ки та
▁муд ре
▁дру гу,
▁ве рил
▁дол гие
жен .
▁при вле
▁выбра ть
▁окра и
▁двена дца
ж кой
▁фотографи и
▁Александ ров
▁стра сти
▁вопро сов
▁так ти
▁напра вления
▁пу т
▁пе хо
▁ме шает
▁во да,
ъ ем
▁Ча сто
г ря
же й.
▁фигу ры
▁пья н
▁раст ения
▁расс чита
▁се ро
▁насе комы
▁ш тор
е ви
▁что …
и сти
▁коро бо
▁зна чения
▁ки нулся
▁в пол
щ у,
▁Ф ро
▁деле .
▁гре х
▁а пель
о й
ты м,
▁сосед ней
▁оши бо
▁возь м
▁сы н,
▁По ста
▁мест ных
ла гал
▁ка вале
▁тол щи
▁ра д,
▁му жа,
ш ением
▁тран спорт
▁раз дел
▁скры ть
▁ар гу
с ла.
▁3 9
▁теа тре
ще й,
▁сла дко
▁про ни
▁неиз менно
▁у ма.
▁ря ды
▁пы ли
▁и гре
▁следу ющей
▁сме шно
▁Пра во
▁солн ца,
▁судоро жно
▁попро сту
▁скуль п
мо нт
ши в
ща ются
▁кула ком
ро ви
▁ве до
ющими ся
фи ль
щен ная
▁ку ски
▁Впере ди
▁чув ства,
▁м ала
▁дож дя
▁Б э
▁дево чка,
щ ем.
▁бо рт
▁неи сто
т ко
в i
▁Уви дев
▁П ен
▁госпо да
▁Да !
ч ным,
▁че го,
▁доме .
▁подня в
▁Л ар
▁свя то
но вых
▁объ ем
▁колен ях
ж ень
▁сво ло
▁почувство вала
▁би ографи
▁им пуль
й с
4  
a b
▁до му.
▁чем .
▁ку з
▁виде ли,
▁кри ки
▁пес ню
▁вы ходил
то н.
▁пи ра
▁В ходит
▁нео дно
▁костю м
▁Не об
▁до шло
ста нно
▁огром ным
▁учи ться
▁ги бель
▁правда ?
▁хоро ши
▁Не зна
▁мра мор
▁помо гать
▁важно ,
▁кру го
▁разговари вать
▁лестни це,
ст ят
щу .
се ло
▁предмет а
▁десяти лети
▁ра кови
▁преу вели
▁чу да
емы м
▁зеле ной
ри сти
▁Х ло
▁бра л
▁солн цем
3  
сти жи
▁ду шой
▁то ск
▁посред ством
▁колхо з
ри лась
▁просто р
▁ру к.
▁Ди а
▁Е фи
▁да нной
▁бывает .
са ть
▁вз дыха
▁собствен ным
ственно сть
▁присут ствие
би р
▁э ле
▁ду рак
▁ але
но вые
сы ла
▁оставля я
▁ру чь
д !
▁огром ного
▁бле д
ва вшись
▁сади тся
н ки.
▁доб рые
це й,
▁ожида нии
ально -
▁Не за
сти к
▁м аль
▁хоро шей
▁огонь ,
▁меньше .
▁еже дневно
▁из мель
ваются .
▁доро ге.
▁оте че
▁Ю .
чески ,
▁неторо пливо
▁мел ких
▁счита ют
ложи в
▁Я р
▁Ар ми
▁ком мер
▁ярко -
т ливо
▁так си
▁Об ще
▁фа ке
▁долго е
▁18 0
▁ш кола
▁вер ю
ст ка
▁Со фи
▁встре че
▁раз дум
▁д жи
то вых
ет :
▁Ми н
▁мет ро
▁пись ме
▁деся ток
▁су ти
▁пока чала
д ём
▁друго го,
▁при ступи
▁ста вит
▁иначе .
▁шан с
▁ста рую
ха ть.
▁подсо зна
▁вели ких
▁ха о
ден .
▁ме ш
▁по рти
чи вать
▁фу ра
ду ши
▁кро ли
щен ного
за я
▁Тол сто
▁под раз
ев на,
▁стра на
▁демон стра
▁нога ми.
▁ко со
▁жела ет
я ми.
ется :
▁уго вари
▁У а
▁женщи не
▁хоро шим
▁бере гу,
▁без зву
▁8 .
▁На пра
ня ются
▁дого вор
▁сказ ы
▁ска жи,
▁раз ворачи
▁Ча сть
▁об ходи
: //
▁слу чалось
▁пе сок
шен ного
▁из му
ци о
▁со ю
▁с жал
▁выясни лось,
▁су тки
▁по немно
▁пере стали
▁неизбе жно
▁хозя ева
▁про воз
▁спо рт
▁при в
вало .
▁успе ш
▁у ма,
▁фона ри
▁4 1
▁Товари щ
▁постави ла
говори ть
жи га
сть е
▁ум ре
чка х,
▁кам ень,
▁парти й
енно сть
▁сле зы.
▁сц ене
бар ди
▁ка но
▁ж дать.
▁дыха ние.
▁ту рец
▁рассказы вает
▁Два дцать
вед ение
▁обнаружи л,
▁но …
нем .
▁вся кую
▁всего .
▁мас су
▁настоя щим
▁ht tp
▁спраши ваю
сев до
ле ли
▁та б
▁зу бы,
ш ё
▁дво ра
▁возвращ ался
▁Во с
▁дер жала
▁име ем
▁б ала
▁Ио си
▁на бере
▁с лё
сс ,
тель ный,
ш ние
▁по верь
▁снова ,
▁позво но
▁Кра сно
▁добра лся
▁един ственной
is t
▁мн ению,
ри в
дж ер
▁дели ка
л -
▁По сте
▁Ма стер
▁нем цы
▁Ре чь
ча ться
▁спе ша
▁С В
▁Госпо да
▁Бо гу,
▁те с
▁Ва ди
▁частно сти,
▁ва х
▁Я .
ди а
▁прошло й
▁неда в
▁обра титься
ци оне
▁ле жать
гла зы
▁про читал
▁успе шно
ле ра
▁Сле дова
дель но
▁сп лю
▁улице .
ешь ся,
▁цвет а,
нима ть
влен ным
▁работа ют
кну лись
шь ся.
▁Пер вые
▁ми ром
▁его !
▁непо нятно
▁для  
▁мото ци
▁сле дить
▁Навер но,
▁соба к
▁при сни
бо м.
к цию
▁Ви дно,
▁Б ей
ало в,
са я
▁нечего .
▁мер ы
ды й
▁Бо юсь,
▁Бо л
▁понима ет,
▁да н
▁ком мента
▁У зна
▁разговор .
▁На сколько
И В
▁ше вель
▁2 –
▁умер ла
▁коман ды
▁корот кий
▁извест ных
▁моз га
▁при нц
▁по лета
▁б лондин
▁три бу
▁обы чного
▁Р ез
▁обра за
▁ис це
▁над ле
▁похо жие
те ле
▁жерт ву
▁успе х
▁по полз
▁За ха
▁в ли
▁пре пара
▁захо тел
▁тиши не
▁ба нк
▁соб ран
ту зиа
гу ли
▁проче л
▁засмея лся
▁Ба ра
▁Иису с
▁тон ень
▁ле гла
▁Сол н
▁ми но
▁И ск
▁краси вая
влен ного
▁па хло
▁противоре чи
▁кно пку
ль ное
бе ри
▁слова :
▁Ж ур
▁желез нодоро
▁диа мет
▁ф ан
сти т
▁беспо ко
▁выдер жал
▁снис ходи
▁его :
▁хоч ет,
▁стра ха,
▁у том
▁проз ви
▁ш ёл
г р
▁удовлет вори
▁огром ную
я ?
▁ту лови
ки вая
▁пы ла
▁двор ,
▁выра жения
го тов
▁со гну
▁спи т
▁ли бе
▁заме ша
▁встре чу
▁дви жу
▁ве ра
▁Пет ру
ше п
л !
жен ными
▁отсю да,
▁придум ал
▁Д им
ч ника
▁во ля
▁счасть е,
▁чего ?
▁фу нда
▁спросила :
▁при вид
▁стру и
▁Ко е-
▁Али са
▁простран ства
▁можно .
▁смер ть,
▁5 00
ху ю
▁други м.
ла х
нем о
▁ко зы
ва ра
▁тер ять
▁черес чур
▁С ар
▁гря ду
▁ла гере
▁пред ложить
▁бое вых
▁чувству я
▁к лы
▁И у
ха ть,
at ion
ня ясь
▁ведь ,
▁из гна
▁воло сы.
▁саха р
▁моря ,
▁паци ен
▁пои ски
▁любовь .
▁тре з
ю ль
ству я
▁навсегда .
бо й.
шен ным
▁вы полн
▁прид вор
▁П рой
▁кры ша
▁Оказ алось,
▁необходимо сть
▁па ры
▁осно вы
▁при че
ста я,
▁при ходят
o d
▁сиг н
▁Евг ений
▁про пусти
▁им я.
▁катего ри
▁обрат но,
▁слы шит
▁по зор
шка ми,
▁по мер
▁г -
▁всегда .
▁на гло
▁тыся ча
▁лет ит
ложи ла
▁ча са,
▁вла сти,
ти ль
т ку,
▁про ника
▁наде жде
▁другого .
▁сов ременно
▁лежа т
▁поня тие
▁наро дов
▁тобо ю
▁бор ту
▁б ил
▁все об
▁выпря ми
ж ка,
▁боль ной
▁револь вер
▁проку ро
▁воз на
▁увер ена,
▁спи ну.
▁Боль шинство
▁ж дал,
▁потя нулся
▁оборо т
▁Благода ря
▁Да вай,
▁10  
▁боро ться
мен ной
▁Госпо ди
▁чер те
ё т.
▁нака нуне
▁выполни ть
хи м
▁Те ло
▁Ленин гра
▁от те
▁Хва тит
▁деревь ев,
▁совер шить
▁ско рее,
ти ть.
▁вс ле
▁сторо нам
▁челове ческий
▁треть ей
во ре
▁наре за
▁зна ть.
де но
▁невоз мути
▁Пу а
▁расстоя ние
б ления
▁долго .
▁вспо мин
▁бе жали
▁вме ша
зо к
▁скоро стью
▁поднима ется
▁от став
▁пере бра
▁до жда
тни ки
▁так !
▁Так же
▁счит али
▁кни гу,
Г О
▁ви три
▁зале з
▁ре ки,
▁дю й
▁ча сти,
▁счита ется
▁откры то
ну лись.
▁ге ографи
▁поя вление
хи ми
▁обы чной
▁До рого
▁звез д
▁со би
▁у пер
вл ение.
щ ение,
▁По ло
ви ль
▁чита ет
▁сдела ю
▁при помни
▁принце сса
▁созда ние
▁с ена
▁це ли.
нь те
▁восто рга
▁Послуша й,
▁кух ню
▁4 3
▁обще ства,
▁бо гу
▁за держа
лен ная
▁агре сси
▁Малень кий
▁удер жать
▁а бо
ки ми,
▁з лой
те ла
▁тра кти
▁сы нов
вы ми,
▁поз днее
▁но со
▁О сторо
▁тон кой
▁шта б
▁раз вра
▁ло жка
▁высо ким
▁лени во
▁ново му
▁зао дно
▁утра .
▁опера ции
▁на сти
▁поми до
ем !
ство ва
▁прошло е
▁радо ст
▁важно е
▁полови ной
▁ма х
▁мальчи к.
▁результа ты
ски м,
▁во де.
▁ро бко
ем ?
▁успе ха
▁предпо лаг
▁у бы
▁види м
▁ушел .
п аль
▁висе ли
▁вра гов
▁ле д
▁уз нали
▁озе ра
▁промыш ленно
▁жел ал
▁До ж
▁раз вяз
▁рекомен ду
▁совет ской
▁ж гу
▁А у
▁брать ев
▁бе зы
▁гра ницы
сс .
▁за пы
к ался
▁се стру
▁маши ну.
ти нен
▁посе ли
▁пере стала
▁глубо кий
▁По рт
тя тся
▁па ни
б лей
▁собра л
ена ви
▁представи ть,
▁средне ве
▁ре вно
▁ва ми.
▁обе ими
▁Воз ле
тря с
▁вя з
▁ка ч
▁опасно сть
▁по кро
▁проб л
▁Ка тери
▁по дать
▁корпу са
▁вспо минал
▁на еди
▁ч о
el l
е вича
дя т,
▁ка чество
▁грудь .
▁Никола я
▁про ходил
бер г
▁обыкнов енно
▁стра ну
▁красо ты
та х.
▁поч ет
▁Ц еркви
▁нач ался
▁Ле она
ч ные,
▁под бира
▁А ла
м пи
▁фи олето
ма й
▁прово дни
▁коридо ре
▁настоя щие
▁пла вно
▁тво ему
▁пау ти
▁при меча
▁Д ем
жи з
▁бе лую
▁появля ются
тро по
влен ная
▁по тро
▁при м
▁ги пно
▁раска чи
▁говорю :
▁Ми ни
▁расс праши
▁призн ался
▁голу бые
▁моло ко
▁П ят
▁приш ёл
▁С ку
▁Ди к
▁мо ль
▁Е ванге
▁повез ло
▁серд цу
▁три ста
▁меч ты
▁тем ный
▁тря п
▁ве да
▁смо жем
▁со дер
▁англий ский
▁мар си
▁никогда .
▁смо гут
щего ся
▁мето ди
▁яро стно
▁крас ными
▁ак тер
▁шту ка
▁со стави
▁бы вшего
▁вс пле
▁Д вое
чи ть.
ди я.
▁приним ал
▁мину ты,
ней шие
▁Герма нии
▁неу ме
▁п лу
▁У з
▁Привет ,
си м
ешь !
д ливо
▁Х ей
▁потихонь ку
▁Ма к-
▁Кни га
▁стена х
▁на ряд
бу рга
▁приня ла
нице .
▁вспы хи
▁о ск
▁За пад
чь их
▁взаимо дей
▁при ку
цо м.
▁указы вая
▁сове ща
▁корре спонд
▁у р
▁дру гу.
ки м.
▁ухмы ль
▁Оказы вается,
▁стари к.
▁С чита
▁сиде л,
▁и ль
i v
▁от де
ви к
▁ко ем
▁раз до
▁за ти
зи й
чи те
▁сот вори
▁Пари ж
▁голу б
ре ва
▁д жу
▁у ксу
▁стра ница
ти ровать
▁бес числен
ственно сти
▁дли нно
▁по вяз
▁из дали
▁д ѣ
▁уби ли
Т ОР
▁коф е,
▁полу чать
ш алась
ю ре
▁на су
▁пах нет
▁смысле ,
▁В нима
▁Прав да
▁та мо
▁12 .
вь е
▁хозяй ка
▁туал ет
▁крас ных
ко ву
▁оза да
вши й,
▁там ?
▁мно гим
я зы
▁пла тить
▁рабо тала
▁пяти десяти
▁вскри чал
▁S t
▁в ходя
д ке
▁зам кну
нова .
ерт во
▁обо сно
го то
▁председа тель
▁мо ст
д ались
▁Наталь я
▁Ру ка
▁недо вер
▁ги бели
▁сила ми
с на
тель ным,
▁са му
ры е,
▁малень ким
n d
▁нару жу
жет е
зо м.
▁Извини те,
▁Гав ри
▁со  
!.. »
▁вой ско
ро пи
▁прочь .
▁чер ту
▁е писко
▁Д ви
▁сердца ,
▁Татья на
▁от стра
▁мо сто
АТ Ь
▁ми лая
▁молоды м
п ались
▁непри я
▁тре пе
▁ответ ,
▁за таи
зо в,
щ енное
▁ба гро
▁пло до
▁при вяз
чи лись
▁бессо зна
▁рус ском
▁литерату ре
м бу
▁мо дели
▁ал ма
вани й,
▁тро л
▁г алакти
▁спосо бом
▁Лу на
надца того
▁рас стро
▁С тру
▁мне ?
▁перес просил
чен ко
▁ки пят
▁телефо ну
▁200  
▁остави ла
▁поднима я
▁Ла в
▁дву м
▁Про кля
нь е.
▁наде жду
▁же стом
▁но сит
▁бо ли.
с ?
греди енты
▁е дет
▁под ка
▁хо дила
▁зво ни
6  
▁пер сон
▁он , –
▁Жи во
мет ри
жд ений
ч на
▁п севдо
▁ли п
▁ви л
▁потер ять
▁7 0
▁про пу
▁оты скать
▁Вообще -
во я
▁сле дил
▁по стра
да м,
▁т ере
▁-- -
▁основа нии
▁напра вление
▁поло т
▁де кора
▁сы ну
▁лоша дей
▁ on
не шься
▁ми ль
▁Марти н
з i
▁pа з
▁пере гля
▁провоз гла
▁но са
▁ви на,
▁луч шего
сло ва
▁люби м
ка »
к ни
▁совет а
▁борь ба
▁раз и
▁други е.
▁вздра ги
кра си
▁эн тузиа
▁огонь .
жи лся
▁почему ?
▁учены е
зи ровать
▁Тре тий
▁секун ды
▁собира ть
▁про лет
▁Ба ба
▁Не до
▁на ступа
▁пой мать
▁знакомы х
▁V I
нов али
▁держа ться
8  
ц кого
▁Э лек
▁ал та
▁апель си
▁ци та
▁ви рту
▁зачем ?
вя зан
▁воро тни
к нулась
▁гото вно
▁При ходи
▁од на.
▁свя того
▁ту да.
▁ре пута
▁приходи ли
▁в -
▁вы гляды
▁по шу
▁так …
▁стар шего
▁знамени тый
▁В ряд
▁определ енно
▁повери ть
5 -
ложи те
▁Пер вое
▁за тре
во е,
▁солда т,
сен .
▁жи вым
▁те сто
▁процен тов
▁стол кнов
▁Ф ре
▁связа ны
▁Необ ходи
по рт
▁дру зей,
▁забы л,
▁Ка рти
▁И ли,
▁ск ру
▁Вто рая
▁лег ким
▁дра ма
▁коридо р
я р
▁жизнь ю,
ну ться,
▁су е
ко сть
▁исчез .
▁с меня
▁интере сом
▁приро ды,
▁стан дарт
▁За ко
гу ю
▁стра х,
▁пой мет
▁было ?
▁будь те
▁у ха
▁нарко ти
▁8 0
т ком
▁постро и
▁раз ными
▁надол го
ва и
▁худож ника
▁пропа ган
▁экс плу
▁к .
▁Доб рый
мо му
▁Ви дите
▁попробо вать
▁у езжа
▁внизу ,
▁огля дел
ва м
ра ми.
▁голос :
▁чу жи
▁убе дить
▁хочу .
▁су мо
▁Ар тур
▁рас следо
▁По за
▁лу на
▁у щер
▁па по
сен ,
▁Се кре
▁возь мет
вно му
▁жа жду
▁в ене
▁4 . 
▁заку ри
▁благо прият
▁про жил
▁4 4
▁ро ста
▁вы ку
▁заго вор
▁представи л
▁реши ть
▁цвет а.
▁програм мы
тал .
▁ре зо
▁ре ф
▁при обрет
▁Ска жи,
▁знакомы е
к :
лет ний
ты вал
▁ин туи
▁Про хо
▁сило й,
щи к,
ложи ли
ем ся,
ОЛ Ь
▁скры лся
▁удиви лась
▁справи ться
▁оконча ния
▁Ц ерков
ро си
▁пти ц
▁Ми ну
▁ры бы
▁деть ми
▁до жи
ги ня
▁бол та
▁Ло ша
▁стра ны.
▁закры ть
▁Может е
чи ка,
▁с жим
▁оста ются
▁б ру
▁внутрен ний
ч ная,
▁те лу
▁Ма я
▁краси вый
та м.
▁На чина
т ными
▁па дали
▁образо м.
▁Сов ремен
▁объ явля
▁по кля
жд ение,
▁погру зи
▁ж ёл
▁прав да.
▁при носит
▁жи вое
▁лег кой
▁оше лом
▁ва ри
▁воскли ца
▁три ,
▁буты лки
▁ма сла
▁вра же
▁внутрен него
▁попробо вал
е хать
▁относя тся
▁цен т
▁вы нес
▁сер жан
▁живо тно
ски вать
▁сы ном
рован ная
▁оружи я
▁лег ко,
га ни
▁ма ку
▁до хо
▁Та н
▁внима ние.
▁перио ди
▁друзь я,
▁получи тся
▁живо пис
▁матер ью
▁силь нее,
▁душ у,
▁Доро га
▁ру хнул
▁ма стера
сли ,
▁назы вает
▁це ли,
л ѣ
▁деду шка
▁ви дов
▁сы на.
▁рассла би
▁под клю
▁о да
▁деву шки,
▁дер ь
▁ги пер
▁тра ве
▁воздух е.
9  
▁5 0 
▁приба вил
▁прит воря
▁помощь .
▁тор ча
▁ку хо
зо ва
цен тра
▁негром ко
▁мне !
▁С  
▁ры бу
▁осмотре л
▁сте пи
ни лись
▁но мера
▁стра ж
▁Ду ша
ви на
ля т
▁пред ви
▁ребен ка.
▁упраж нения
ван ным
▁Пу скай
▁г э
▁говор ю.
пе в
▁выи гры
▁крова ти.
▁замети ла,
▁тя нет
та ция
▁под су
Р И
ри е
7  
▁о гла
г н
ко вое
лен ную
ющи х.
Л АВ
▁путеше ствие
▁вс матри
▁а сси
з ья
▁ла пы
з ма,
▁компью те
▁противо стоя
▁плеча ми,
▁не мысли
▁и р
▁вели кое
▁ужи на
▁Пред по
ван ное
▁про го
▁со тен
▁за йти
ск ала
▁обрадо вался
▁про п
ска я.
▁при вели
▁дви жении
▁в ступ
кнул .
▁У тро
▁папи ро
▁бабу шки
▁почему ,
▁ве сной
▁появи тся
я м,
▁друго е,
ча ю
ке :
▁ста вить
▁име ете
▁стрем ление
▁любопыт ством
▁двена дцати
▁Ми шка
▁голо да
▁с нови
▁ло же
▁ше ю,
ющая ся
▁коф е.
▁Ки р
▁запи си
▁Боль шая
▁рассматри вать
▁Тол стого
▁существо ,
ре вно
т вори
▁Т э
▁государ ство
рова ны
▁у ступи
▁кол дов
▁уда ром
▁огром ных
▁выгля деть
клады вать
т еть
▁ма ски
▁тре уголь
▁быстре е,
цион ер
▁пожалуй ста.
▁ком фор
▁а раб
▁от нес
▁поли ции
▁хра бро
▁спи нку
▁зо в
▁А фана
▁Здравству й,
▁отношения х
▁стать е
▁его ?
▁дет али
▁сред него
▁Зем лю
▁пере ход
▁ха -
▁хорошень ко
▁безо т
▁Англи и
нен ные
▁Да ?
▁неболь шая
▁глуб же
▁пла ны
▁Иванов на
▁те пла
▁пер со
▁Бо жь
▁полага ю,
с ль
▁раз думы
▁бро с
▁ре ка
▁кол па
▁осве до
с ет
▁у ль
▁Чет вер
▁в близи
▁аро мат
▁дале ко.
▁забы ла
▁лучше е
▁Ча й
▁кош мар
▁огля де
▁до н
И И
▁ма ч
▁ре мон
▁Ли тера
▁женщи ну,
те х
▁дыха ние,
▁С . 
▁Б ле
во к,
▁ху же.
▁бе дра
ть,  –
▁подро ст
▁зна ние
аль .
▁тю рем
▁Ш ел
▁жи вые
кто в,
▁a l
▁У ни
▁горя чей
▁О '
▁чер вя
▁ба ри
▁производ ства
▁уби вать
▁ри ф
▁дево чка.
▁y ou
▁ск ле
вным -
▁стены .
п по
▁у пру
▁переме ша
▁На за
▁пла чу
▁степ ень
▁А ф
вез ти
▁провор чал
си ло
▁выбра сы
▁хва т
чка !
▁ма м
▁широ кий
б ью
▁дости чь
▁Пре зиден
▁то ма
▁О хо
▁о помни
▁Какой -
▁г лы
щую ся
▁бом барди
▁Пушки на
▁под во
ве й,
▁за ходи
▁сердца .
▁пос лан
▁собира лась
▁сооб щение
▁поднима ет
▁эффе ктивно
▁О -
▁люби мый
▁на ходит
ц ена
▁Бу лга
▁слеза ми
▁Ж аль,
▁вет ром
▁хо тя,
зи ,
▁бли же,
▁Согла сно
▁вс хли
▁Ва дим
▁доро ги.
▁З А
▁пре делы
▁поко ления
▁поме ша
▁О па
▁Ла у
▁в ь
▁оп я
▁предпо лож
▁говори т.
▁чита тель
▁Конечно .
▁кон ца,
▁лу к
ча тый
по в,
▁К ем
w .
▁нет …
▁П си
▁достаточ но,
▁Пав лович
▁услыш ал,
▁спра ведли
▁ря в
▁голо са,
О З
▁отнош ений
▁Т им
▁Фо то
▁исчез ла
ста х
▁д ен
чем .
▁язы к.
ж ени
м i
ча ются
▁тебя ?
▁несколь кими
▁организ м
▁Д ум
▁кри чали
▁предо ста
▁сме ши
▁И рина
жд ение.
▁замер з
▁вер блю
ник е.
▁ще ки
▁подумал :
▁вой ск
▁предмет ы
▁Анд рю
▁эпо хи
▁О г
▁помочь .
▁О Т
▁превра тилась
▁основ ных
▁недо вольно
▁тон кий
▁за з
▁управля ть
▁жи р
▁нео хо
сте л
▁Ви д
▁ок ли
▁совет у
▁До вольно
▁20  
▁выбра ться
▁взгля нув
▁потеря ла
▁вечер .
че но.
▁ли чной
▁та ки,
га х,
▁У  
Н ИК
▁её .
▁ну жд
т ена
▁http ://
▁рас сып
▁Д Ж
▁един ственное
▁ак цен
▁показ ала
▁глаза х,
▁ста рым
▁Вы с
▁освобо ди
▁совет ских
▁и дем
вы !
▁1 )
▁дале е.
▁Ма ру
▁рабо чий
▁фир мы
ги те
▁А ?
▁5 -
ну тые
▁Ва ши
з е,
▁пу шки
▁нау ка
▁Д лин
▁ве ке
▁за кружи
▁ ы
си й
▁ ща
▁уч ё
▁ви сел
▁веще й,
▁С частли
▁надо бно
▁Бо г,
▁стра сть
▁горо ду
▁На про
ф т
▁душу .
▁ко сто
▁принци пи
▁рас кра
▁крыль цо
пи н
▁мень шей
▁незави си
ну той
ч ему
▁С проси
▁ко вер
ве шь
▁предложи ла
▁Г ло
▁чувству ю,
▁мыс ль.
▁Д ев
▁Бо гом
▁по пер
▁за та
о нов
▁бри тан
▁плечо ,
▁ак три
то ми
би не
▁клю чи
▁Поэтому ,
▁древ ней
▁блок но
▁листь ев
▁Ро за
тор мо
▁Зат ем,
▁за кру
▁кни ги.
▁ком бина
▁поэ зии
▁А дам
▁во ров
же чь
▁но гу.
▁рабо те.
▁напря г
▁про вели
▁послед нем
▁я !
▁но су
ре ли
п ления
▁ко ся
▁миллио ны
▁счит ал,
▁воен ного
▁П ЕР
▁ро в
▁мя те
▁на жи
▁Ри с. 
▁у -
▁мо х
▁сем ью
▁Са мый
с мы
▁коллек ти
▁поз дно,
▁нагру з
▁современ ных
▁з ра
▁харак тера
▁научи ться
▁докумен ты
▁Не в
▁За пи
▁То н
▁о но,
▁тет у
▁забы ли
д ными
▁По на
▁К ровь
▁ча й,
▁присут ствии
▁брон зо
▁Ру си
▁ра да
▁сп ла
▁ры же
▁да но
ра !
▁предвари тельно
▁ка шля
▁аэ род
▁б рил
▁Пе с
ти ть,
▁Зи на
▁про вела
▁у ху
▁об ня
▁талант ли
▁с ети
▁ле су.
▁за мах
сту .
▁подня ли
▁кто ?
▁о том
▁Пред ставля
▁гор ни
ан .
▁большин ства
ны :
ю ар
▁до жде
▁нехоро шо
▁вели ким
ши м,
ь те
та :
▁зеле ного
▁мимо ,
▁вы тяги
▁про ши
▁бе спе
▁милли он
▁извест ного
▁Га й
▁тем а
▁пом ню.
▁У вы,
▁воз з
тель нее
▁боя ться
▁сне г.
▁это …
▁образо вания
▁сто лу,
ре ль
▁при жима
▁Го ро
▁убий ство
н ке,
▁разре шения
▁воск ре
▁Т ере
▁кораб ль,
▁с ,
▁По ле
ки н.
▁малень кое
▁да ром
▁застави ла
▁мето д
▁помни л
▁до стала
▁беспо ща
ф фи
ну ться.
▁му суль
▁незна чи
2 -
Ы Й
со к,
▁про бра
▁кры ше
▁смо л
▁пара ли
▁нео предел
▁День ги
▁вообра жа
▁Челове к,
▁пора бо
▁дне вни
▁отсю да.
ть :
▁заме сти
▁от рез
▁м -
по зи
▁забы в
▁к аль
▁была .
вл енное
▁разобра ться
▁сов па
▁спи ной.
▁силь ным
▁д раз
▁ис чер
▁вст ря
▁ко сы
▁т рёх
▁объясни ть,
▁ли ри
▁со к
У Р
▁О фи
ш ению
▁у вы,
▁рабо те,
▁Спа си
▁убий ства
▁до спе
▁удоволь ствия
▁ночь ю.
▁в начале
▁краси вые
▁нату раль
▁мыш цы
▁Д ен
▁от талки
▁страте ги
ви ,
Л Ь
▁треть ем
▁роди теля
▁сов пад
▁па ца
▁оружи е,
же ство
не сло
▁челове ческие
▁З ло
▁настолько ,
▁К руг
▁об ря
▁фа й
▁дела ю
▁ужа се
▁нер вни
▁принци п
▁опусти в
▁обла ка
▁рассказ ала
▁силь ные
▁ко ну
▁М аль
▁поболь ше
▁солнеч ный
жи т.
▁мо ле
▁Вит али
сто н
▁Мо жешь
ль ка
▁нау чной
▁Г алакти
с ную
це й.
▁Д руг
▁простран стве
▁сту па
▁разме ром
▁Т е,
▁много м
▁Ц ы
▁пожа р
▁кара у
ва ющее
o v
▁по все
▁при глу
▁президен т
▁самостоя тельно
▁счита я
чи и
▁матери ала
▁во  
▁коле со
▁Сол неч
▁ве ль
▁равно душно
▁го рит
h er
▁кры ши
ди оз
ску ю,
▁Ме дленно
▁уса дь
▁молча ,
▁вз ды
▁—  «
▁сказ ки
▁музы ку
▁мужчи на.
▁голо са.
▁рус ская
▁г ,
▁прекрас ная
У Д
то вые
бо в.
▁достоин ства
▁француз ский
ри лись
▁внутрен них
▁ин три
▁баш ни
▁выра жа
▁ни к
▁по правля
▁ ь
▁не мо
▁подо шёл
▁до про
а т
▁то шно
▁Г -
О СТ
▁ско ман
▁конта кт
▁преда тель
нь -
▁Тимо фе
▁возник ло
▁коле са
▁тебя !
▁кла ви
▁при жал
▁автомоби ль
▁высо те
▁ u
▁Г рей
▁проходи ли
▁тол кнул
▁ма ме
т ка.
▁Ге ра
▁невозможно ,
▁през р
ваемы е
▁посла ть
г ало
▁повто рила
▁при думы
▁наро да.
▁то чка
▁семь десят
з ма.
▁загля нуть
▁зако на
▁послу ш
▁жен ский
▁сред ней
▁за гру
▁Здравству йте,
▁ду хом
ца ра
▁им пе
a k
▁уго лов
ш ения,
▁устре ми
▁со п
▁С тал
▁та и
ри та
▁м .
▁колени .
▁тепло й
▁муж ской
▁ж алу
▁не сти
еру сали
▁сегодня .
▁Со се
▁зву чал
▁Ко раб
ро ж
▁у ти
▁надо !
▁вра ча
▁Лу ка
▁дож дь,
▁Он  
веро -
▁занима ется
▁во преки
▁Возь ми
▁да йте
▁сц ены
▁Сло вом,
▁лестнице .
▁пусты е
▁какими -
▁солн ца.
чи ка.
по ста
▁сму тно
с мен
▁смотре л,
▁вы пустил
ваемы й
▁фра г
ди тельно
▁Фе лик
▁ча стей
▁расс мотреть
▁зо вет
▁мя са
▁бес пло
▁2 )
▁руко ят
к ал,
▁Посте пенно
▁невероят но
▁ми сси
▁11 .
▁таки м,
▁да мы
▁показ ались
▁подчер ки
▁древ ние
ци на
▁поз доро
▁з ени
▁филь м
▁лет я
▁пись мен
▁про су
▁Послед ние
▁ста нци
▁бу тер
▁о лен
▁девя ти
▁ре ль
▁ла би
▁услыша в
зи .
▁страш ное
▁к рем
ения х
▁с че
▁До ба
▁бело е
▁во образи
▁моря .
▁4 8
▁ча сти.
▁полити ческой
▁Па вли
▁добро дете
▁ди ало
п пара
е ро
▁ви ся
▁Об ла
▁соста ве
▁меня …
ви ло
да ми.
▁утра ,
a ,
▁при жа
▁сло й
И Ц
▁взро сло
▁су ждено
▁тай ны
▁очу тился
с . —
▁страда ния
чь его
▁ог ни
ко е,
▁ко ше
▁стара лась
▁уви дит
▁ус ло
1  
▁но с.
▁привы кли
▁фра за
▁Ма ма,
▁л жи
o g
О Ч
▁мо к
▁ко те
▁о ш
А Й
▁врем ена,
▁под ряд
▁неболь шие
▁тру дно.
ника ми.
▁полго да
▁стара лись
▁бе дный
▁пода вля
▁фи н
▁зу бы.
▁пои гра
▁ти ту
▁фель д
▁из нач
▁ве ки
ему а
ш ком.
▁голо ва,
▁Чи та
▁учи лся
с нула
це ло
▁до кла
▁Г ран
▁эта жа
▁за тяну
ть …
▁нач ались
▁зер кал
н х
▁дет ской
▁сла бый
стер пи
▁Та р
за й
▁м нения
ше е,
▁пла м
▁во доро
вл ений
▁кто ,
▁да вала
▁9 .
▁дво их
▁се рой
▁су ток
▁но ч
к ало
▁сне га
▁на хожу
г ливо
▁множе ства
ё нно
▁Вален ти
▁шта т
лет .
▁бо кал
▁подум ала,
▁Ты ся
▁на тя
▁пи сем
▁кос нулся
▁I n
▁Но ги
▁пози ции
▁спря тал
▁че шу
▁Констан тин
▁мальчи шка
▁буду .
▁а спе
па ми
▁че сти
сти не
▁ид ти.
о на,
▁эта же
▁рас пре
▁показы вая
▁пре сто
зе ль
▁s t
▁при ема
▁журн але
▁Чер но
▁ле чения
▁живо пи
▁игра ют
лы й.
▁досто вер
en s
▁глаза м
▁у ло
▁з веря
▁со при
▁Бе лин
ним ал
по д
▁гра нице
▁немного .
▁тол стый
▁зво нок
▁расши ря
▁у ка
▁Ди ре
▁ответи л.
л та
▁пят на
▁А пол
▁коло ни
▁ле жало
▁рабо той
▁ве ран
▁тру бо
▁пла ст
▁И дет
▁парт нер
▁тер пи
▁Про тив
▁ла й
▁гото вить
▁ди ск
il l
▁заня ть
▁ме ро
▁твор че
▁года ми
▁Будь те
▁Пет я
▁выра зить
вать !
▁н i
▁дума ешь
▁за но
▁два -
▁вы пь
▁страш но,
▁нрави тся,
▁об лож
▁кра е
▁сле довать
▁Ве чер
▁сапо ги
▁ко ма
▁У го
▁же …
▁А . 
▁я м
чество .
▁Май к
▁до ка
при им
▁возь ми,
▁соци ализ
▁не дви
▁Кра сной
▁на бор
▁теа т
▁зву к,
▁прекрас ной
се ле
▁к лин
▁кон тр
▁зме и
▁во да.
▁ниж ней
▁е ли
▁си ние
▁машин ально
▁совер ши
▁Лер мон
▁духов ной
▁г но
▁большин стве
▁ко ордина
жи на
▁отра зи
▁ви ду.
▁силь ное
▁пере кры
▁высо кая
▁Ре бе
▁авто мат
▁заж мури
▁ша г,
▁аб стра
▁уда ры
▁4 ,
▁геро ев
▁рас писа
ж ер
▁тер мо
▁обла сть
чит ала
▁х ран
▁необходи мые
се ц
▁Дж ер
▁за вали
▁ску чно
▁теа тр
▁деся тка
ку ли
▁она . –
▁э -
▁пы ш
▁друго му.
▁ щё
▁тол ком
▁ма мы
▁или  
▁дей ство
▁Некото рое
▁Еги п
ши сь
▁четвер тый
▁у ступ
▁а да
▁остро ве
▁з ли
▁дум али
ля ли
не ?
зи ю
▁уг ле
▁ще ко
▁бере гу.
▁о форм
▁авторит ет
▁разоча ро
▁произ нёс
▁три жды
▁при во
▁коман да
ней шим
▁е ды
▁сла ву
жет ,
▁кабинет а
▁К П
▁вдво ем
▁поло жено
▁сосредо точ
▁Из ви
ви сто
▁следу ющую
▁бума ги.
▁него до
▁корпу с
ла й
ю ми
▁Зна ю,
▁види т,
▁основ ные
▁мужчи ны,
▁жи д
▁Ат лан
▁о ,
▁пе в
▁золо том
▁работа ть.
▁з я
▁стра ха.
са р
▁изда тель
▁живот ное
дох ра
ш ер
▁англий ского
▁уме ют
▁Д не
▁фо ку
во ю
▁исклю чи
▁занима ет
▁у шел,
▁капита н.
▁пона чалу
▁и го
▁отправи ть
ну лись,
▁от того
▁Сем ь
▁та кая,
▁спокой но.
▁недо ступ
ъ ю
▁двор .
▁возо б
НЫ Й
▁пере хо
ющую ся
▁подъ ем
шенно е
▁мас сы
▁ра стре
▁аппара т
▁хол ма
▁еще ?
▁жизнь ю.
▁они .
▁конец .
▁вы ез
▁е ги
▁Ж ор
▁вер ный
▁ли .
ны р
▁соответ ствует
лы х,
▁и ...
▁Евро пе
▁лег кие
б род
▁необы чай
▁ф ур
▁поч т
▁поз же,
▁за бор
▁похоже е
▁за меня
▁послу шно
▁безобра з
▁челове ческое
▁мо де
▁страш ной
▁пра ве
▁какому -
по тре
▁дер жали
води ли
▁4 -
▁сдела в
▁но выми
▁Ко нец
▁от вле
▁научи лся
▁груп пу
▁кро ко
▁пло ть
▁пи р
▁демо кра
▁Э ри
▁дерев ню
▁Аль бер
▁что !
▁рабо чего
▁вме ши
▁по де
▁ко мен
▁предположи ть,
▁реб ё
▁о ха
▁го сте
▁при ехала
н ка.
▁вопро сы.
▁му жа.
▁уда ется
і й
ень я,
▁Хо тел
▁ис кри
▁таб лет
▁радо сти,
▁поб ле
ди тся.
ки »
▁Бер ли
▁суще ства,
▁э ли
ль -
▁совер ша
не л
▁тру бы
АЛ Ь
▁Пом ню,
▁С перва
▁испы тания
▁Пла то
▁из влек
▁начина ю
▁ци р
▁нее сте
▁нрави тся.
▁ген ети
▁случа я
▁созна нии
▁порт фе
▁кру гу
▁до шел
▁дра мати
ваемы х
ра м,
жала .
▁Ни что
▁ко ша
лена я
▁си ле
▁поправи л
▁побе жали
▁Х ру
▁тени ,
▁ле со
деть ,
ви лись
▁ин тона
▁шо фер
стра сти
▁спи р
▁та нки
▁дере ва,
▁Д эн
▁стран ная
▁Ра до
▁погре б
▁Есте ственно,
▁у жин
▁пере ка
▁судь бе
▁про ход
▁коми сси
▁Пись мо
▁спекта к
▁раз во
▁мо сти
▁му чительно
▁Ж ел
▁изу ми
ни н.
мы й,
▁на брал
▁наступи ла
▁поня ть.
▁Т вор
▁газ ете
▁XV III
▁ули цам
▁По ве
гну ли
▁шах ма
вез ли
▁Дру го
е :
▁тяже лой
ну :
▁со во
▁продол жение
▁прав де
▁ш ты
▁бо ясь
▁пове сть
▁люби шь
▁донес ся
▁жу ж
▁впере ди,
▁Ма г
▁ответственно сть
▁Доста точно
▁со вести
и ло
▁стре лять
▁глухо й
да я,
▁писа телей
▁сцен у
▁у ходил
О .
▁тысяче лети
▁е хали
▁га до
▁Ва ня
▁бо тин
▁положи в
ди ка
ч ным.
▁необыкнов енно
▁кор пора
О Ж
▁пле чи.
зо в.
▁стра хом
▁прав ди
▁случа й.
▁встре тились
▁изобра жения
▁люби мой
▁себя :
▁усили я
▁произо йти
▁о зер
▁Гра жда
▁полу чения
ща ю
ч нее
▁я вление
про во
▁пры гнул
▁Л из
▁О л
▁кла ссо
▁по ехали
▁си лу,
ж то
х ала
▁у един
▁ма му
▁стра ницы
▁способ на
▁ц ена
▁убе жден
▁поряд ка
во в.
▁буржуа з
д ки,
хо ва
▁съ ем
▁зада чи
▁рус ским
▁лично сть
вшем ся
▁цы по
▁золо тых
▁конку р
▁жена .
▁мо тор
▁ка пля
▁Ко на
▁сказа ть?
▁смотре ть,
▁ча шку
▁желе зо
▁дет ский
▁зах ле
▁за вери
▁застави ло
▁ней тра
▁пе чать
х :
▁по жала
ви лась
▁С кал
▁случа ев
▁иск ренно
▁кораб ле
▁Я …
▁чу гу
▁со страда
▁па хну
▁Ка кого
▁пи во
лись ?
▁труб ку,
▁со мни
▁пер си
▁начин али
▁бо га,
▁себе :
▁пере ве
▁ст вол
▁поло н
▁Ме л
▁Б аль
▁пере носи
несли сь
▁раз броса
▁сту ль
▁про кри
▁по пла
▁заня т
ва ку
▁Эли за
▁проник нуть
▁бо гов
▁по ведения
▁с вал
▁не сло
▁специ фи
щ ение.
дите ли
▁прои гры
▁Оте че
ш ком,
▁ис пе
▁за цепи
▁ле са.
▁уда ря
▁опусти лась
▁эффе к
▁ост аль
тель ным.
▁гра фа
ч ны
▁дру жно
кну вшись
▁ощущ ение,
п па
▁без дель
▁воен ный
▁см ят
▁ли н
▁небольшо е
▁хо хот
стя х,
▁несчаст ный
ви ди
з м,
▁млад ший
ско н
ва ми,
ству ющие
й ду
вани й.
▁у пира
пар та
ё м,
▁улыб нулся,
▁свобо дное
▁сла бе
▁и у
▁кри ком
у з
▁боль .
▁интен си
то вый
▁про стым
слу ши
▁нару жу.
▁умер .
▁ку зне
▁П ин
▁В ере
▁Воз ду
▁води тель
▁най дется
▁ска жите
▁пу н
▁э хо
▁кон ферен
▁за каза
▁за вяз
ри ст
▁Де ду
▁Э .
▁право ,
▁ви д.
▁Они ,
▁про ре
▁чита теля
▁гло б
▁фа ктически
ста м
▁выходи ли
▁движ ения,
▁произвед ений
▁Го ре
▁меро прия
▁зна ешь?
▁кру то
▁подру га
а ги
en d
▁чер ни
▁напо минал
▁деся тков
▁пара док
▁ос во
▁потеря ли
▁про же
▁Ле бе
▁дя ди
▁Ин гредиенты
▁нрави лось
лыша в
▁от пустил
▁пов реди
ться …
▁встре чал
▁речь ,
▁осо бый
▁ле сной
▁не воль
▁Бо й
▁У ин
ень кий
▁заболе вания
▁кораб ля.
▁с форми
▁бо д
▁стар ши
▁у мер,
▁пуска й
нь я.
спо кои
▁при том
▁Ка к,
кая сь
▁предо ставля
▁мура вь
▁глав ных
га на
▁госпо жа
▁вышел .
г -
ско е.
▁лет и
▁кило грам
▁бе ле
▁гра би
▁ска тер
▁в кра
а три
▁многочислен ные
▁возна гра
▁Э лли
▁говори шь,
▁под по
▁представля ют
▁постро ить
▁один надцать
ден ти
▁Взгля д
▁близ ко,
▁тен ден
▁впечат ления
▁про дать
ви да
▁само е,
▁тра ву
ни лась
▁Андре я
▁Ком на
▁Вели кого
▁небе са
▁суро во
▁дум али,
▁ве д
▁предлага ет
▁дальней шем
▁обы чных
▁воен ные
▁об рыв
▁Я зы
▁деву шке
▁зе лени
▁Моск ве,
▁т ще
▁чу ди
▁понима ть,
▁отправи л
▁эти м,
i b
▁ответ а.
▁Б рэ
▁бес при
▁К с
▁улыб нулась.
▁крас ная
▁Кла в
▁гран диоз
▁перво му
▁Пу ть
▁дет и.
▁чей -
▁многочислен ных
ду ше
ш ли,
▁челове ке
▁проек т
▁в рез
▁об го
▁уди влен
▁к ря
▁собствен ными
чи т.
▁вопро сом
▁сму щенно
▁деревь я,
▁ро жда
▁получи в
▁У ли
▁ис ходя
▁Та кого
▁чи стый
▁ба нка
▁всем .
дите сь
▁ре п
х нули
▁запи сь
▁в аль
▁разру ши
но вым
▁спи ны
▁при дви
▁фигу р
▁пя ть,
▁3  
▁джентль мен
▁Про ко
▁гла зом
▁еди ной
▁Ники та
те :
▁понима ешь
▁Раз ре
▁полу но
▁Вели кой
▁мо ду
▁b e
▁пробл ему
▁тол пе
▁пра вом
щ алась
▁Э два
▁ножо м
ви сты
▁са ми,
▁муж ем
▁тиши на
▁дете кти
▁телефон .
▁гри ма
▁дви нулись
▁Бе лый
ени ,
w w.
▁през рительно
▁попроси ть
▁В низу
▁Сейчас ,
▁гу сени
▁Чер ный
▁соба ку
▁при ше
▁м яс
▁уме ю
о ны
▁говори тся
▁от мах
▁путеше ствия
▁поне дель
▁почувство вала,
▁прибы ли
▁цве то
мя те
стави ла
▁сер жант
▁ветер .
ф ар
▁м ёрт
▁тре тья
пол но
▁государ ственной
▁доро гая
▁юри ди
▁под кра
▁меся ц,
пи лись
▁си ний
▁спи ной,
ви ду
▁по при
▁нач нут
▁говори те,
▁глав ная
▁ди ка
▁цивили зации
▁ме бель
▁поко я
▁наблюд ения
▁чу жа
▁опти ми
▁доб рых
▁за печат
▁вы пла
▁ос мели
▁доль ше
де раль
▁вы полнения
▁На ста
ко т
щим ся
▁поним ала,
▁за пря
▁преодо ле
▁испу гался
▁Свя той
▁пол ные
▁17 9
▁за гла
▁подоз рительно
▁хоте лось.
▁Чар ли
▁Фран цу
▁Г ром
▁сне гу
э ,
▁направи лась
▁мы .
▁чер то
▁случа ю
▁ро до
▁Евро пы
▁приве ло
▁ко пей
▁встре тила
▁не стерпи
ков ского
▁И ерусали
▁вы ложить
▁секре тар
ющи е,
▁госпо да,
▁су гро
▁от влек
▁замети ть
▁осень ю
▁Про из
▁описа ние
▁разговор ,
▁Сту па
0 –
▁ки ше
▁стреми тся
▁М ала
▁мол чал,
▁4 6
▁дево чку
▁Благода рю
▁О х
▁представи тель
▁жиз не
▁сум ку
▁ус лов
▁дога дался
▁предела х
▁све жий
▁сто лу.
▁молча ние.
▁бесе ду
▁пра ва.
▁семь и,
▁полу чит
▁доб рого
▁ли чи
▁з вать
▁преступ ления
▁универ с
▁кух ню.
▁жен ы,
▁ого ро
▁по ле.
▁мину ту.
▁С мир
▁лю бая
▁рабо та,
▁ли чного
ги ми
тно му
шка ми.
▁побе ды
▁задум ался.
▁луч шим
▁уча сток
▁поло жение.
▁точно .
▁от ру
▁сле зы,
▁также ,
▁а плоди
ж ками
▁са ти
▁Наде жда
▁собра ние
▁ули цы,
чи вает
л ки,
▁в люб
▁голосом :
▁зем лей
▁по ху
▁заня л
сто р
▁команди ра
▁гармо ни
▁собственно м
▁арми я
▁тра кто
▁разгляды вая
▁дож дь.
▁вы вел
▁Рича рд
▁не деля
▁вста ет
▁бо г,
▁про спе
сто и
▁капита н,
▁од но,
▁обще ства.
▁ч ье
▁Е лен
ля ции
▁зелены х
▁сдел ал,
ста нци
▁начина ть
▁тай ну
▁По дой
но ?
на -
▁при шед
жи ла
низ м
▁улыба ясь
▁ко че
▁При м.
▁кре сти
▁се рии
▁w ww.
▁подраз дел
▁хле ба,
ш ения.
▁под ли
▁П лю
▁за ту
▁страш ные
▁f or
▁ин вали
▁А ра
▁вз виз
▁Мы сли
▁го ды.
▁осторо ж
▁про стых
▁про дел
▁ле го
▁вся кая
▁благополу чно
▁девя т
▁под ни
▁верши не
▁да нного
ки е.
▁пол ки
▁оби де
▁драго ценно
▁не ку
▁В аля
▁с не,
▁следу ет,
▁ху ли
ска зать
▁един ствен
▁жало бно
▁т кнул
▁зи му
▁ли ния
▁Гла вный
▁м ни
▁кух ню,
▁ру би
▁интере сов
▁4 7
▁впло тную
▁произо шла
▁Се ра
▁Генера л
▁понима ние
▁дума я
▁напомни л
▁представля ется
▁дол гих
▁прави тельства
▁Уо л
▁узна ет
▁Ин ститу
▁два .
▁людя м.
▁ок нами
▁наз вали
▁вз бе
▁лег комы
▁на це
вал :
▁доказа ть
▁медици н
)  –
▁мо и,
к …
▁плю с
▁отправи лась
▁заве ща
al l
▁не вин
▁П ье
ви я
▁ты …
▁замети ли
▁поку п
▁отра жение
дите .
тя бре
▁внут рь.
▁за стен
▁ли ней
▁приблизи лся
И Х
▁О си
▁у стоя
рен ы
▁на ступил
▁прави л
▁страш ного
▁лет еть
▁Л ит
▁то чь
▁представи телей
▁возвра щения
▁Вер хов
▁реально сти
▁малень ком
▁шу ти
▁использу ют
▁В след
▁возду ха,
▁ка тор
▁в тро
▁эк стра
па ри
▁Ничего .
▁откры тым
▁пу р
▁во дки
▁висе ла
▁пе ра
▁рас че
▁пере ул
▁ус петь
х нулся
▁Ши ро
чи й,
о пар
▁наверх у
▁гре ха
вшему ся
▁до г
... »
▁мест ные
▁вер я
▁дела х
▁надо ?
▁под руг
▁стран ной
▁ап пети
▁стать я
▁под разуме
p я
▁паро хо
▁кон тей
▁ра нен
▁осо бых
▁раст ет
▁весе ль
▁Стран но,
▁внеш ней
то рия
▁а на
▁з ор
▁с бли
▁на кор
▁к ром
i k
▁извест ной
▁конечно м
▁разу ма
▁Ха -
▁хра м
▁молодо сти
▁Ве се
ё м.
▁поко рно
▁раздра женно
О Е
▁бума гу
▁спо т
▁кон тинен
▁де пута
i .
▁бе то
▁со ревно
▁рас прави
▁За да
ст ную
ственно е,
▁люблю ,
▁обраща ться
▁шля пу
▁станови лась
▁говори л.
▁рас ходи
▁из би
▁дело ви
ё с
▁церкви ,
▁стра х.
▁на роде
а к
▁не чая
▁то пор
дем он
▁Со кра
▁Не извест
щи к.
▁осталось .
▁гаран ти
▁вы ходят
▁ст ремя
▁вз лет
▁чему -
▁Тур гене
▁са д,
▁ко пь
▁су ха
каз у
А Б
▁ок не
▁попыт ка
▁вол нов
▁влия нием
▁мир но
ш ко,
▁ти по
▁созна ние.
▁современ ного
▁домо м
ень ка,
▁о пира
▁г ало
▁вы пали
▁Деся ть
▁на пле
▁благо у
▁Ф ред
т тер
▁сте ной
▁нау чных
▁пере плет
▁хлоп нул
▁Росси ю
▁ву лка
▁говорят :
▁следу ющим
▁Т -
▁проче сть
▁пре де
▁То -
▁обра тить
и х.
▁красо та
▁У э
й ся.
▁Поз вольте
▁тех ники
▁захо чет
▁до вести
▁лице .
ту ру
▁опро вер
▁под нес
▁малень кими
ри я.
ма хи
▁Ми мо
▁и -
▁кни г,
чи ки,
▁Ж ал
▁замени ть
▁ма т
сти ческой
▁реши ли,
▁Ла й
▁об думы
▁стро я
▁пред сказа
хо вой
▁Во спо
▁озна чает,
▁кри чала
▁произ носи
▁превра щается
▁друзья ми
ться :
▁свое ю
▁П ей
▁ли ста
▁бь ет
па в
▁непре рывно
▁дости гну
▁из бира
ца м,
▁организ ма
▁крикнул :
▁позво лит
▁п pе
▁пои стине
▁тако е.
▁опы та
▁у пи
▁полу чал
▁озе ро
тив ная
тим ся
▁по кая
ж ением,
▁очер тания
" ...
▁госуда рь
▁обяза ны
▁си ла,
ва емо
▁В полне
▁таки х,
▁дья воль
▁зр ения,
▁Я -
▁очеви дно
▁па спор
▁вст али
▁обнаружи ли
▁1 –
▁женщи н.
▁обяза нности
▁Лу к
б ры
нув шего
▁потя нул
▁яр кий
▁Слы ши
спе шно
▁инжен е
ван ную
▁до ставить
▁уце ле
▁рекла м
▁живот ных,
ск ло
▁дума ть.
▁иллю мина
▁подним ался
▁ре пор
▁па чку
▁меня ть
▁жел тые
▁ !
▁небольшо го
к ей
▁сдел ался
▁заша гал
▁Пу те
▁выра бо
▁холод ным
▁темно ты
▁свет лые
▁ш вейца
▁одно :
▁откры ли
тно сти
▁опу сте
▁вер хом
▁та нка
▁хоро шую
▁по сты
▁ре пети
▁особ ен
▁про плы
▁О сно
▁ожи дать
енно сти
▁жела ю
▁особ ня
▁от печат
▁то пли
▁защи ту
▁откры тия
▁про бы
▁всхли пы
▁По верь
ри й,
▁произошло ,
тере ть
▁всё .
▁безу пре
ти р
▁мед лен
▁забра ть
▁прав ду.
▁ or
чески .
▁сти хов
▁на тяну
▁ше ф
м би
▁под вал
▁гости ной
▁письмо .
▁ан тен
▁бра тец
▁ве чной
▁го ру
▁неза ме
▁под ко
▁не ба,
▁ми н.
▁будет ?
▁гля дит
▁А по
▁причу дли
▁ото бра
▁откры лась
▁упря мо
сса ,
▁тру дно,
▁девяно сто
▁рас сыпа
▁шеп нул
▁Ва си
▁ю р
▁мани пу
со зна
▁сп али
ль ном
▁Же лез
▁Коро лев
▁Го ря
▁попы таться
ны …
▁б ред
▁увидеть ,
▁30  
щен ным
▁Как ?
▁места х,
дя сь
▁По вер
▁Вол шеб
▁мо шен
▁т вари
ь ю,
ѣ ,
▁ребе нок,
▁Зна чит
▁С ью
▁прид ётся
▁кален да
то п
▁фамили и
▁у чение
▁стать ю
ти во
ло й,
шка х
▁ар хе
▁вы держа
▁зеле нова
▁опу сто
▁гру зо
лла нд
н ку.
▁ша гах
▁ка нце
▁со йти
▁она , —
▁расхо хот
▁имен у
ки,  —
жд ением
▁за де
▁разно образи
▁по грани
ля я
▁по меня
▁непри ли
▁Ма рь
▁высо кую
▁об жа
▁на п
▁ку дря
▁вы пры
▁кри чать
▁звез ды,
▁ча я
▁прос матри
▁ту го
тни ков
▁лицо м.
▁вообще -
▁длин ную
а тю
▁направл ению
дел .
▁ше ю.
▁гром че
▁руко пи
▁о це
▁свер нул
жь те
▁гар ни
▁потем не
до ра
▁вели кие
▁ос на
▁прекрас ные
ан али
▁ва жные
▁понемно гу
▁п альчи
▁тем ном
ск ре
▁не жи
▁за тяги
▁ведь ма
енно ,
▁броса ет
та но
▁вече ра,
▁обо ж
з ри
▁сла бы
▁роско ш
▁спо хва
▁фо ль
▁ро я
▁ма ска
▁требо валось
▁ли сток
▁точ нее
с ным
д с
щи е,
▁Дер жи
▁Сто я
▁боя з
▁докто р,
▁проце ссо
▁конф ет
▁работа ть,
▁Ма тро
▁Ле ви
▁Коро че,
▁сим вол
▁устрой ство
▁подс казы
▁пят ер
▁ри ску
▁ок рова
▁гра мо
▁друг .
пу т
▁задум ался
▁Бра й
▁са н
▁ку ша
▁пы л
▁тва рь
▁при бор
▁цве ток
ar d
▁большо й,
▁де скать,
▁созда ет
▁вы .
▁на ступает
y ,
▁рекомен да
▁Но вого
▁зад ней
▁ребя ти
пе л,
! ».
▁Алек с
▁движ ение,
▁3 –
▁пе л
▁приве ла
и на
▁рассказ ов
▁вла сти.
ра зи
п -
▁по воз
▁Ви тя
▁бан ку
▁добро е
▁по ща
▁Тогда ,
▁здоров ья
ще го,
▁ненави сть
▁дочь ,
▁ко си
▁чуде са
▁луч шем
▁откры той
лета ет
ё шь
т вра
▁поло жение,
▁бело сне
▁стра стно
щи м,
▁се стре
▁регу ли
щи х,
демон стри
▁ма нев
▁Ка ждая
▁памя ти.
▁корот кие
▁кам па
▁тяже лым
▁об нов
▁подно жи
▁И мя
ешься ?
▁разли чи
▁эпо ху
▁ли ло
х нет
▁Пол ковник
к визи
▁жив ем
ко вом
▁пе ли
▁исследова тель
▁уга ды
▁поддержи вать
▁вы вод
▁увер ены,
▁кораб ля,
▁мед ли
▁слу га
▁а то
ли з
да х,
▁С казал
▁Джон ни
вь ,
▁удоб но
▁А лё
▁равно .
▁попы та
▁Ф он
▁малень кий,
▁пле чу
▁бух гал
▁доро гие
пи в
▁придума ть
▁ду бо
▁рассказы вала
▁Свет а
▁ста нешь
▁под чин
▁про пуска
▁Ма рии
▁чувству я,
▁е хи
▁исчез ли
▁ста ром
▁поверх но
ти лся,
▁все !
мо га
▁ос ме
▁длин ных
▁–  -
ты ?
▁показа ться
▁пла ток
▁без мяте
▁вспомни ла
▁Гла вное,
▁Женщи ны
▁з вен
▁За кры
▁ты с.
▁Д ор
▁да вным-
▁лабора тории
▁чер ное
▁ощу щал
▁роди тель
▁сы ро
▁пере ц
▁Си мо
▁Х ью
▁столо вой
▁подчи нен
▁сове сть
ты м.
▁ди на
▁обраща ется
▁Тво и
шен ную
▁стра не,
▁про стые
▁застави ли
вя сь
▁ли ц,
▁П ры
▁Дра ко
▁О ре
лась :
ва т
▁интере са
▁гро хот
ду ар
▁угрю мо
▁ шей
▁p е
▁П ала
▁философи и
▁ком сомо
▁А бра
ди шь,
х ле
▁му жу
▁со отно
▁ри с.
▁памя ти,
▁Е ф
▁С ала
▁женщи ной
▁планет ы.
▁ду ше,
▁весе ли
▁при спо
▁го рах
▁тради ции
▁было :
▁повери л
▁обеспе чить
▁бо ю
▁об щения
▁находи л
▁Види шь
▁восемь десят
га ться
▁древ не
▁ви дна
▁оружи е.
▁бле ск
▁эк скур
▁хоро ша
▁Ру ко
▁дальше ?
▁пис али
▁мело ди
▁погла жи
▁Зем ли.
oo k
▁му ль
▁оде ж
▁дорого й,
▁мужчи н,
▁подроб ности
▁от кло
▁ва жный
нд ра
▁масло м
▁чи тали
▁жел тый
▁Ч ёр
▁9 0
▁Ис кус
▁ги дро
ж ался,
▁теле вид
▁бра та,
▁Де вя
▁благо слов
▁Но …
▁Ко ми
▁трево жно
▁С я
▁по ша
▁за стре
▁По лага
▁При нце
▁ок ну
му д
▁на дела
▁рассея нно
▁об щих
? ?
▁ка му
вы вать
▁вспомни ть,
▁темно те,
▁Ю но
▁кри ча
▁ба бы
▁поблизо сти
▁ды ма
▁случи тся
▁от ступа
▁сравни тельно
дешь .
ни тель
▁уша х
ш ались
▁Ле ди
▁ло дка
▁посовето вал
▁сбор ник
▁рабо чие
▁особо е
▁цело е
▁экспеди ции
▁в ью
▁ш тра
▁полю бо
▁право слав
▁нет,  —
ме ла
▁недовер чиво
▁не кому
ш нее
ки х.
бе ль,
▁раз бере
дали .
▁уди вление
▁тем и,
▁У р
▁пла тья
e p
▁д з
▁пове ство
▁му зей
▁газет у
ся !
▁раскры л
▁э .
▁У ор
▁жени лся
ни в
▁Пь ер
▁по ля,
Е Ч
▁Фи ли
▁доб рым
▁ди стан
вя зать
▁выхо ду.
▁неде лю.
▁у чения
▁содержи т
▁шеве ля
▁Ген на
▁пода рил
▁сня ла
▁контро ль
▁ве рит
▁швыр нул
▁отды х
▁мет рах
▁та нк
▁иск али
▁ка й
▁глуби ну
▁сал фет
▁сущ ности
сти н
▁5 1
▁вы ти
ги вал
▁ве сё
▁болез нен
ма я,
▁исти нно
▁сго ре
▁i s
ц я
a .
▁обще ственного
▁руковод ство
▁гля деть
ходи ло
▁нере шительно
▁боя лся,
▁из вер
▁учены й
▁веще ства
▁Ю пи
▁игра ла
▁ледя ной
▁Дру зья
▁потре бно
▁опусти ла
рен ного
▁тако го,
зи да
▁вол но
▁И зу
дно е,
▁во жа
▁облег чением
▁вы руг
▁про чно
▁парт не
▁ясно .
мо вой
ал ей
▁проя вления
▁пред ложения
▁оже сто
▁се ан
▁близ ких
▁Б ала
▁ду ша,
▁разо гре
▁точно сти
▁зам ка
лет ней
▁чу дом
▁ле ги
влен ную
▁Ди ма
▁А ми
▁но мере
▁кам ней
▁кры шу
▁ко к
▁Учи тель
▁длин ным
ба т
▁коли че
ли вые
▁но жи
▁ск алы
дь ка
▁душе .
▁в ро
па мят
▁На з
▁начало м
▁энерги ю
▁информа ция
нов на
▁года х
▁дере во,
нор м
▁яй ца,
▁5 ,
▁горе ли
▁поко и
▁встреча ются
▁пыта ются
▁ту чи
▁старо сти
ров ку
▁пят надцати
▁бере г,
▁Да …
▁медве дь
▁хоро ших
то чной
▁за тих
▁вы ставля
▁коло ко
▁вече ра.
▁эк зо
▁конта к
▁про демонстри
▁нау чно-
▁да дут
▁ак т
▁Г э
ки нув
▁бере жно
▁пи ва
Я Т
▁Кото рый
▁тун не
▁под жа
▁винова т
▁моло день
▁5 5
жд ала
▁находи лось
▁дер жался
зо вать
▁дире ктора
д ки.
ч э
▁на броси
▁вол нения
з вез
тан ных
▁194 2
▁Сан -
з али
▁подо л
▁Геор ги
▁бесшу мно
▁вос пал
▁з ев
▁от нести
▁точ нее,
▁извест ен
▁непре рыв
н !
с »
▁завтра .
▁ан г
ст я,
ству ющих
▁ост рые
ло !
▁пер ья
▁Со един
▁чу ж
▁Свя того
▁Д вор
ди тель
▁пере вести
▁хо да
▁существо вать
▁би нок
▁уго л,
ў .
▁на бро
▁ш ра
▁Про сти,
▁послыш ались
▁пред ло
▁непо стижи
ней шее
й ку
▁тиши на,
▁полу с
▁по ет
a v
▁предо твра
▁кры шку
мо ва
ИН А.
▁по бре
эл л
▁произвед ение
▁во ню
к.  –
▁Ры ба
▁с ши
дь я
тан ной
▁экспери мент
▁—  …
во ров
▁страш ная
▁перед ней
▁стара ется
ва емся
▁повери ть,
ро вался
▁отве л
▁кораб лей
▁призна ться,
но ри
▁Но в
ки ;
▁насе ление
▁цвет ы,
▁неде лю,
▁б лага
▁пе чали
▁ид ти,
▁устрой ства
▁сове то
▁ку сты
▁Во в
▁про се
ш няя
ца !
▁Ка вказ
г нулся
▁х вали
▁сдела но
▁Пло хо
д алась
▁апо сто
▁Г ле
▁заним ались
▁х реб
▁ар мей
▁до тро
▁и денти
▁силь нее.
▁восстанови ть
си и
Е СТ
те лю,
▁шка ту
▁испо р
нув шей
▁иници ати
▁Петров на
▁голо ва.
▁поги бли
коло ги
▁гра мот
по ло
▁проси ла
▁не жела
▁мини стер
▁выбра лся
▁ки бер
▁в ступил
▁широ кие
▁прекрас ное
▁счита ю
▁вз дума
▁выстре ли
▁бор мотал
▁на гля
х,  —
ря с
▁ды шать
▁было !
▁обра тилась
▁ак те
▁институ т
▁Послуша йте,
▁посте ли.
▁в яза
д ка,
м,  –
▁ис кры
чу сь
▁лю бых
▁при кре
▁иде ю
▁соци алисти
▁по мах
р до
те ро
▁ин дий
▁отдох нуть
т ника
▁боя лась
▁при ступ
▁ду хе
▁об хва
▁зло бно
▁тра тить
▁воскрес енье
▁ви сит
▁тео рия
▁обнаружи ть
те лен
▁На ступи
▁пож ертво
▁пло ды
▁люби мого
▁С ор
сы е
ми :
▁учи ть
▁подня лся,
▁На стя
▁стран ного
▁реаль ность
▁се зо
нет и
▁програм ма
▁ро сли
▁са ми.
▁кон ц
▁тяже лых
зи на
▁У спе
▁по ба
т ку.
▁си жу
▁реши ла,
▁Са ди
▁насмешли во
▁Гра ф
спо ко
▁у во
▁за ново
▁мини стра
▁уда рила
ри м
сь,  —
▁сме ется
▁тем не
▁представи тели
▁старо му
▁ма мой
▁предо стере
▁зна ешь.
чит али
▁ве ро
▁деву шку,
▁горо де.
▁испу ган
▁Началь ник
▁Ра зо
▁слыш ал.
д ала.
▁об ере
▁т вёр
▁вет ра,
▁опо зда
▁кар те
ру б
▁па рик
ми ?
▁сдела ть?
▁ры бо
▁меня :
▁Д ву
▁быть ?
▁пото м.
▁прозву чал
й …
▁нали чие
▁завтра ,
▁кро вать,
▁ж ер
▁вет ки
▁клет ки
О П
▁име ешь
▁ска мь
но чка
с ма
▁пе ро
▁объяс нения
▁отра жа
▁короб ку
▁Ли ли
▁посту чал
▁предпри нима
▁Со юз
▁ору дия
▁Арт ем
▁Си ст
▁Спасибо .
▁огром ными
▁рас строи
щими ся
ем ся.
ну ли,
▁сущ ность
▁ло дки
▁ог ня,
▁ос вети
ю,  –
▁воло сами
▁кар точ
▁взо бра
▁уз кой
надца ть,
▁побле ски
▁Са в
▁элемен тар
▁Ска жите
▁пись ма,
▁вы сы
c t
▁момен та,
▁Ж еня
▁к лей
▁связа нные
▁от клады
▁и ное
▁за казы
▁му ки,
с :
ере ,
▁не краси
▁американ ский
п нул
▁приподня л
▁магази на
▁При дется
▁норм ально
▁пере ко
▁ма мо
д жет
▁должно сть
ч ете
▁Ско т
▁заты л
▁ск ала
▁шта ны
дя т.
▁на я
▁уходи ть
▁светло -
▁спло шь
▁тек ста
▁шеп чет
▁созна ния,
▁за вал
▁констру к
▁бу н
▁ко бы
▁це ля
▁лу жай
▁тело м,
▁лам па
▁спас ения
▁с не.
▁коф ей
▁шко лы,
▁на ем
▁ц я
».  —
▁происходи т.
ну ли.
▁ске пти
дов ало
▁Джей мс
▁роди лась
▁С ре
▁слу шая
▁поме щение
▁ли це,
▁вз ят
▁Иванови ч,
▁собра лась
▁ту т.
▁де лу.
▁корот кое
▁О Б
▁Бор ь
лы м.
▁от брасы
▁сооб щения
▁созда вать
▁мор ских
▁а ра
▁со ль,
▁пребы вания
▁знач ения.
▁зем ель
де ро
▁сре дних
▁Г ря
ви ст
▁защи ща
▁с бере
▁головой :
▁ша г.
▁Лю блю
сс кую
▁Иису са
▁удалось .
▁Ни ж
▁слу х
▁тра пе
ственно му
▁законо да
ан ,
▁жени ться
▁на зо
▁ого род
▁некото рой
ги на
сты е,
▁молча ние
ву ю.
▁5 2
▁кни жку
ла ми,
ля ется
вари ть
▁призна ть,
▁полити ческих
▁Ла дно.
▁ны ря
▁каза р
▁Мы сль
▁надеж дой
▁ча ше
▁ми н
ста ет
▁ди ску
щая ся
▁Ле с
▁за дви
▁пи щу
▁То мас
▁немец кий
▁уйти .
▁упра вление
▁б алан
▁ре шать
▁ло рд
▁Ива ну
▁собира ются
▁деву шек
▁за сы
▁напра во
▁мо ра
▁восхи ти
6 -
▁француз ского
3 -
▁пол день
▁спроси ть,
▁беспо рядо
▁5 . 
▁необы чайно
▁Ж ени
▁з ал,
▁орга нов
▁слу ха
▁юно ше
▁зву ча
▁рассмея лся
ме шь
▁сдел ал.
▁мест ного
▁С той
▁А фи
▁стал .
▁лу кови
▁Лей тена
▁вы вести
▁миниму м
▁бер ут
▁плохо й
▁бра с
▁филь ма
▁уг лу,
▁Фи ла
▁преимуще ственно
е ва,
▁еже днев
ешь ся.
лю бо
ст но,
▁а фи
▁всего -
▁много зна
рован ную
то ю
чи с
ро ти
▁му ки
ря дно
▁меся ц.
▁услыш али
▁Ду х
▁под ходил
▁рас кая
▁ю ности
▁Ого нь
▁О рга
ж ке,
▁оскор би
▁обы чные
ван ,
▁от дели
▁жало б
▁кол лед
▁ост рый
▁на деть
▁зада чу
▁15 0
▁погляды вая
▁жерт вы
▁прави ло
шен ,
▁паль цы,
▁Ма д
▁пол ка
▁твор чества
▁то ска
▁прош лый
х нуть
▁вя ло
▁папа .
▁видеть .
▁стен у,
ва вшие
▁видне лись
▁указы вает
▁Екатери на
▁перене с
▁бра к
▁давно .
▁кладби ще
▁полу чалось
▁ми гом
н ный,
▁изба ви
▁искус ства,
▁созна ние,
▁от бро
▁улыба ется
ar t
Л И
ш ков
▁груп пе
▁неле пы
▁Я сно
▁спосо ба
▁И З
▁кух ни
▁твор чество
▁из ре
▁рабо та.
▁ко шки
▁Прави ль
вшись .
▁потреб ность
▁нал ете
▁красно ре
надца ть.
▁ко ре
▁замо ро
▁на ма
вен ча
▁Ц ель
▁спи не,
▁Н -
▁фу тов
▁воло с,
▁да т
▁Фе доров
▁испо д
▁схва тить
лся ?
▁предела ми
▁безнаде жно
8 -
▁раз мно
А ,
▁ко па
▁пере ку
▁идет ,
▁по кое
сла ть
▁пое хать
▁не способ
вед ен
▁долла ров.
▁в алу
▁Пари же
▁и ро
▁ре ку
▁голо со
С Я
ва тый
▁кварти ра
▁использо вания
▁ка приз
▁7 5
▁Рус ский
▁С М
▁потребо вал
▁краси вой
▁из вра
▁фанта зи
▁муж ,
▁тря с
▁Д ал
i f
▁О бяза
▁са к
▁194 4
▁за стал
▁паль то,
▁сло ман
▁Гро з
▁де сант
▁участи я
u b
▁тем ы
▁горо дов
▁замети в
стя за
▁б ля
▁молоде жь
рован ным
▁оцени ть
▁И ра
▁раз ным
! »,
щен ными
▁Мо ре
▁посмотре ли
▁треть е
▁до пу
▁изум ру
▁наоборо т.
▁де да
▁Наконец -
▁дере ву
▁до шли
ль ф
вайте ,
▁по кру
▁У ва
▁уе хать
▁импера тора
да к
▁H и
▁улица х
▁аэро пор
▁мед се
▁доб рой
▁Ф ил
▁горя чий
▁7 ,
▁пом чался
▁Ф ра
▁борь бу
▁я д
▁вспомина ть
▁чи тала
▁пе шком
▁неу моли
▁ле к
▁у мни
▁выс шего
▁дерев ня
▁ро жде
▁чем пи
▁верши ны
▁сопрово ждении
▁про ста
ко вал
чув ству
▁приро ды.
▁m e
▁темпера тура
▁Ме сто
▁комму ника
▁Алексе евич
▁планет ы,
▁эксплу а
деть ся
▁наблю дая
▁мерт вых
▁тон кими
▁ата ку
▁А ня
▁пер выми
▁встре тили
лет него
▁ле чеб
щ о
▁х ре
▁мини атю
▁энерги и,
чи ло
▁познакоми ться
▁вар вар
▁чу же
▁си нте
дь ю
▁преж ней
▁об моро
ни на,
▁ша по
▁неве же
▁хла дно
ющи м,
▁хму ро
▁импера три
▁доб ры
▁ви ски
▁призна ть
▁боль ного
▁гото вый
▁ an
▁проду кты
▁стихи ,
▁са й
чи ков,
▁моле ку
ень е.
▁ча су
▁друз ей.
▁мы ши
▁улыб кой.
▁ша гов,
▁Хо телось
▁ко неч
цы !
▁будуще е.
▁ба й
▁теря ет
▁Ше сть
▁Ан дер
▁Леони д
ч ники
▁показы вал
л лер
▁го ры.
▁Геор гий
▁соци альной
▁яр кие
▁ду х,
▁с ны
▁Л Ю
у ма
▁радо сть,
▁ди але
▁чисто го
▁зем ного
▁движ ется
▁литерату ра
▁тка нь
▁О !
▁если ,
▁Достоев ский
▁весе лый
▁торже ству
▁Госу да
▁Э дуар
▁фа куль
▁пры га
▁генерал -
с ень
▁ры в
▁безза щи
▁Д эй
▁рам ках
▁парень .
чи ми
▁познакоми лся
▁чем ?
▁гу лять
▁маши на,
з е.
ва емой
▁патри ар
▁Все ленной
▁увиди шь
▁оба я
▁тем но,
▁миф ологи
те сь.
тель ны
▁у про
▁кон су
i re
▁внеш не
▁свобо да
▁би ли
▁еру н
▁встре чались
▁неу лови
▁ум но
y .
▁фаши ст
▁сдел алось
▁зелены м
▁Вал ер
▁Ка кую
▁че пу
▁ко стя
та ние
▁у лег
▁у гля
▁кре ди
р ский
▁до зво
▁Зем ли,
▁под держа
▁о дол
▁использу я
ча ется,
▁ку ли
▁Х ен
▁свобо дной
▁М. :
▁зна коми
▁строи тель
ка ться
▁спрашивает :
▁знаю …
я ло
▁вы пле
▁кни гу.
▁ком пен
▁ви на.
кто в.
▁на пар
рен ным
▁на вали
▁тол пу
▁за сту
▁ре бра
▁ en
род ный
▁фигу ру
▁кораб ль.
▁однажды ,
▁пла чет
▁вы се
▁обо жа
▁выр вался
▁обы чным
▁к ель
▁М али
▁офице ров
ско му,
ки вает
▁подми гнул
▁подоб ной
фи л
▁рома не
▁зерк ала
▁поз е
▁стен у.
s .
▁вы ста
▁из немо
ня ми,
▁почувство вать
▁вели кая
▁с ном
ров ались
▁сказа но,
ти ну
б ки
▁объек т
▁ско во
▁бу ла
▁осла бе
рова на
▁А лен
▁перево де
▁свя тых
▁га м
▁за шевели
▁И де
тя сь
▁хоч ется,
▁со ль.
по м,
ди -
▁стра нах
жу т
▁Понят но,
▁про гно
▁поро г
▁ряв кнул
▁у ступа
▁ли нию
▁да вление
▁воз ме
▁свя ты
ре м,
зи рая
▁люблю .
▁Л ы
▁призна ки
▁силь но,
▁силу э
▁Ду ра
▁ло дку
▁про мо
▁кру га
▁бле сте
▁повто рить
пе е
ет. )
▁пообе щал
▁момен т.
▁ло б,
▁немец ких
▁разговари вал
▁се стри
▁пре дохра
▁извест ны
▁прочь ,
▁вы ре
▁маг нито
▁нау к
▁тебе ?
▁об лик
▁ут ру
▁выдох нул
▁лег че.
▁ста ре
ения ми
▁вещ ь,
▁ми лый,
▁Ста ни
▁за дал
▁скоман довал
▁ве сть
▁папа ,
▁ста рое
▁сосе дя
▁ре чи,
▁Серге я
▁на со
▁от бле
ну ты
ще й.
▁тру ба
▁c on
п !
▁n e
▁под пол
▁крас не
▁от ныне
▁Стар ший
▁людя х
▁ра вен
▁вас ?
▁вы ки
▁Пред седа
▁Ко ле
▁д нем,
▁преодо леть
▁тол стя
▁про мель
мен таль
▁пят но
ж ений,
▁пра ва,
▁до води
▁кресле ,
▁следу ющем
▁ко по
▁сту л,
ши х,
▁встре тился
▁вы ступил
ли вым
▁взгля де
▁камен ной
▁сто лик
▁За щи
▁Со ня
▁з мея
▁па дал
▁продолжал :
▁XV II
в ется
ё л,
▁просто го
▁ответ а,
▁одного ,
▁на си
▁отли чи
▁круп ный
▁одо ле
▁относи ться
▁уг лом
▁V II
▁дверь ю.
ку н
▁захва ты
▁дум ал.
▁Э -
ра с
▁счита ть,
▁зи мни
▁Га з
▁ка шта
▁брил лиан
ци оз
▁пар ла
п л
▁всё м
▁отки нулся
▁спо рить
▁ваго н
▁уто пи
▁горе л
▁жен у,
▁заи гра
▁по летел
▁раз обла
▁вер но.
▁програм м
▁те ра
▁I ,
▁Ра ду
▁ла ска
▁сле пы
▁причи ну
▁схва тился
▁я му
▁Бе ль
▁ва жных
▁у хи
▁звез ды.
u d
▁больше е
▁откры вая
▁сво рачи
ще е,
ка.  –
дз i
▁ин тим
▁американ ских
▁образо ва
▁общем -
▁ро дни
▁важно .
▁Се ва
й :
▁про дела
ou t
сти ка
ра ет
ку т
▁4 9
▁ез дил
▁ло вить
▁автомати чески
▁доро же
▁развер нул
▁ум ный
▁множе ством
▁пти цы,
▁планет у
▁сло ма
▁пет ер
in d
▁Со м
▁разма хи
▁кресло ,
▁высо х
▁маши не.
▁По стоя
ду т,
▁И дем
▁нали л
▁учены х
▁Сою за
▁Ка на
▁движ ения.
▁извест ные
мотр ю,
▁У бий
▁деревь ев.
▁при тяги
▁В ез
▁сере бро
▁С тан
▁Хо тите
▁обе щ
▁Упра ж
▁поо щ
▁шум но
▁бу ло
▁закры в
▁распа хнул
▁мини стр
▁счита ет,
жно му
▁раз мы
▁сооб ща
▁име ются
▁грохо том
▁гро моз
▁дви гались
▁уса жи
▁бо род
льно му
т ность
▁образо вание
▁вра ги
▁пере но
▁Н ей
▁я ще
▁Х ро
▁возника ют
▁Т вое
о на.
▁О в
ве й.
ш ений
? ! —
7 -
▁Г ю
▁б рит
▁свет у
▁та та
▁Вой на
▁ру жье
▁пра вед
▁кор ни
▁ка нику
▁бра ту
▁Лю си
▁приклю чения
▁под бежал
▁коле но
▁дал ё
▁реа кция
▁защи тить
ш ение,
▁си лу.
▁счасть я.
ИН А
▁уходи т.
▁но чного
▁переда чи
▁кон центра
▁пого вор
▁при дут
▁В С
▁20 -
▁Ш ан
▁ж о
▁нет ру
▁нога м
▁Ро бин
▁Следова тельно,
▁При мерно
▁А мерикан
▁смотри ,
▁дума я,
мен ти
сь я
▁Т Р
▁Го д
ски м.
▁столько ,
▁ба рах
▁сто ле,
▁ est
▁мох на
▁сте пь
▁про ница
▁ми г,
▁реда к
ша й
▁космо нав
▁мину ты.
▁обще жи
▁понадоби тся
▁Тре ть
▁лихорадо чно
▁В . 
▁доба вила
ков али
▁бро сили
▁саха ра,
▁Пу бли
▁Лор д
да м.
ну т,
▁язы ке.
▁солда т.
▁сторо н.
▁оско л
▁подо й
▁сов с
▁вынужд ены
▁поз вольте
▁выз вали
▁лаби рин
▁запо до
▁194 3
▁запо мина
во го,
▁превос ходи
▁дово лен
▁человек !
па х
▁гла вы
▁энерги я
▁отдель но
▁от прав
о гу
ду т.
▁событи й,
▁хоро ш
▁c h
▁размыш ления
▁так ъ
ИН .
▁ко же
▁со обще
▁правиль но.
▁г рыз
А СТ
▁изу чать
▁на казы
▁иг нори
▁у нес
▁бесе ды
▁сер ых
до подоб
▁П ру
▁пя тый
▁знамени того
▁проблем ы.
▁надея лся,
▁за гре
▁попере к
▁сынов ья
х е,
▁священ ник
ч ком,
▁намер ен
▁ка ково
▁Хри сти
▁гла го
▁арми и,
К И
▁повсе днев
▁Офи цер
▁По яви
▁пре зира
▁то  
▁же стя
▁лиш ний
▁сторона м.
▁против ника.
▁дли ной
фи кси
▁раз гла
▁Б ло
▁В новь
▁ре ки.
▁дро ж
по в.
▁Раз говор
▁дра кон
▁в да
ж ка.
p p
са ми.
▁сп ала
▁счасть я,
▁Анто ни
▁обу сло
сса .
▁изобра жа
▁примен ения
▁верну сь
▁ро ста,
▁вы дать
in e
▁три .
▁В ул
▁с в.
▁поме щения
ча в
▁рассматри вал
▁при ю
▁по дей
▁заяви л,
▁за нес
▁при шел,
▁ки п
▁Дэ вид
▁мужи ки
ваю щую
▁секрета рь
▁к стати
▁но жа
▁одежду ,
▁ору ди
▁состоя ние,
▁пере ходит
▁ж ы
▁Види шь,
▁вече ром.
▁само лё
▁служ бе
▁сло жил
▁кап су
▁Так -
▁вто ри
▁при влечь
▁прямо ,
▁происходи т,
▁при писы
▁вет вя
▁приходи ла
▁поня ли
▁отчая нии
мы м.
▁пла кать
▁мо ди
▁ф ре
▁сюр при
▁прав ды
▁дня х
▁пригото вить
▁направи л
к,  –
▁про пустить
▁от печа
▁гром ко,
▁гли ня
▁докто р.
▁со ставить
▁язы ке,
ста нови
▁поступи ть
▁с фере
4 -
жден ные
▁пом ень
▁непри яз
▁провин ци
▁лагер ь
ка ется
й,  –
s ,
ва жи
▁вы бора
ри !
▁дю жи
▁бли же.
▁соз ре
▁ан ализ
▁М эй
тив ным
щен ную
▁вер ю,
вы ми.
▁стало .
ден т
▁бло ки
▁Ле он
▁обер нулась
▁ок ку
▁тут -
▁помо гал
▁были .
▁ни кого,
▁Ко з
ши вать
▁Ре с
▁зв ене
▁жела нием
▁направи лись
▁ра ны
▁чув ств,
▁Тро и
▁пу ля
▁При ят
ва вших
▁Ла дно
▁пле че
▁ли цу.
▁принима ют
▁В начале
▁позво нить
▁се ле
▁Ми х
▁впол голо
тащи ли
▁разме ров
▁Ма ра
▁чт ения
н енное
▁заме чает
▁в ходят
▁ра стая
▁зача стую
▁расти тельного
▁дет ских
▁б лин
▁ко ря
▁Р ю
▁за мен
▁поклони лся
ало в.
шед шего
▁ассо циа
▁челове ческая
▁бра том
▁опубли кова
ЛАВ А
▁вме шался
▁золо тыми
но ву
б ру
▁держа сь
▁мальчи шки
Н А
▁зву ки,
▁гал лю
▁плать е.
▁закон чить
▁смы сло
▁на силь
▁бабу шка,
▁короле ва
чи вым
▁воспи тан
▁ he
▁Сер ё
▁сум му
▁экипа ж
▁я х
▁ни  
▁рас пи
чи л.
▁I .
н,  –
▁хра ма
▁уви дим
▁правиль но,
▁Дорого й
▁челове чески
▁Атлан ти
▁4 00
на м.
м ет,
1 -
по т
▁вы бежал
▁превра тились
▁карти н
▁камень .
▁откры тие
▁го ни
▁согла ша
▁заня тий
А Ш
▁момент ально
то вого
▁устро ил
▁пере ло
▁ради а
цион ная
▁крас ное
▁б рев
▁буты лка
▁нер вы
мы м,
▁Пу га
▁бере г.
▁зем ных
▁чрезвы чай
г ал,
▁Дже сси
▁тихи м
▁принадле жал
▁За мети
▁произ нести
▁пыта юсь
▁понима ния
▁усили ем
▁об следо
▁обла ко
бо е
▁объяс нение
▁С кри
▁По шел
▁хвати т.
▁истори ю,
▁Путе ше
▁Бо га.
▁Ю р
▁ошиб ки
ри й.
▁другу ю,
ви в
▁не чего,
▁приго вари
ig ht
▁физи ологи
▁моз гу
▁Чар ль
▁темно те.
п лый
▁род ного
▁Однажды ,
▁тор пе
▁дет ские
ж ы
броси ла
▁знаю,  —
крой те
▁повторя л
▁ма сле
ду ман
▁в нес
▁площад ке
▁с брасы
▁лег че,
ты !
▁неодно кратно
▁выше .
▁з вя
▁хле б,
▁Лю ди,
шься ?
▁то т.
▁добра лись
▁духов ного
▁пробор мотала
▁привы чно
▁наш ёл
▁тени .
▁ла ты
▁Ку з
▁вы хва
▁лю бу
▁вд вое
т ъ
▁кон ди
▁помощь ,
▁важ ным
▁показа ть,
▁съ ел
▁де л,
▁приходи ть
▁под ря
▁госте приим
▁выгля дели
▁ре жим
▁за вла
? …
▁Т вер
Е З
▁Ан ну
▁кра пи
▁опи раясь
▁уверенно сть
▁исти ны
▁по ех
▁прав ду,
кло пе
▁использу ется
▁выясни ть,
ера рхи
ле ров
▁Са шка
!..  —
▁Раз дался
вайте сь
▁товари щей
У Ш
▁ком бине
у э
▁над пи
▁е ло
чо м,
▁вра ща
▁теп лый
ти л,
▁середи ну
▁оставля ть
▁обще ственной
▁связа нных
▁ли цу,
▁недо стой
▁Да вы
▁золо та
хну ло
▁ло хма
▁доб ле
▁ка д
▁жут ко
▁компо нен
▁оставля ет
▁Иль ич
▁длин ная
▁в ставил
▁тон ким
▁пя ть.
▁с це
мен .
▁дела ешь
▁пуль си
г нет
▁пять сот
▁хво стом
▁за дать
▁принци пе
▁успе хом
▁столо м.
▁соответ ственно
▁снима ет
▁помощ ник
н ѣ
▁са да
▁ста ди
▁реги стра
▁кажу тся
▁бе ск
▁Дале ко
▁древ него
▁реда ктор
ц !
▁при киды
▁Андре й.
▁неболь шим
▁реда кто
▁совет ского
o ,
▁даль нем
▁цвета ми
▁любо му
▁силь ных
▁ту зем
на »
▁кварти ру,
▁бол тов
▁чув ства.
▁за дох
рован ное
▁програм му
о бе
ну тых
▁обви ня
▁навер х,
▁C h
▁194 5
тся !
▁потре би
▁спо ко
▁шко лу,
ра ?
▁рас цвет
▁за жег
▁бере га,
▁ше и
▁пи ск
нци клопе
▁от ко
▁живот ные
в ри
▁под мо
▁подзем ель
▁зна ки
▁Но вая
сти ?
▁без жиз
▁болез ни,
▁ум ение
▁подс каз
▁коле с
▁само люби
▁Ф ё
▁пото лок
▁вы ныр
▁отли чался
▁не г
ви те
н ?
▁че л
мет ро
▁мяг кой
▁анг л.
▁силь ного
▁гро зи
яз ви
э .
▁спло ш
▁си ня
м ба
▁па зу
▁дело !
▁спо ты
в ными
▁ра бы
▁от рави
▁Во рон
▁лиш них
▁вку су.
▁молит вы
▁Еванге ли
▁осторожно ,
▁малы ш
▁клю че
▁волоса ми,
▁поднима ться
▁програм ми
▁сторона м,
▁вну ши
▁перво бы
▁С тен
ни ну
▁удовлет воря
▁Ки тай
▁получи лось.
▁описа ть
▁Аб солю
в ки,
▁Гит лер
кле и
▁христи а
▁вол ную
▁Со бира
▁за жа
ку ля
▁Ко ри
▁ла т.
ней шей
▁дво ре,
▁На ше
▁ла тин
чка м
▁куку ру
▁с пер
▁призна ков
▁зад нем
би лся
ме нова
▁преж ние
▁она ?
▁Ту да
▁зло у
▁части чно
▁вы числи
▁усмех нулся.
▁ст ал,
▁Мар ты
▁У вер
▁тан ков
▁особ енного
▁рас ще
▁положи ли
▁Во сем
ба ет
▁приблизи тельно
▁широ ким
А П
▁О стро
▁из воз
▁Ме ди
▁отправи ли
▁рас ст
▁в ти
▁но в
ОВ .
▁пра вый
▁то ску
▁возду ха.
▁камни ,
▁регуляр но
▁ар мя
v er
▁выта ски
дер ,
▁произ ве
▁системы ,
▁каз ни
▁преж него
▁это т,
▁по куда
▁яви лась
▁ко е
▁сто ю
▁вы хватил
▁инспе ктор
▁нехо тя
ния м
▁Та ких
▁ги ган
би ла
▁над ви
▁кор ень
▁Вер но,
▁за ш
▁та тар
▁раство ря
▁привез ли
▁отрица тельно
▁к ала
▁предупре дил
▁шко ле,
▁фор мы,
▁рука в
▁М лад
жа ние
▁часа ми
▁Ге ро
▁A m
▁Се стра
▁Дол жен
р ное
▁Сера фи
▁собы тия,
▁напря жение
▁щу паль
▁одет а
▁уйти ,
▁ответ ы
▁мо дер
▁эта ж
▁По ме
▁оста вшиеся
▁останови ться
▁очи стить
▁ситуа ции,
▁ре чи.
лось :
▁ум ру
▁XV I
▁ло б.
▁ще ль
▁Фло рен
▁нужда ется
▁недоу ме
▁а му
▁сло ем
▁совершен ство
▁инсти н
Л ЕНИЕ
▁относи лся
▁с бежал
▁от ворачи
▁от дали
▁у брать
▁патри оти
▁об няла
те …
▁корми ть
жением .
сто люби
▁х ар
p ем
▁жи вая
▁середи ны
▁выра щи
Е Ц
▁фра зы
▁Во про
▁Госпо ди!
▁дви гался
▁деревя нный
▁пере шли
▁Чу де
▁выше л,
▁снима ть
▁вз ве
▁отлича ются
▁тя нулись
▁кив нул,
▁счита ю,
▁Зо я
▁под хо
▁университ ета
▁подо йдет
за ют
▁Как  
▁мини ст
ё л.
▁прохо жи
ни ц,
▁Сто л
со вет
▁дро гну
▁при гля
▁пе pе
▁ва рить
▁Хоро ший
▁тепло ,
▁пере хода
▁радо сти.
▁преобра зо
▁вопроси тельно
▁про ходят
ья н
▁Од новременно
▁Ни кого
▁четвер ти
i en
it h
▁из рядно
▁по ходил
▁ре пли
▁домо в,
▁реш ение.
▁испы тал
▁консер ва
▁охра ня
▁хоте ла,
се но
▁Сти хи
▁За меча
▁у рок
на цион
▁действи я,
▁оружи ем
ве ц,
▁За я
▁затру д
▁Со ро
▁необъ ясни
▁прис матри
▁не я
▁мель кнула
▁механиз м
▁красо ту
▁высо ком
▁пара мет
та н,
вля ет
▁бы тия
▁сосе ди
▁вар ва
▁за пры
▁произ носит
▁мер у
▁Ф рей
то ни
▁вет ру
▁С мит
▁препода ва
зо па
рь ер
▁осно ву
▁с ходить
вай !
▁выбира ть
▁пи к
▁Р эй
▁улыб кой,
▁изо гну
▁бомбарди ров
▁па сси
▁двига тель
кт -
▁к ало
▁дер нул
▁ря ду
▁запро сто
▁ф ля
ки н,
▁не куда
▁аль тер
9 -
▁надое ло
В Д
▁долго го
▁ок ну.
▁по лете
▁Кос мо
сла н
▁тара ка
▁взры ва
▁рас кла
▁не ба.
▁Бе сс
▁интересно .
▁Глу бо
▁ш выря
▁Стару ха
т ках
▁спи рт
▁хочешь ?
▁уко риз
▁получа ют
▁магази не
р д.
▁дела м
▁благо чести
▁коло сс
▁Выходи т,
▁з но
▁Спе ци
щи л
ко ном
▁сра бо
пре делен
▁про жить
▁Пет у
▁пожи лой
в зо
▁помни шь,
▁реф лек
▁Ива ны
▁Анато лий
▁х рони
ве с
та …
▁моз ги
▁раз вел
▁чере п
▁у ши,
▁хоте л.
▁посе реди
▁принима я
бя т
ди ли,
▁зада ние
▁вытя нул
▁фи кси
ну ?
▁пере пи
▁ан тропо
▁Б рен
▁се веро-
▁з вал
▁У ль
лу й
▁увиде ли,
▁преж них
то ру
▁Ш ли
▁семь и.
▁вой на,
▁тру си
▁Дож дь
▁от влека
▁Ра д
▁обла дал
▁посе л
Е Б
▁развер нулся
▁слова м,
▁обрат ном
▁По ро
▁креп че
▁под би
▁т ень,
▁В ей
▁наде ясь
▁дол гий
▁про д
тив ную
▁ма тра
▁Пи р
▁дворя н
▁с на,
▁поро га
▁ис хо
▁вы скольз
▁ру чей
▁с ги
▁Прави льно
ней шая
▁обстоятельства х
▁не ров
ви ца
▁яро сти
▁тор чали
▁иностран ных
▁сомн ений
▁по пя
▁стро ки
▁пре следу
▁без грани
▁со сно
▁помни л,
▁бе жала
▁свобо дного
▁заня ты
▁Кирил л
ско ю
▁определен ные
ва !
▁дости гли
▁кажды е
▁производ ство
▁мной ?
▁наеди не
▁возму тился
▁ез дить
▁р -
▁6 5
▁пузы рь
▁встре чается
▁маши не,
▁ма ри
▁случа ется
▁болез ненно
ЕН Т
▁анге л
▁про ститу
▁мар кси
▁ко ров
▁укре пля
▁Тре тья
▁добро душ
▁неизвест но,
▁попыт ку
▁О кон
к ала.
▁д на
▁счасть е.
▁при хва
▁руб лей.
▁200 0
кну ться
▁раз ного
▁у кло
▁получи лось,
▁прости ра
▁Н ер
▁безопасно сти.
чиво сть
▁О гля
▁Фран ци
▁нога х,
▁го лланд
▁у чил
▁зем ля,
ден ный
▁Арка дий
▁начин ала
▁никогда ,
▁во ца
пен у
▁вен ти
ра х.
▁ис полнен
▁при твор
го вой
▁слыш но,
▁ситуа цию
▁за чер
ъе сте
▁жен ской
ро нт
▁связа на
l d
▁за шу
ъю тан
▁именно ,
▁внут ренно
▁слу ги
▁где ?
▁спасибо ,
▁друго му,
сло .
гру з
▁табу рет
▁впра ве
▁доказа тельства
▁бабу шка.
▁про бежал
▁у ходят
▁ни же,
▁уходи ли
р ень
▁привет ливо
▁произ вести
▁обра зы
▁продол жить
и да
▁речь .
жда ть,
▁достаточно .
▁под за
▁мы шь
ш ним
ш он
га ю
▁кри во
▁У спокой
▁ле вый
жи ло
▁сло ву
▁утро .
▁явля лся
▁само о
▁тай но
н штей
нице й,
▁ре монт
▁Ленин град
▁Глу по
по м.
▁пови с
▁воздей ствия
▁у шло
▁неправи ль
▁запа хом
or t
▁су дно
▁жа ж
▁поку пать
▁Соб ственно,
▁губер на
? )
та ть.
▁а х
▁После днее
▁вес ну
▁скло н
слови е
нь !
▁случа ях,
▁по вли
▁врем енно
▁за дра
▁гвар дей
▁Гля дя
▁э с
▁шут ку
▁освобо дить
▁наибо ль
▁Возду х
▁засты л
▁родите лей,
▁поло же
шен .
▁част енько
▁Про блем
▁ред кие
▁вздох нул,
▁за гро
▁бра та.
ь ю.
▁спраши вать
▁К ел
а ппара
н га
▁вы зов
▁отвер нулся
▁идет .
▁стару шка
ка й
▁стол б
▁вер те
▁Совет а
▁без лю
▁Сю да
▁пи ани
▁многи ми
▁дожида ясь
▁требу ют
▁но сили
▁с жимая
▁похо жим
ст ник
тель ство,
жд ению
▁за коло
н ке.
▁на да
▁степени ,
▁гвоз ди
▁Пав ла
▁защи щать
▁Ника к
▁доми к
▁мало -
▁заме чал
▁об меня
нно -
▁сово куп
▁рез кий
ic h
▁скажи те,
ст рий
щее ся
ж ем.
▁бли ста
▁лете ли
д ка.
▁со вра
▁ви дал
▁Нет -
▁прочита ть
▁вы дал
▁Ми нут
▁быстре е.
▁смер тельно
▁заво пил
▁ду ха,
▁прикры л
▁при сту
▁Тол па
▁народ .
ня лась
▁кор м
▁це лыми
▁хоч ется.
та -
▁обо чи
т ета
▁Ю ра
▁выходи т,
▁приним али
▁созна ния.
▁э ваку
▁пу стую
▁изда ния
▁сем е
▁кня же
▁ть ме
▁ми ним
▁косми ческих
ба вок
▁да вай,
▁ла дно.
▁Ста ро
ско р
но н
жден ных
▁выгля дело
у -
▁от че
ня тся
▁кресло .
▁парти за
▁побе ду
▁Ну ?
▁Кораб ль
▁моро же
фика ции
▁убеди ться,
▁размыш лял
▁кусо чки
▁кра ски
▁погла дил
▁преи спо
▁ак вари
▁отве сти
▁ск ро
▁деревя нной
▁бы вших
▁пис ала
▁i t
▁показы вали
▁ступ ени
▁функ ции
▁характер .
▁дума ют
м ся.
▁глубо кие
▁существо вании
У Т
▁составля ют
▁Ла м
▁по ют
▁А ристо
▁при ходя
▁элемен ты
▁ф лаг
да ется
нно е,
▁без до
▁сторо не,
▁дума ю.
▁ответ :
▁Петербур ге
▁сочин ений
▁зако нам
▁вра с
▁к але
сли .
▁Со зна
▁наз ем
▁5 4
де ц,
▁п р.
г г
▁ча й.
▁ро де
▁от влечь
▁ца рев
▁бо ку
▁гор ло.
ли вой
▁получа ется,
▁све жей
ко ма
▁кро вать.
▁ок ну,
▁моло ка
тельно сти,
▁ло жку
▁пар к
▁прогре сси
▁объяс нять
▁намер ения
▁ма е
▁собы тие
▁Ш ум
▁па сть
▁У чены
вани ем,
ро чка
▁по ну
шин г
▁Мо ри
▁с полз
▁гра ницу
▁Кру гом
▁поэ т,
▁мальчи ка,
▁напря жения
▁буду щей
▁кон фи
ць .
▁неправи льно
▁лоша дь,
ете сь,
▁вы стро
▁писа тель,
▁Ан ны
▁ве чный
▁помо гла
▁педаго ги
ви .
▁впере ди.
▁исти нный
▁кар ли
ня в
▁верно ?
▁Тро фи
▁Ро д
▁серьез ные
▁пе ст
▁вы слуша
▁заклю чил
▁Де ль
▁народ ного
▁При вы
▁цен у
▁француз ской
▁ди кта
▁изу чал
▁поез да
▁пользо вался
▁без бо
▁лет ел
▁собственно му
▁Каж дое
▁жи в,
то чка
▁меся ца.
▁сме х.
дите сь,
▁встал .
ни с
▁чле ном
▁сп ал,
▁На пи
щи ца
▁Са ша.
▁эк спо
▁коло дца
▁поли ция
рен ,
▁но сят
▁не кое
▁столо вые
с ала
▁спокой ной
▁Ш ей
▁по пи
ла …
▁пове сил
▁З ев
▁от пря
▁недо бро
▁слыш ала,
▁вер хов
▁пишу т
▁подборо док
▁Че стно
н . —
▁Фе о
▁Не -
▁поз вала
▁Се ли
▁глу бь
▁кон цы
▁на ви
▁у бере
▁истори ю.
▁вид я,
▁понима ют
▁безусло вно,
▁настоя щую
▁Про це
▁инопланет я
▁чест ное
▁шу м,
▁Па м
▁милли она
▁истори ческих
▁немец кого
▁возвращ ались
▁понима ешь?
▁то ль
ки вал
▁из вле
▁нале во
▁стихотвор ения
▁Вер нее,
▁совсем .
▁ладо нями
▁По нял
▁си ней
▁вся чески
▁человече ства.
ри к,
з мом
▁5 –
▁захо те
▁охо та
▁пур пу
er e
▁вол к
▁плохо го
▁про ма
▁выс ших
▁разгляды вал
▁состоя ла
▁сня ли
▁наи луч
ти л.
гры з
▁вра чи
▁о мер
▁челове ку.
ви чу
▁Ф рэн
▁вои нов
▁физи ческой
в ке
▁сказа в
▁подоб ным
▁большо му
ни сь
▁17 8
▁боя тся
▁чтобы ,
▁m a
▁смен у
▁неде ли,
бо лее
▁замети ли,
▁ф ли
▁ко кет
е …
▁по тяну
▁бо лит
▁пред води
▁ку ча
▁Лю ба
▁у пали
ти лся.
▁от кли
▁от резал
▁у скольз
▁навер ное
▁Кто ?
▁народ ной
" )
▁количество м
▁ха !
▁и ным
▁состоя нии.
▁гля дела
▁гри б
▁кив нула.
ри к.
▁д ни.
▁ди ких
▁Ка ро
▁бы !
▁ка мы
▁соби раясь
▁В В
▁отоз валась
▁Коман дир
чь им
▁ши п
▁гро мо
▁интере сы
▁луч шей
▁непо нима
▁вче ра,
▁улыб ался
▁Почему -
с сы,
▁Але ша
▁В клю
к ки
▁устави лась
▁чужо го
ника м,
▁горо жа
▁ре альной
▁артилле рий
▁недо вери
▁обо га
▁деву шки.
то графи
▁Ар ту
▁петер бург
▁спусти лись
у са
▁Врем ени
▁взаимо отно
▁красави ца
▁рыца рь
▁Ника кого
▁импе рии
▁оби жа
щи м.
▁Ку ль
▁И дите
▁деревя нные
▁горо дом
▁дума ют,
▁до ски
▁нач нется
▁то -
▁перио да
▁холо дно,
▁тре вого
не го,
фи й
▁показы вать
▁ро стом
▁орга ны
▁Необходи мо
рова но
ста ми,
▁взо ром
▁П ит
▁уви жу
▁ск воз
▁тка ни
▁поки нули
▁на во
▁ку са
▁даль ний
▁заве ду
лет ряс
▁ни ко
▁ба зе
чита ть
▁раз об
▁об щим
▁существу ет.
▁не норм
▁парти зан
▁туда -
▁с фор
▁К аль
на , —
▁оби д
ха й
▁Импера тор
▁ог ня.
ра ла
▁помни ть
▁Ки ев
▁день гами
▁веще й.
▁деся ть,
▁живот ных.
▁теперь ?
▁Вер х
▁надо б
▁посо ль
▁В нут
▁искус ства.
▁широ кую
▁Ц К
▁из дал
▁я ...
▁повер нуть
▁лег ких
▁вз мы
вал ы
▁Гер ман
▁успоко ить
▁телеви зор
▁вер нул
▁язы ка,
▁нужен .
▁у мом
га н,
▁Бил л
▁вов рем
▁Лю бой
▁близ не
▁а де
▁боль ни
▁не пра
▁се рого
▁Неу жто
▁смея ться
валось .
▁окружа ющей
ник !
" :
▁маг нит
▁уда ров
▁гре хи
▁нез ри
▁суда ры
▁исполни лось
во к.
жо к,
▁вы строи
▁Уилья м
▁ры жи
▁крепо сти
▁Пер во
▁дипло мати
▁выво ду,
▁ре вни
▁физи чески
▁вы дели
ализ м
но шу
▁под тол
▁мет ров.
▁ви ру
▁сливо чного
▁воспи ты
стер ,
▁бо лот
▁Ме ж
▁Май ор
▁соз вез
▁убий ца
▁ч ре
▁в про
▁ря до
▁Це за
▁изго тов
▁фор ме,
▁са р
шо м
▁по ступать
▁вер нулся,
▁чу жды
▁бе гут
▁а й
▁иллю стра
▁восста навли
▁сообщи ла
▁выр ваться
▁позволя ют
▁нео сторо
▁еже го
▁Малень кая
▁определен ной
▁помо гли
▁му р
▁сти ль
▁Кар ло
▁глу п
▁Ника кой
▁произо шел
▁ло ви
▁Во р
▁ино е,
▁зако нов
▁системы .
▁религи и
▁об жи
▁беззву чно
▁О дино
▁догад ался,
▁Ж ар
ри ть,
▁ши кар
▁теря я
▁про пор
▁сто ле.
▁запи ску
▁Н али
▁обра щал
▁Зем ле.
▁ й.
▁навер х.
▁дво ю
▁на хо
▁спи не.
▁Го сти
▁скло нился
n e
ж он
▁откры вать
▁ц ерк
со р
▁сверх ъесте
▁понима ете
▁до с
▁очень ,
▁скажет ,
ска ми,
▁си е
▁о .
▁костю ме
▁вообра жение
т ке,
▁за фикси
▁Рес публи
▁богат ство
▁рас строй
▁Ф рэ
▁ну -
▁С эр
▁предупре дить
у го
▁Ру сь
▁участ ников
▁са до
▁под пись
▁взрос лых
▁Сере жа
▁М АР
▁цве тов,
▁небольшо м
▁сило й.
▁запа д
▁откры в
▁подоби е
▁вер немся
▁ш вед
ны ;
▁чест но,
нар хи
▁па не
▁жи тей
▁не бе,
▁масло ,
▁Т ран
▁С му
▁шу мом
▁у пла
▁са д.
▁до су
▁Кра са
▁Ф ан
▁ле чь
▁понят но.
▁супру га
▁зачем -
▁све жи
▁истори я,
К А.
▁смыс л.
▁С ты
нь ка,
▁Наи более
▁никто ,
сти лся
▁за воро
▁шер стя
▁разы гры
▁разы гра
▁захва тить
▁мед аль
ч ало,
ко па
▁до йти
▁добра я
ри н,
▁нару жу,
▁из вин
▁сообрази л,
▁свы ше
▁се дой
л ло
ну сь,
▁усили й
▁жив ёт
▁очеред ного
▁кровь ю,
ч аль
▁г ан
▁ту мбо
▁беспо ряд
▁р  
▁Полага ю,
▁пальца ми,
▁экипа жа
▁Понима ешь,
▁s e
ле ной
▁мысле й,
▁тарел ку
▁гроз но
▁вы плы
▁из бра
ру ши
▁вскри кнула
▁изда ние
▁ос лож
▁характери зу
▁ла ке
ран ,
▁Р он
▁све том.
сто к,
▁прекра тить
▁ля з
▁по вали
▁тоск ливо
▁му чени
▁неде ле
▁Лю дови
▁Сле дует
к »
▁поцело вала
▁мел кими
▁пого да
▁Пона чалу
▁Ба тю
▁б ров
ющи й.
▁Кра со
▁сор вал
▁при ки
▁словами :
▁заня тие
ственно -
▁Зем ле,
▁полу мра
▁ника кие
▁ш т.
рова нии
▁собра ния
л ъ
▁нару ши
▁за мор
▁состоя нии,
▁обла дают
▁выс вобо
И СТ
▁одея ло
▁конец ,
▁испыты вать
▁С часть
сс -
▁лест ницы
▁Джей м
▁Ива ныч
▁жар ко
▁гу мани
на ;
▁Это  
▁крас ную
▁Зе лены
▁круп ной
▁по раз
▁3 )
▁боль ных
▁соба ки,
Н АЯ
▁отсут ствия
▁кла дет
ю ;
С .
▁заяви ла
▁приро ду
▁гром кий
▁в реди
на . —
▁ладо ни.
▁Ис че
▁са та
▁Го вор
▁пре ди
сте рои
▁коли честве
мо е,
▁внеш него
▁се рий
▁о зор
▁печа ти
▁мяг кий
▁дочь .
▁По н
▁луч шему
▁пре о
▁Ка т
п ление
▁О ска
▁люби т,
с i
▁использо вал
▁содержи мое
▁ли цем
доби е
▁доказа тельство
▁у лет
▁доку мента
да ю
те й,
▁фак ты
▁при ч
Л Я
▁Пуа ро
х ла
▁практи ке
▁Литера тур
▁наи зу
ш ение.
▁стати сти
▁подним ались
▁гор ды
▁вы ступает
со к.
ч нее,
▁мас ля
води тся
▁убеди лся,
▁До ми
▁заб в
▁вы полнен
▁С ум
▁пе лен
▁ше л,
чный .
" !
▁сту ла
▁Возь мите
▁направлении .
▁чу жим
ень ем
▁хра нить
▁краса в
▁ви но,
▁места ми
▁поя са
▁Г ЛАВА
гло т
▁II .
▁слу хи
▁При шел
▁Зна ешь
▁позна ния
▁ али
▁дере ва.
ет …
▁гла зу
▁за ряд
▁сла вы
▁За ка
▁гру н
▁Ми ть
▁заговори ла
▁откры вается
▁бро ни
▁со дей
▁сы н.
▁некото ром
▁стре ко
▁V III
▁блю до
▁ос мы
▁нат кнулся
▁поз же.
▁бу фет
▁коридо ру
▁использо вание
нови ч,
▁соба ка,
▁Бо ро
п п
▁Пос лыш
▁дина сти
▁лег ко.
ко выми
▁све том,
▁круг лый
ч ений,
▁до клады
▁По в
▁буль ва
▁хозяи н,
грам ма
▁прогу л
ме и
▁подоб ный
▁Филип п
▁спас ение
▁счет а
▁кула к
▁Джей н
▁раз бор
в енно
▁Амери ке
▁кру той
шед ших
▁Федера ции
к нет
▁ко та
▁вздо хом
▁подвер г
▁17 7
я м.
▁погру зился
йте сь.
▁Р ети
▁Не боль
▁сигаре ту
▁ю ный
со вест
▁пере ц,
▁хмы кнул
▁кап ю
▁дове лось
▁влия ния
▁с ду
▁слу шали
▁з мей
▁кровь ю.
ку …
г ги
▁Ш то
тельно стью
▁У -
▁ожида ния
сло ,
ча тые
▁Дума ешь,
▁проблем ы,
▁помощи .
▁люби мая
▁вас !
сти !
▁яви лись
▁при емы
▁руковод ством
▁вто рым
▁сза ди,
▁корот кой
▁высо кий,
▁лег кое
▁А ки
▁понрави лось
лы ми,
▁T h
▁свобо дный
▁отверсти е
▁мысля ми
▁древ ний
▁ва нной
▁пальца ми.
▁пя того
▁На цион
▁вер нее
▁Р ем
▁ги ль
▁фо кус
▁ди кий
▁бе дно
▁С ва
▁вра з
▁ду х.
д алось
▁секре т
▁отдел ения
▁осведо мился
▁во енно-
ли ла
▁востор женно
те ра,
щ ению
▁Вла ды
▁нем цев
▁наде жд
▁це лей
▁Дере в
▁Пере ста
▁галлю цина
▁Фи лосо
▁кни жки
ну !
жет .
▁Поми мо
▁при бре
▁пос мея
▁появи ться
ми ло
▁удовольстви е.
▁вски нул
▁очеред ную
▁от лу
▁от бы
▁наде жно
▁лет ний
▁теперь .
▁О ди
▁соз дали
дер .
▁Э рик
▁обо б
▁из д.
хи й
воз з
▁хочет .
▁вы !
ч енном
точ ки,
▁оке ана
▁проводи ли
▁он  
▁об ща
▁Бе дный
▁5 3
▁ракет ы
▁Ус лышав
▁Василь ев
на.  –
▁глубо кое
▁под жи
ству ю
▁взрос лые
▁вер ст
оло г
▁туск ло
▁счастли вый
▁Моро з
▁оглу ши
▁нечто ,
▁ра не
▁На р
▁вз би
▁понадоби лось
▁броса ется
▁разма хивая
▁лично сти,
▁распо зна
ж ники
▁команди ров
вра ти
чной .
▁т ети
▁та ков
вы вая
▁сму г
▁мощ ный
▁заклю чение
▁Ку зне
▁жен ы.
▁чь ей
▁обер нулся.
▁О щу
▁ус лых
▁Т ен
▁щел кнул
▁ж ё
▁К лу
▁пи лот
▁ск али
ленно м
▁тол стые
▁матери алы
▁6 ,
ди ны
▁аван тю
▁функ циони
▁у меть
▁по гро
▁м ,
▁действи я.
▁S .
▁сем ена
за х
▁не ла
▁чудови ще
▁прие хать
▁мето ды
▁су к
зе ля
▁сти ле
▁Виль гель
▁виде ,
▁пере ез
▁нес лыш
▁Ко ра
▁Те к
▁вопро сов,
▁винова то
▁счита ют,
лько м
▁са нд
▁пой му
▁надея лся
▁сим пто
пе л.
ш нем
к ались
▁оли в
щ ало
▁жела нии
▁отмет ил
▁О фици
ну та
ки я
▁полков ника
▁масло .
▁по ще
▁пес ни,
▁тру да,
▁жало ва
ру н
▁Свя то
▁Я ко
▁тер мин
▁у плы
▁ть ма
▁вои ны
▁да …
▁возник ли
▁Проща й,
▁те чет
▁бак тери
▁Вели ко
▁вд але
▁бе лье
▁определи ть,
▁рука ва
9 –
▁коль ца
прави ть
▁М г
▁ру жья
▁Пой ду
е,  –
▁100 0
▁из вили
▁коридо р.
ну т.
▁но чных
▁Не чего
сти в
▁тем ную
▁смыс ла.
▁без в
о пера
тельно му
▁встре пену
▁Ба к
фор д
▁аэрод ро
▁свое й,
▁образо ван
пет ит
ва ющиеся
▁каза ться
▁ф ронт
▁ре цен
▁5 6
▁и до
▁возмо жных
▁те л
▁ли чных
▁Мо рга
▁ту ,
▁требо вал
ю р
▁люби л,
▁сообра жения
▁тря су
2 –
▁аристо кра
▁стихотвор ение
▁на тяги
▁внутри ,
▁сама .
▁кур са
во сь
ющи м.
▁отда вать
▁броси в
чи вал
▁приз рак
▁Ч о
▁ли в
▁о й
▁его …
▁цело го
▁суще ств
▁незнако мец
▁истори я.
▁е -
вершен ство
▁зво нок.
▁мест ной
броси в
▁гражда нин
▁ку стов
▁О то
▁ш ала
▁максим ально
▁при страсти
▁беспомощ но
▁установ ки
r an
▁раз делить
▁извест но.
▁пари ж
ет е.
▁рассмея лся.
▁рас чета
▁Ре зульта
▁спра во
▁на нести
чи ков.
▁пле ч
▁Вален тин
▁раз нови
▁сотрудни ков
▁вклю чает
ди л.
ги вать
▁интер вью
▁органи зован
▁полу о
▁тяжело е
▁не мину
▁отнош ения.
▁одер жи
▁чи слу
▁про носи
▁пара зи
▁нара ста
▁экзо ти
▁ост рым
▁четвер ень
▁от то
ли вая
▁све чи
хо зя
ва юсь.
▁бы стры
▁мгнов ение,
▁От ту
▁делови то
▁га д
зу н
▁кре сла,
▁рассу ждения
▁превра тить
нный .
▁кур се
▁лоша дей,
▁вы бран
▁Влади мира
▁обы чная
▁лу чами
ва ешь,
ѣ мъ
▁оскор бля
▁бога тый
▁воло с.
▁за е
▁повторя ть
▁Церков ь
▁лу чах
▁специ альные
с , —
ка ;
▁кам нем
▁ф раз
▁бе ри
▁поро с
▁слу шала
▁иллю зи
▁нож ,
писа ть
▁Поста ра
▁пой дут
▁ког ти
▁Оста вь
▁мгнов ений
▁сторо ной
фе к
▁Э пи
▁Ми т
▁О ля
▁быть !
▁вспо миная
▁м сти
▁простран ство,
з ни
б би
▁тщет но
▁сказал ?
▁убе га
теля ми,
ва ющийся
по й,
рен ная
▁з ал.
▁або ри
▁15  
ф ля
▁напис ала
▁А г
▁сход ство
▁мя ч
▁Ж ить
) ]
▁эти м.
ти к,
▁ша ра
▁коле б
▁сра жа
▁знаком ства
▁к н.
р !
▁праз дно
▁Ф анта
▁Кузь ми
▁сме хом
▁состоя л
▁полицей ский
▁е ст
▁расту т
▁охот ник
▁мило сть
▁предме том
▁неболь ших
▁просто е
▁свали лся
▁истори ческой
▁кок тей
▁зна ний
▁Б лей
▁жен ского
▁наказа ние
ме е
щ ,
▁проис ходят
▁тяже сть
▁право сла
плен ный
▁це лой
▁должно сти
▁буты ло
▁то ской
стя х.
▁боль но,
▁Э мили
ча тся
▁ф ей
▁кварти ру.
▁я ш
вича .
▁Суще ствует
▁Север ной
▁государ ственного
▁откры тое
▁бо к,
ри ть.
▁ги бе
▁яр ким
▁про стая
▁Бра у
▁поже л
▁Бо гда
▁прежде .
▁исполни ть
▁неви да
ж ался.
▁уро ки
▁Вы ра
▁ки сти
▁Бар ба
▁ступ еня
ст ном
ень ю
▁выходи ла
▁желез ные
▁Поз воль
▁порядо к.
▁рису н
▁Кра сная
▁музы ка,
▁По та
▁Кар тер
▁Петер бурга
▁И ди,
▁чт ение
▁Стив ен
ва ешься
ве л,
▁ро ду
▁обойти сь
▁горя чим
▁тя нется
▁Ш ур
▁Си ла
▁исчез ла.
▁го сти,
▁проводи т
▁мо й.
▁Б ран
▁опу ск
▁коридо р,
▁удиви лся,
▁гля дели
▁нибудь ?
НЫ Е
▁сюда !
▁перео де
▁С праши
▁пере бе
▁Не воз
▁шка фа
▁важ нее
ере .
▁рису нок
▁Моск ву,
▁зло дей
▁раско ло
▁кра ем
▁писто лета
ё в
▁кух не,
▁го ре,
▁Дер жа
▁пред вку
▁До пусти
мо но
▁ду ху
▁вступи ть
▁помо гу
▁бук ва
х лип
▁Ба х
▁Мои се
▁вече рам
▁w h
▁вла сть,
▁надпись ю
▁холод ные
▁род ных
▁гордо сть
▁з дравству
▁по к
▁П але
▁чертов ски
▁пере дер
▁пад ения
▁служ ба
▁при жим
▁сосе дей
▁помни т
▁от ступил
▁ребен ком
▁тро их
▁О ши
▁начи сто
н тер
▁Генри х
чи вые
и гра
▁штур мо
▁Помни шь,
▁свин цо
▁сту л.
▁Ме ся
на с
▁пры ж
ли в
3 –
▁значит ?
▁завер ши
▁Академи и
▁о сь
▁бы вали
▁ю го-
▁заним ал
▁сме х,
спе ш
▁Ли дия
▁нару шение
▁бе гать
▁попа дает
та ют
в ени
▁О ри
▁позволи ла
▁ц ены
▁домаш них
▁у деля
▁спосо бы
ща ми
▁те ль
▁Ж ил
▁мона хи
▁бе ды
▁женщи ной,
▁H у
▁но вей
▁замети л.
Д Р
▁предше ствен
нов ский
ск аль
▁по страда
бо ли
ка ть.
▁ми не
▁против ник
▁ду э
▁б ерез
тан ная
▁бле с
▁дума ете
▁зажи гал
▁на вод
▁Соф ья
▁p r
▁про цвета
▁лоша ди,
▁вперё д
▁бое вые
8 –
▁пи онер
▁язы ки
▁па нци
жо м
▁ло х
▁в вести
ко сти
▁овла де
▁В -
▁Петь ка
ч алось,
▁у шей
▁голова ми
▁грудь ю
▁мо биль
▁кар дин
▁микро ско
▁пау зы
▁одет ый
▁камен ные
▁буду ,
▁ру чки
ль ской
ску ю.
▁помни те,
▁обраща ть
▁американ ской
▁с жи
▁6 2
▁ско пи
▁На дя
▁Г рин
не :
▁представля ла
ЕН Ь
▁не вест
▁ке роси
▁про ясни
▁Т ал
▁прямо уголь
▁предложи ли
▁против ника,
лан хо
▁ог рыз
▁суще ственно
▁уны ло
▁я , –
▁зрели ще
▁катастро ф
▁осо бым
ви ча,
▁уда чно
▁часто ,
▁са ма,
ль ский
▁доро г
▁гото во
▁пе ска
▁Фе дя
▁евре ев
▁обо шел
▁президен та
з д
▁свидетель ствует
▁О пера
ву д
▁реа кции
▁Пер си
▁посы пать
▁уча ствовать
▁ле п
▁жерт во
▁мужчи ну
▁вспы хнул
▁найти .
▁те пере
▁во лей
▁снего м
▁191 7
▁вол нова
▁же :
▁номер .
▁кри тери
▁ди ри
▁ви жу.
▁выгля нул
ен ный,
▁тай ной
▁вос хо
щи й.
▁шко лу.
▁подо жд
нно .
▁навстре чу.
▁четвер того
▁показ али
▁карман .
рен ными
▁руко ю
низ ма
▁принадле жат
▁Ко сти
▁мудро сть
женно м
▁бло ка
▁се л,
▁авари й
▁семи на
▁за им
▁С ки
ти т,
▁Моск ве.
▁неиз мен
▁са дов
▁прогу ли
▁холо да
▁за теря
▁э тно
▁з лые
▁ды ш
▁дверь ю,
▁распоря жении
▁бес сты
▁ви бра
▁до чка
▁фа кта
чо нок
▁это !
▁хорошо !
▁под тя
▁дура к,
У М
а вто
▁издале ка
ле у
дни ки
▁герцо г
▁зая вление
▁соци альных
же го
▁Ар но
го ри
▁двор ца
▁доста ет
▁остро ум
▁у зе
▁музы ки
▁би блей
▁бе шено
▁Ста тья
▁случа и
▁де л.
▁С вой
стер .
▁писто ле
▁постара лся
▁пре следова
▁Никола ев
▁интер пре
бе л
▁Мар та
▁сторо н,
ж ный,
▁началь ство
▁ме шало
▁Петрович ,
▁чи стая
▁тру да.
▁гро зит
▁по пе
▁утро м.
тельно сти.
ку -
▁источ ником
▁рассказы вали
▁услови й
▁добро детель
▁камер ы
▁гром ким
▁тор гу
чо м.
▁констру кции
▁пой дешь
▁опа зды
▁реда кции
▁гне ва
▁заво да
▁Д еми
▁будет !
не !
▁Совет ского
▁ска жу.
▁про вод
▁у к
▁вери ть,
визи он
▁выклю ча
▁зи ма
▁памят ник
▁Соло вь
▁тюрь ме
▁наступи т
▁ды мя
▁ки м
▁4  
ка,  –
вани ем.
▁Ч ей
ду !
х …
▁рас ку
▁леген дар
▁бро дил
▁воз дви
▁возра зила
▁вет ра.
▁ус во
▁обще ственных
▁безо би
то е,
▁лу ча
ма на,
▁лу ны
▁фон та
▁об щаться
▁Э нд
▁ор дена
▁тон ких
▁забра л
▁информа ции,
ши й.
▁обы чное
к три
▁Светла на
▁ноз дри
▁ро вным
▁тобой ?
▁зам ке
▁Ст юар
▁институ та
р ную
▁нако пи
▁суп руг
▁неза кон
ь ет
▁бра ли
▁По зна
▁са ду,
б ѣ
▁30 -
ц ет
▁окружа ющих
▁чрез мер
▁го дом
мер ы
▁По рой
▁Од ну
▁Пер вой
▁элемен тов
▁отту да,
▁су ети
▁сре дь
про ду
▁разбу дил
▁ок нах
▁малы х
▁засмея лся.
тельно сть,
▁Лейтена нт
4 –
▁отря да
▁автомоби ля
▁до бира
ва ющихся
сли во
лы е.
▁ще д
▁миро возз
▁нетерп ением
▁держи тся
и сто
▁уз кий
g e
▁лок тя
▁разре шение
▁сожал е
▁сх ема
▁неде ли.
▁уш ла.
▁зво нил
▁П лу
▁иг ри
м ля
▁благодар ность
▁приви ле
▁меся ца,
▁с пол
▁пра вая
p y
▁Ва шинг
▁лу че
▁способ ствует
▁пе чи
▁Хри ста,
А Г
▁долго й
▁ответи ли
▁инстру мент
▁ста тей
сти ческого
▁II ,
▁ф лот
▁которо й,
▁це лях
▁ко ня,
▁корреспонд ен
г аль
▁скольз нул
▁за твор
ем :
▁сфор мули
ко ман
▁наве ки
▁архите кту
▁пла кала
▁О тра
▁нау ке
▁прони зы
▁вопро су
▁американ ского
▁нау ки,
▁К ала
▁напомин ала
▁Вар ша
▁прогу ля
▁перед вига
▁Р Ф
▁нога х.
▁ ер
▁уда р,
▁Да ви
▁одновременно .
▁бе жать,
вто ри
▁вза мен
▁ка нала
ка с
▁Прости те
▁помо гут
▁чи стую
▁от рыв
▁об нима
▁К им
▁маши н,
▁у м,
▁компа нии,
▁отмети ть,
▁фар фо
хра ни
▁тем ная
▁га стро
▁силь ной
▁L e
▁центра льной
▁ищу т
▁вели кому
▁Лег ко
▁жа жда
▁е  
▁гри бы
▁расши ф
▁Кар ла
▁пол к
▁пос лали
▁Т ей
▁выкри кнул
▁при тих
▁Смотри те,
▁камен ный
▁совс ем,
▁ста до
▁пласт ма
▁каби нет,
▁озна чало
▁предлага ю
ене ц
▁нена долго
▁Муж чины
▁Поз во
ро г
▁Поз же
▁внут рь,
▁испы тать
▁дол ги
▁Мне ,
▁пунк т
▁нуж ный
▁пред ве
▁заня лся
▁связи .
▁цен зу
▁находя сь
▁чер но-
▁не сла
▁одино честве
▁гра ница
▁супру же
▁Ра но
ру ются
▁Неда вно
▁дель фи
▁рас пя
▁напомин али
щи ков,
▁ст ем
▁офицер ы
тельный .
▁использо вали
▁Ана ста
▁выстре лил
▁извест ным
▁дело м,
▁событи й.
▁суме ет
▁пы ли,
▁То ни
! ),
▁дипло ма
▁Изви ни,
▁род ные
▁офици ально
▁разви тии
▁6 -
юще го,
▁озабо ченно
▁ей -
д ный,
▁подножи я
▁Во до
▁комплек с
▁анали за
▁прият но,
▁зем летряс
▁Нор м
▁макси му
▁За по
▁Воспо мина
ча стью
▁д жа
▁откры том
▁тяже лую
▁три ум
▁у вя
фри кан
▁прикос нов
ло б
▁пе пель
▁Сне г
▁арми и.
▁во т.
▁зо опар
▁впечатл ение.
▁ак ку
▁противополож ной
▁несчаст ного
ал ки
ве ду
▁кон тек
рь мя
то ров,
ско вой
▁пере ходя
▁определен ных
▁пои ска
▁драма тур
▁сегодня шний
▁Моск ва,
▁про сили
▁сва деб
▁Всё ,
▁рассчиты вать
▁лета ть
▁упраж нение
▁мысль :
▁н ѣ
к али,
▁страш ным
▁высо кое
▁N o
▁пло хи
м ся,
▁вы вали
▁за кля
▁зна м
мо вич
▁вызы вают
▁пу стил
▁цы ган
▁замо к,
▁памя ть,
▁пере ворачи
Т Р
▁бен зи
▁тем ное
▁пе ще
д ней
▁сто п
▁Муж чи
▁рас ц
мо на
▁Бу дешь
▁плеча х
▁Дэ ви
▁ощу ща
▁про ся
▁шко лы.
▁паль цы.
▁ди кто
▁На оборо
▁в пре
▁об мо
▁содержа ния
▁чув ств.
▁надея ться,
▁пос матри
▁устрои ли
▁на са
▁даль них
о -
▁Напро тив,
чка х.
▁ска жешь,
▁Ш вейца
да йте
▁Кре п
▁ста дии
▁другу ю.
▁момен ты
▁смотре ть.
▁Вер нувшись
▁опасно сти.
▁насторо женно
▁С цена
▁разъ яс
▁су де
▁верх нюю
▁со кров
щего .
бо к,
▁фа ра
▁Каз алось
еть ,
▁вз ре
те лю.
▁запла тить
▁ситуа ции.
▁боль но.
▁ответи ть,
▁сбо ку
▁компа нию
▁во дите
мыш лен
▁проек та
▁форму ли
кну ть,
▁бе гом
▁заставля я
▁Кру п
▁Ри с.
▁майо не
▁зр ения.
▁поу доб
▁на вяз
▁ле вом
надца тый
▁зву к.
▁одет ы
▁от шат
▁связи ,
▁ко ко
▁отдел ение
▁за шла
ставля я
▁безум но
▁за води
▁Д емо
ле вой
▁ад ъютан
▁Сто ило
▁посме и
стви и,
▁вытащи ть
▁Г леб
as s
▁движ ение.
▁живо т,
▁вы си
▁рас страи
▁О бер
▁Васили я
▁про пуск
▁о ся
▁ло го
ди лось
▁площа ди,
▁мимо .
▁вс хлип
▁зако ну
▁рва нул
▁Какая -
но и
▁стреми лся
▁любез но
▁крей се
▁I X
▁боя лись
▁внеш ний
ст ал,
▁К  
▁Аль ф
▁забра лся
ч ений.
гу ля
т.  –
▁у ду
▁шеп тал
п ался
▁циф ры
т ение
▁И за
▁Андрее вич
▁по ла,
по ва
▁в ступа
▁молодо й,
▁ре же
▁при кон
▁пя та
▁внутри .
▁выз вало
чи ке
▁г ры
▁су ти,
▁Францу з
то ло
▁под ско
ни вшись
▁эле гант
▁об рет
▁неме д
▁верто лет
▁Поли цей
▁доку мент
▁оказа ть
▁камен ных
▁ново сти
▁предпри ня
▁суда рь,
▁тра кта
▁уди вления
▁Ш тир
▁Лон дон
▁ца рю
▁приобре сти
▁У мер
▁бу дни
та ть,
У Н
ни на.
р ского
▁ста я
▁повер нула
▁кня ги
▁пья ный
5 –
▁за мя
▁хочешь .
▁астро номи
▁Го голь
▁Гер цо
▁вы мо
▁косми ческого
▁п р
▁ненави сти
евич ,
▁тай на
▁Кра сный
▁ми лая,
▁с бросил
▁круг лые
▁останавли вается
▁продол жалось
▁но сом,
тель ной,
▁деви ца
с вет
▁усер дно
▁рас со
▁пос по
▁креп кий
▁На ст
▁воо душе
▁пом алу
▁тем но.
▁в ѣ
ви и
▁ка ту
▁изу ча
▁мн ение,
▁запа дной
▁чита телей
▁получ ше
… "
▁брю ки
▁Я В
▁З ла
▁будуще е,
▁преж нее
▁Ю ли
▁ли чный
та вли
▁спры гнул
▁ша пку
▁скром но
▁окли кнул
▁уль тра
▁пока жется
з ре
ЕР Т
ж ке.
▁изъ я
u re
▁мор ского
t h
▁Упраж нение
во ды
▁брез гливо
▁так т
▁и ерархи
сте ром
▁с части
▁пь ет
▁редко сть
▁жерт ва
лы ха
ль да
р ным
▁стем не
▁лично е
▁как .
▁уще ль
▁ради к
га ются
▁се ло
▁интересу ет
ё нные
пы вая
▁сухи е
▁приоб рел
▁деятельно сти,
▁в ходил
а м
▁только .
стоя ние
▁низ кий
▁дела ете
▁показа ния
▁Рус ская
▁тра вы,
▁возможно .
ми я
▁мили ции
ют ?
▁слабо сть
▁Хо чешь,
▁из на
▁А ма
▁Ро дители
лен е
▁за тормо
▁узн али,
да нт
▁про доволь
▁изви ня
▁д зе
▁у зел
▁ниж нюю
▁рассказ ал,
▁отсут ству
▁Сан кт-
▁не челове
▁ору дий
▁поез дки
т воря
▁ба на
▁лейтена нта
1 –
▁воспомина ний
▁фамили ю
▁фона ря
▁Ка та
▁Ни ц
▁вскри кнул
▁Мо з
▁поэтому ,
▁приз нал
▁бере га.
ван ными
▁примен ять
▁Ком па
▁а стерои
▁которо е,
на,  –
ни ча
▁X II
▁При нц
▁ска м
▁возвраща ясь
▁прошло е,
▁Ки е
▁но вич
рак тер
тно -
▁вы пе
▁вз вы
▁пре кло
▁государ ственных
▁Щ у
▁вызы вать
ж ным.
▁у часть
▁сыгра ть
▁не сут
▁Взя л
▁помочь ,
▁ба рон
▁бога тых
▁город ских
ш к
▁Помо ги
▁у ши.
▁нуж ные
▁принес ет
▁Гри ша
▁вто рой,
▁попо ла
▁за вел
▁гор ла
ме сти
▁пред лагал
▁сол нечно
▁губер нато
▁ру ка,
и ла
▁стра ниц
ни ц.
▁мет ров,
▁ка раб
▁собира ешься
▁ме сту,
▁молчали .
ц кой
▁служа т
▁Уа й
▁Михаи ла
▁Бе дня
▁Дире ктор
▁окру жении
▁созна тельно
▁мор ду
▁знаком ство
▁Поз дра
жа х
чи вой
▁венти ля
▁вку су
▁со твор
ле е,
▁Ин спе
».  –
▁взмах нул
▁добро жела
▁сейчас ?
Л О
ско ро
▁чему .
▁пу ли
▁сла бым
▁тем ными
▁исчеза ет
б .,
▁рит ми
▁закри чали
▁фа нати
▁разгово ров
▁чувство вала,
▁внутрен ние
то ре
▁культу ры,
▁доноси лся
▁кали бра
▁па дают
▁мыс лях
▁Ре д
▁ужас ный
▁счастли вой
▁крепо сть
▁по би
▁кон ститу
▁уг нет
▁ рен
▁П раз
▁с на.
▁обе сси
▁разгово ре
▁ко жей
ва ў
▁та я
▁6 . 
л,  –
▁чи сленно
▁туман ,
▁настоя щем
▁получи тся.
▁того .
▁принци па
▁у вери
▁такой ?
льно -
▁коман де
▁фун тов
ка нье
ру ю,
ти и,
▁поло сы
▁бутер бро
▁Са мая
жен ный,
▁да ю
▁озна коми
▁спусти ться
▁стари ка,
▁В ъ
▁ухмы ля
▁ ало
▁еги пет
▁уп ал,
▁Раз го
▁полез но
▁Пу сто
▁ва ре
▁ос вя
▁Кра й
▁публи ку
▁Сере бря
▁посмотри м,
▁свидетель ство
▁теле ско
Е Г
▁мел кой
ся га
▁суббо ту
▁двига теля
▁вы полз
▁сверх у,
▁об щую
▁пыта ться
ван .
▁четы рьмя
▁Во ск
▁Вален тина
▁ли чные
шу ю,
▁перего род
▁о чки,
▁место м
▁Не п
▁выско чила
▁каби не
▁узна в
▁у брал
▁государ ства,
ша ра
▁ком пли
ё нный
▁попо лам
▁По дро
▁Мо на
▁разре ши
но вая
▁Алексе я
▁во дку
▁бо гом
шенно м
▁сум ки
▁арми ю
шен ными
▁оста ток
▁под ход
▁пользо ва
▁с мот
▁мно ю,
▁пи тания
▁пло д
▁па пы
▁револю цион
▁за зву
▁люби тель
▁судь я
▁холод ного
▁холод ную
▁при ступа
▁кли ма
▁фа са
▁свида ния
▁само е.
▁помни шь
▁про м
▁закры тыми
за втра
▁зелены ми
a in
▁Пауза. )
▁об щие
▁А с
▁тре ск
▁одно образ
▁замол чал.
▁Благо дар
▁вос со
са х,
▁ме ща
▁един ственного
▁глубо ким
▁с мет
▁попу га
ш ли.
▁двер цу
х м
ха !
▁изу чения
▁13 .
ве л.
▁разъ я
▁кон суль
▁жел той
▁меч ,
▁воздей ствие
х та
▁рожд ения.
▁ху дой
и ны
▁п лемен
▁ма ми
▁богат ства
▁ши не
▁до ля
▁до стави
▁ра за.
▁боль ю
▁периоди чески
▁перекре ст
▁Ма ги
▁памя ть.
▁лест ница
▁Э ди
▁побы вал
чки н
▁вы чер
▁На ро
▁при кла
▁посте ль,
▁смея лся
▁встре ч
▁непро из
носи ли
▁пре мь
▁кни гах
▁Иоан н
ваете сь
▁кре дит
▁шта ба
▁С верху
▁я нта
▁буду щих
▁воро та,
▁ру сскую
▁Сен -
▁ко жи,
▁дож ди
▁карти ны,
▁от я
▁бук вами
▁А Л
▁После дняя
▁перене сти
▁ра ба
▁хозяи на.
▁Б лэ
▁Три дцать
ние :
▁забо тливо
ме д
▁пе чь
▁ува жение
▁яго ди
▁су до
▁приве дет
▁сопроти вление
▁вы летел
▁но жки
щи .
▁па сти
▁о прави
▁настоя щих
▁уда р.
▁из ле
а с
▁добро вольно
▁есть !
▁зада вать
▁столети я
▁фор му,
▁при м.
ми -
▁гнез до
▁у хода
▁пос лови
▁офице ра
▁послыш алось
ф ь
▁у ехала
▁паро ход
к ала,
жден ного
▁распо ложение
▁с ком
щ енном
▁мысль ю
▁м рак
▁энерги и.
▁при ложил
ж ений.
▁похло пал
вай ся,
▁пти ц,
▁За помни
▁невы рази
▁р том
▁Д ене
▁В Ы
▁боль нице
▁неохо тно
▁моги лу
▁вообще .
▁автобу с
▁устрои лся
д ран
▁нужно ?
▁исти нное
хо дно
▁протя гивая
ма -
▁ребе нок.
ти те,
▁Д нем
▁ша й
▁высо кими
▁не интере
▁би р
зу ме
▁поднима ясь
за цию
▁ду би
в і
▁ак ту
л ений,
▁тень .
▁одежды ,
▁подготов ки
т ала,
▁неуда ч
▁раст ений
▁ше стой
тель на
▁засмея лась
▁водо па
▁предме тов
▁На блю
а тра
▁щ ети
▁ближай шие
сы вая
ря сь
▁Ста ра
ло :
▁р э
▁по тру
▁зовут ?
▁утра м
▁нару шения
чески й,
▁О й
▁сот ню
▁У дар
пи и
▁выр валось
6 –
▁рас предел
▁робо т
▁Сол нца
▁недоум енно
▁С бор
▁снови д
▁ули цы.
▁Ж ене
▁Не ва
▁рекоменду ется
▁помо гают
▁непро ница
ще е.
▁се но
▁хозяи на,
▁к вали
▁дня ми
▁приба ви
▁канце ля
▁ди кие
ц ал
▁поцелу й
▁в вед
▁неподви жно,
▁Что  
… …
▁немец кой
▁фрон та
▁сегодня шнего
стви ю
▁нат вори
▁приста ни
▁ щет
ссе ,
▁Предста вьте
▁во пи
▁Соба ка
пе ц
▁за шеп
▁Напра сно
▁Т рое
▁го вя
▁поко сился
▁закричал :
дни ми
▁зерк але
▁пробо вал
н кой
▁оп ло
▁об ним
▁безза бо
▁Го тов
▁ме ланхо
▁Ль во
га х.
▁не вели
▁шу ма
У Ж
▁во ю
шу т
щи ка,
▁замо к.
▁поса дил
▁дерев не,
▁ли де
▁иг ры,
▁уто ми
▁бра т.
▁скор б
▁упа ков
▁похо жая
▁выз вала
▁искус стве
▁приближа ется
▁ды ши
▁непо втори
▁сосредоточ енно
▁фор ме.
▁най дешь
▁рожд ения,
▁по сто
▁зерк ало,
ли …
▁ка ча
▁Х во
▁Бо я
▁при таи
▁лю бым
▁непри ну
▁сидень е
o b
▁194 0
▁побе дить
▁На в
▁У й
▁уте ши
▁вчера шнего
▁тол ко
ст ными
▁Це лый
a u
▁в клады
▁секунд ,
▁губа х
▁дива не
▁Какое -
▁пье сы
га н.
▁От ца
▁глав ные
▁зе леная
▁несу ще
▁пере пры
ре м.
▁боти нки
п лек
▁Штир ли
▁Ж ю
▁уча ствовал
▁пис ал,
▁вол ны,
▁времена ми
▁Сем и
▁услы ши
▁у воль
▁поп ался
▁бере мен
▁прос нулась
▁нуж ным
▁доноси лись
ва емого
▁Л .,
ми г
▁характер ,
▁Судь ба
▁вор вался
▁Во вка
▁ящи ка
▁кос нулась
▁малы й
▁но сом.
▁с фо
▁появля лись
мо е.
▁сдела н
▁ра ды
▁граждан ской
▁Ра ссе
▁востор г
▁полага ется
ью -
▁испыты вает
▁гордо стью
▁ша ги.
▁Ста рая
-- -
▁15 .
▁ство ла
▁б рен
▁Никола евна
▁го стей.
▁экза мен
▁церкви .
▁опасно сти,
▁Ры ца
▁определя ется
▁повез ло.
▁Ш ут
ла гали
▁успе в
▁по прав
▁ме ча
▁уви дите
▁вы скаки
▁спуска ться
чно е,
▁посо ли
▁Са мые
▁о пор
гу б
ль ки
▁ка ков
ст ской
▁реш ение,
▁хо ром
▁мо би
▁8 -
▁губа ми,
▁о сыпа
▁Ны не
▁служи ли
▁камер у
▁шут ки
▁О кса
▁мерт вой
▁б ровь
▁за кро
шо к,
ч ко,
▁све к
▁ши ре
▁ста вил
▁то ...
▁сторо не.
▁уху д
▁быст рый
ме нов
▁С мы
▁тра ве,
▁откры тую
▁мо ля
▁у тон
до ю
▁комбине зо
▁облег ченно
▁лего нько
ну тую
▁ладо ни,
▁Комна та
чи !
▁тяже лая
▁бо жь
▁сп ере
▁организа ция
▁пое дем
▁вы чи
▁бы вшей
▁н  
▁опро ки
▁пла кал
▁наоборо т
▁случи ться
▁протя гивает
▁вско чила
▁короб ки
▁проду ктов
▁следу ющих
▁невозмути мо
▁тон не
▁съе сть
▁по ла.
нош ения
▁металли ческий
н енько
▁Э кс
▁то ном,
▁прох ри
▁пред мет,
ст рем
▁б ин
▁созда н
▁коридо ра
▁до клад
ца м.
▁но совой
▁вра га.
▁Ми ли
▁со лены
▁в ры
▁говори ,
▁колле ги
▁проти вно
▁гор ле
▁го стей,
ци н
▁р ву
▁бю джет
▁Па с
тель ные,
ня ми.
▁соста ва
▁цен тру
▁подру ги
я,  –
▁голу би
▁Н енави
▁преступ ление
▁дер зо
▁люби те
▁С ра
▁спи т,
▁Ми лли
▁доказа ть,
▁гряз ной
рисо вы
▁ин ер
▁ауди тори
ма тери
ма ну
▁порядо к,
▁собира етесь
▁ве лела
аль д
▁кри к,
▁дале кой
▁крылья ми
▁ви ну
▁вече рин
▁ла зу
б -
▁Та к.
▁деятельно сти.
▁Д ин
плен ные
▁ры нке
з му
▁поко си
▁виде .
▁с д
▁Неда ром
▁пото лка
▁го сти.
▁ли дер
▁золо тая
▁поп ало
▁фа со
▁навер ня
▁слыш ен
▁твер ды
▁труд нее
▁проходи ла
▁бы …
▁Тет я
ски х.
▁отре аги
▁Ра спо
ш ко.
▁дви г
▁об щение
▁на -
▁одно класс
▁мест ,
▁ста ры
▁б ало
▁кал i
▁а !
▁Невоз можно
▁Ро м
▁ме шка
▁при жалась
▁ран него
▁бес сле
ст е,
▁ухмыль нулся
▁вок зал
▁рассказы вал,
▁Коро лева
▁вер нулся.
▁стран ных
▁оце пен
▁примен ение
▁ска жем
и зо
▁пи ть,
▁мо ста
це -
▁ко бу
▁И ду
▁бе жать.
▁Ну …
▁п p
пы та
▁тем ного
м ;
▁яз ви
▁потя нулась
ни м,
▁карто фель
ке !
▁тол стой
▁высо вы
▁пред ложен
▁з вание
▁Мар се
▁ть мы
по к,
▁гото в.
ло у
▁руба шку
▁Ш ве
▁в ален
▁ю би
вля ть
▁При гото
▁разли чными
▁чи стом
▁Бори со
▁выдер жать
▁уда рить
▁пол на
▁тюрь мы
▁совет ские
▁мужи к,
стя м,
▁художе ственной
р ѣ
" ).
ве е,
▁вся кому
▁авто ром
▁5 7
▁покой ного
▁ком про
▁P .
▁ки нул
ци ан
▁прекрас ных
▁учени ков
▁песо к,
р г
вши е,
▁спасибо .
▁жиз ненно
▁Я сно,
ет у
▁тех ника
▁ла зер
▁л ба
▁любо в
▁пря ча
▁Ав стра
▁ост алось,
си к
ри н.
▁вцепи лся
▁быст рым
▁трени ров
▁ПЕР В
гну л,
▁от мени
ко ве
ка ть,
▁Стра х
лен ными
▁Люд мила
▁СССР ,
чи ку
▁нач ер
▁Ис пу
▁нас ?
▁посо би
▁вы реза
▁Я на
▁специ альных
▁вели чество
▁пор ту
▁лам пы
▁охо ту
▁но чные
▁ли си
▁И шь
▁бой ся,
▁во ли,
н с
▁Ро т
ди м,
▁покон чить
▁де кла
▁кабинет .
▁уст ала
▁похо ло
▁е дят
▁По мол
▁смотри те
ней шего
▁след ствие
▁А га.
▁Не кра
▁фона рь
▁произ водит
▁жерт вой
ла я.
▁внеш них
▁лет ят
▁но го
▁живот ного
и ска
▁ма нья
▁Х ил
▁измен ение
▁промол вил
▁дья вол
▁во льно
▁случай но,
▁получи лся
▁палу бе
▁прокля тый
▁почему .
рин г
f f
▁при му
▁необъ ят
▁Не сомненно
▁на ходят
▁круг ло
ж ор
м б
де ли,
▁восем надцать
▁которо го,
▁Джу ли
▁собствен ная
до го
▁вы кра
▁в пу
▁привы чка
▁a s
▁недви жи
▁вы сказа
▁К рей
▁неболь шими
▁неве ста
▁зави с
лер ,
▁авто ра.
ь ер
▁ме чом
▁жи л,
▁про заи
▁рак ета
▁деву шку.
▁знако мого
▁возра жа
ди тся,
▁по ра.
▁прокри чал
▁поль зы
тер ы
▁любопыт ство
че ва
те ка
▁XI V
▁Э ле
▁мальчи ки
▁совер шать
▁неожиданно сти
▁суме ли
▁посте ль.
те ра.
▁гло ток
▁w as
▁жел това
▁Ос вобо
▁Ар с
▁то чке
▁одно зна
сь ка
▁следу ет.
▁приспо со
га !
▁Мар ко
▁ры жий
▁при лага
▁си дит,
▁я е
▁уничто жи
▁зву ка
Д А
▁Ла за
▁верси и
▁язы ком,
шо к.
▁при хода
l y
▁с глот
▁розо вый
▁тяже сти
▁г ала
▁забы л.
сь те
▁тело м.
»  —
нер ,
▁жизни ?
▁н . 
▁ответственно сти
▁по чувству
▁запя сть
▁тем ным
▁мусуль ман
▁дости гает
▁удиви тельно,
▁У от
ё нных
▁напа да
▁писа ть,
▁Ку ли
Н К
▁прихо жу
▁владе лец
▁кру жку
▁п тен
▁хо р
▁ско ти
▁ко стей
▁исчез ,
▁ви дать,
▁О ке
▁близ ко.
▁поды ма
▁напо добие
▁над вига
▁обла ка,
▁марси ан
▁игру ше
▁возможно стей
▁сло жные
ла ся
чи ну
▁го р,
▁нер вной
i p
▁цара пи
шед шие
▁си бир
▁приго р
▁ответи ть.
▁бума ж
▁немец кие
▁сто н
▁нес части
▁сколько -
▁наро ды
▁обре сти
▁откры тый
▁Ост ров
▁нужно е
▁По е
▁Ми ра
▁фур го
▁выклю чил
▁сере бра
▁сен ти
▁помо ги
▁глубо кого
▁Ни кому
▁же ной,
▁тепло м
▁Продол жа
▁кварти ре,
▁преу спе
▁ба бка
▁a r
▁при ко
▁практи ку
▁полити ки
▁оты скал
▁ко ни
▁авто ру
▁оп пози
▁знач ение.
▁Иван ,
к те
▁От пусти
▁голу быми
▁купи ла
▁хо дь
▁Анге л
▁ты к
ха ет
▁из мо
▁табу ре
дни ка
▁ди кой
▁чу жую
▁ку да,
▁пришел .
▁С аль
то чный
▁По гля
▁зару бе
▁женщи не,
▁что ? —
▁было …
т али,
▁с фе
▁вызы вали
▁дивизи и
▁обращ ался
▁спе шил
▁такой .
У Л
▁е д
ля ют
ты вается
▁винова т,
▁контро ля
▁обстоя тельство
▁коро тки
▁из об
ско в,
▁з ной
▁поворачи вается
▁ло р
▁лег ли
то вым
▁повез ло,
кну ла,
▁Говори т
▁лекар ства
▁К АР
де к
▁ста рей
▁страш ную
▁Кор не
▁Г рэ
▁золо тым
▁5 8
▁шест надцать
▁опу ская
▁Мер ку
но ма
▁дело м.
▁Я бло
▁утвержда ть,
▁Андре й,
▁сы нок,
▁при дать
▁сумасшед ший
▁бе гал
▁фло та
▁про дал
▁пластма ссо
on d
▁высо ту
▁Неме дленно
▁ды шит
▁не кая
▁стоя вший
во н
▁под пис
▁литерату ры,
▁ск важи
▁нра вятся
▁бе седа
▁челове ческую
▁жени ть
▁от вар
▁доро га,
▁нечая нно
▁ше стер
▁ко ней
▁обор вал
▁Со ве
▁А !
▁сани тар
▁напомин ало
▁свет лый
▁Повто ря
▁з ла,
▁6 3
▁тер за
▁недоста ток
▁Вол к
▁сю рту
▁верну вшись
▁пар ши
▁Д ре
▁хра нили
▁да нным
▁ма ка
▁живо те
▁поворо т
▁совет ский
то ры,
▁нез доро
▁По явля
бе к
" ;
▁ЯВ ЛЕНИЕ
▁лю к
▁N e
▁чьи -
▁на стал
▁выбра ли
▁прости ть
▁разобра ть
▁поче сал
▁успоко ил
▁С ент
но вого
es ,
▁сдела ем
▁разд ались
▁захлоп нул
▁предприя тия
▁ша ги,
т э
▁треть ю
▁уточ нил
▁отклик нулся
▁гу стые
▁мяг ким
▁под писы
▁огром ном
▁м м.
▁карти не
▁брови ,
▁же ной.
▁скры лась
▁блестя щие
▁запа ха
▁бо жи
▁Исто ри
▁10 –
▁" ...
▁заго тов
▁О дной
▁Зна мен
▁свети ль
бу с
▁бед ного
▁потребу ется
▁Вся кий
▁дей ствуют
▁рассказ е
▁умира ет
▁У би
▁наста вни
▁Любо пыт
▁под ружи
▁соба к,
ди лся,
▁ту пы
▁Ле том
7 –
зи лась
▁а нархи
▁холо дно.
сто -
▁За ба
▁сле до
ра -
▁6 4
щи ком
▁зве рей
▁прият но.
▁уго л.
▁вла стью
▁М ра
o .
тель ством
▁человек ?
▁граду сов
▁кон чик
зиа т
▁разгля дел
▁умира ть
▁а спи
▁рассказ ,
▁тон кую
▁з ло,
▁мн ѣ
▁цивили зован
▁мужчи ны.
▁пол ку
теля ми.
тель ного,
▁моги лы
▁ры нок
▁спроси ли
не шь,
ри на,
цо ва
▁человече ства,
ў шы
▁слад кий
▁сре де
▁ме до
▁плечо м
▁моло ка,
▁оста нутся
▁Фри дри
▁вышло .
▁Госпо да,
▁написа на
▁лом ти
▁це ной
▁говори м
в на
▁сердца х
▁тех нику
▁сы рой
▁г ит
▁дро ва
▁присл ал
▁нару шил
ф у,
▁солнеч ные
▁стало ,
ва ющими
▁Фи зи
ва вшего
▁гу би
▁бь ют
▁пь ют
▁молодо му
▁мет ра
▁Чер ны
ник ?
ст но.
▁Го ры
▁постро й
▁кон стати
▁Рус ские
▁продолжа ют
▁с гла
▁Семе нов
▁вз мет
▁полно чь
▁Я вление
то вая
от ланд
▁внутрен нее
▁молчи т.
▁П э
ч ена.
▁пу стить
▁С Л
▁прият ный
▁тиши ну
▁ост альным
▁раз дела
▁рассматри вая
▁6 1
▁встреча ться
▁одино ко
▁Па па,
▁бе тон
▁ви дом,
▁ге рое
▁грави та
▁законо мер
▁поговори ть.
зи в
ОГ О
гра мот
ви тся
т ти
▁маши на.
л кой
▁ра ста
▁ду ха.
▁сум ере
▁Навер няка
▁компа нии.
в,  —
▁веду щей
ню хи
▁фото аппара
▁пов сю
▁Б ит
рован но
▁Бил ли
▁огля делся
▁при нца
▁возмо жным
▁определ ение
▁ст аль
▁круп ными
▁цвет ы.
▁14 .
ме ся
▁Дени с
▁живо т.
▁Зна ю
▁х воро
▁прищу ри
ж ливо
▁Это й
▁Ка мен
▁Ты  
▁Ска жу
нен ной
▁З ал
▁Бо жий
▁туф ли
▁что :
ж ным,
▁свои х,
во ла
▁глав ную
▁ску ча
пи я
▁солда та
одо ли
▁A l
▁а фрикан
▁заклю чен
мо вер
▁гля дя,
е кто
ну тым
▁сме ха
▁режи ме
▁стена ми
▁7 -
▁по лег
▁ко сти,
▁бит вы
▁г ений
▁Анд ро
р эй
▁сред нем
▁загля нула
▁Вале рий
▁гор ло,
▁ника кая
▁оста нусь
▁од ну,
▁мол ние
▁в бе
▁за долго
▁руко пись
▁раз влека
▁ис ся
▁стихи й
▁ф лан
▁191 8
▁Золо той
▁млад шего
▁вопро сов.
т це
▁ки но,
▁Коро т
▁ )
▁метал ла
▁ум рет
▁мне …
з м.
▁крас ном
at e
▁Коро ле
▁газет ы,
▁К ит
▁от чи
▁Ма у
▁обра щение
▁места х.
▁Не го
▁Внут рен
▁занима ются
▁Бе к
ч ением,
▁Моск ву.
х ля
ва вшийся
▁замеча тельный
▁кос мети
▁стан ции,
▁шко ле.
▁приходи ло
▁ча ю
▁об щая
на ть
И Г
▁пере ки
▁нео пределен
▁ле ка
ну тая
▁батю шка,
▁тра ву,
▁Сто лько
▁со шли
▁ла сто
▁кро т
▁рассвет е
▁нев реди
▁ки о
▁пра х
▁вы мол
▁пере шла
▁лу к,
▁10 -
▁p у
▁про скольз
▁от пры
▁об мени
нен ных
▁ждал .
▁счастли вым
▁дре сси
▁Но вые
▁зад ние
▁чи стым
▁тво ему,
▁вслу ши
▁батю шка
▁времен ем,
д д
т ке.
▁ухо .
▁стра хе
▁одоб ря
▁конц ерт
вани ю.
▁глупо сти
▁ап петит
▁w ith
▁пере жить
▁Бу к
▁замеча тельно
че ствен
▁производи ть
У .
▁о той
▁медве дя
▁я кi
▁дете ктив
▁на жима
▁вклю чить
▁яр ких
та я.
▁телефон ,
▁стра не.
▁пред ки
▁под кре
▁мета физи
тель ная,
▁предъ яви
▁похо рон
глу бь
▁пусты ми
▁тюрь му
▁исследова ний
ст -
▁лу жи
▁обита телей
▁ла нд
▁Вась ка
▁ар бу
▁Чере па
▁мол чал
▁руб лей,
гря з
▁На чало
▁посмотре в
▁подо брал
ё те
▁си них
▁нес рав
▁пистолет .
▁за пуска
▁дале ких
▁вла д
▁абстра кт
▁Ма ша.
▁е дем
▁ю вели
▁женщи ну.
▁бук ет
▁норм ально.
▁цвет ,
▁потреб ности
▁семей ства
▁го во
▁ал юми
▁элемен т
▁побе да
▁забо ты
▁выстре л
▁кру ги
зво нил
▁движ ений
▁проявля ется
та ра
▁Ло ги
▁впра во
▁Д ур
▁мор да
▁пересе к
▁скор лу
▁понял :
▁кри мин
▁неё ,
▁си нем
▁насторо жи
лесо образ
▁об вини
▁хозяи ном
▁тон кая
▁Медве дь
▁Пси хо
жи вать
▁пред рассу
▁зна мена
▁про бур
▁усо мни
▁предпо чел
▁кор не
▁жерт в
▁измени л
▁пронзи тельно
▁лет ?
▁славя н
▁Е ва
▁клу ба
▁мол нии
▁ост ри
▁о ки
▁ста вят
▁пи том
▁позволи ли
▁гряз ные
ло сти
▁ку ря
ги стри
▁это  
▁обо ль
▁вле во
пу ти
▁чита ть,
▁от дала
▁заво де
▁с жала
сть :
▁национ альной
▁прислуши ваясь
▁голо су
▁за мер,
си ст
чных ,
▁А ку
▁Май кл
▁за писал
▁сен са
▁наря ду
▁расс мотре
▁про мах
▁Ва м,
▁болез ни.
▁показы вает,
▁тяже ло,
▁смыс л,
▁Иванови ч.
▁уби т
же ле
▁встре чали
▁отсут ствии
о па
▁так , —
▁подели ться
▁одино чество
▁секунд .
▁ст вор
▁вели ча
▁Един ственное,
▁мо рем
▁мер зо
▁фено мен
▁жизнь ?
▁пере воро
▁при жимая
▁шер сть
▁всем огу
▁ш мы
лета ют
тся …
▁соблаз ни
▁хво ста
▁опера ция
▁км /
▁Помни те,
▁родите лей.
▁пы х
▁ча шу
ча той
▁разра баты
▁се рая
▁Зи г
▁бере зо
▁Си дя
▁пре сти
▁по шел,
▁вести бю
▁микро фон
▁иг ры.
▁имени ,
▁ла вро
▁кора бель
▁брез ен
род ной
▁карь ер
▁яр мар
са ?
▁поже лал
▁поме сти
▁нау ш
▁ви тами
▁груп пи
▁се ром
▁мало й
лась ?
▁необходимо е
▁карма ны
▁эта п
▁свадь бы
▁за ходил
▁Фран ции,
▁дела ми
ли вых
▁меся цев.
▁видела .
ж ников
▁обо им
па ют
▁Свя щен
▁слуш ал,
▁пов стре
▁фир ма
▁мо ты
▁завтра к
м п
▁почти тельно
▁сп ал.
▁со шла
▁сообра жа
▁Х леб
▁парти я
▁до ложи
▁Паль цы
▁не жный
2 )
▁добро совест
▁ощу пь
▁опять -
▁появля ться
▁пред ков
▁ка мени
▁пошел .
▁Па ша
▁Куда ?
нал .
щи те
▁дере во.
▁объясни ла
ро вал,
▁спи на
▁Достоев ского
▁про сып
▁бес це
ке …
▁го лые
▁В по
хо з
СК ИЙ
▁Ко лу
лер .
▁не жные
▁полити ческие
▁Ё н
▁Отту да
е ва.
▁s h
▁кли ент
▁опо зна
▁буд ди
▁хвата ет.
▁оби женно
▁193 9
▁про со
▁цве тов.
▁За ви
▁призна к
мо го,
▁лагер я
▁писа ть.
▁цвет .
▁у рав
▁челове ко
▁раз лете
▁вес ны
▁пре зи
▁луч шая
га да
▁язы ка.
▁H e
Е П
▁га с
▁шле п
▁найдет е
▁система ти
ро га
▁дела ешь?
▁пога с
▁Да ма
▁бес цвет
▁желез ный
▁привы чке
▁поряд ком
▁сосед него
т ный,
▁да ве
▁вы ма
вет ,
▁Ком му
ва емая
▁категори чески
▁глаз ки
▁челове ке,
▁Воло сы
▁люби мым
▁заго ра
▁скал ы,
▁жан дар
▁кварти ры,
▁пользу ясь
▁вери л,
ро на
▁Б ю
▁компью тера
▁из воли
▁краси вых
▁инстру к
▁как !
▁ненави жу
▁пар ней
ста ть
▁учени к
▁худо ща
о ном
шки на
▁Ве чно
▁свире по
▁оста вь
▁Че хо
▁седь мой
▁побе дите
пере да
лы б
▁в глубь
▁наверх у,
▁рас пря
▁от ш
▁существо вало
▁оби делся
▁культу ра
▁от вед
▁вы йдя
▁требо вать
▁Э с
▁наго то
▁ле кции
▁обу чения
▁неу держи
▁не ск
▁сомне ваюсь,
▁М эн
▁мяг кие
▁мель чай
▁повто р
▁выясни ть
▁г нет
▁Да рь
▁моло дую
▁вз ду
▁О ч
▁гимна зи
▁се л.
▁З ря
▁на ци
▁И а
▁держа т
us t
сли сь
▁вы пал
ри ю,
▁под ала
▁лепе ст
▁ос мот
▁Запа дной
▁информа ции.
▁Она .
▁бле дный
води ла
▁Кля нусь
▁p ro
▁мо я.
▁ни ть
▁размер ы
▁спокой ным
▁сте с
▁получи те
▁я на
▁не глу
чески е,
жу тся
▁джу н
▁ша гами
▁угрожа юще
да :
рез али
▁про ведения
▁Ви но
▁да ется
▁прият ное
▁четы ре,
▁ку шет
▁рус скому
▁сохра нять
▁зем лей,
▁Спра ва
▁си нь
м ем
▁чисто е
▁6 6
▁бал ла
▁род ная
▁мо рю
▁жен у.
▁ат ла
▁пред писа
▁Смотри т
▁D e
… >
ты вали
▁положении ,
ство !
вол нов
▁ста нем
▁опя ть,
▁ско т
ван но
▁тя ну
▁уви дал
▁П ОЛ
▁ким мери
▁Расска жи
▁бессо н
▁ост ально
вля л
▁нали чии
▁све жие
▁п лит
▁у хом
▁справедливо сти
▁замол чал,
▁У эй
▁дево чки,
▁сле дом.
▁Госпо жа
мах ер
▁обе споко
не су
нин г
▁улыб ка.
▁Н я
▁револю ция
▁Худо жник
▁провери ть,
ча того
че ства,
▁тру дя
▁возоб нови
▁пы ль,
▁говоря т.
▁До чь
▁со стяза
▁заз вене
ЕН ИЯ
▁Чув ство
вани ю,
▁ще ли
▁упал .
▁деле га
▁  –
▁соеди ня
▁обра баты
▁Ме ли
▁объяс няет
▁за трудни
▁Р аль
▁тихо й
▁уме ла
сь ю
▁долла ров,
▁лиш ним
▁Го вар
вно ве
▁Б лю
ма г
▁ав стрий
вого .
▁на ез
▁на вис
▁ru /
▁Гого ля
▁рас хажи
▁сла вный
▁мало го
▁тре п
▁понрави лся
▁в ставля
▁недол го.
▁Лор ен
▁Ли чно
▁коню ш
▁уму дри
▁у зор
▁дур но
▁позволя л
▁оконча нии
▁куда ?
▁иде ал
▁пре обла
▁гла дко
▁За бо
▁ки с
▁вытащи ла
▁Слу чай
▁ле вая
▁страница х
▁гре хов
▁Катя .
▁деву шкой
ст аль
▁устави лись
▁воспомина ние
▁д pу
▁ло ску
▁Д жин
▁состоя ние.
е но
за м
▁ото ро
▁определен ного
тесь !
▁по ди
▁це лым
▁скри пу
▁жест ко
▁по летели
▁деревни ,
▁Вра ч
▁Ро у
▁ре фор
▁охва тило
▁Евг ения
▁си ю
▁окружи ли
▁позвоно ч
▁вла дения
▁чет вёр
▁старо мо
▁губа м
▁д ало
▁a m
▁кри чат
▁Карти на
▁счит ала
▁исти на
▁значи тельной
▁в тя
▁qu e
▁утвержда ет,
▁ле в
▁яв ственно
и ?
▁поме шать
▁вы жида
▁при вер
▁вой на.
ству ющий
▁А ре
▁самолет ы
▁вы нести
▁кре сто
▁пове ла
▁солнеч ных
▁хоро шем
ком па
ла кти
▁ис полнение
▁внутрен не
ру ющие
ю зеля
▁ужа с,
▁Да ша
▁об стре
▁мужчи н.
▁экспери мента
▁зн ала.
▁пы ли.
▁нас мер
▁К Р
▁ре шает
▁мор ские
▁ущер б
ча в,
▁смея лись
▁стара ются
стре е
▁дво ре.
▁лох мо
▁по тяги
▁зна ния,
▁истори ческого
▁скры вается
▁нево образи
▁у дра
▁акку муля
▁от вали
▁гото вые
ва емое
▁Го ра
▁ло жа
▁бро шю
▁сме шать
▁вспомни в
▁смо рщи
▁литератур ных
▁ва нную
▁ку рил
се й,
▁пусты х
▁заня ли
▁ост рыми
▁ува жения
▁спу стя,
▁О пыт
▁забо титься
▁Та и
▁охра ны
ру ющий
▁самоле тов
▁доб ром
▁от чу
▁от меча
▁пере воз
▁уходи ла
▁начал у
▁меся цев,
▁боле е.
▁отвечает :
▁вздох нула.
▁Дру гая
▁ка сс
ша ю
▁раз воро
▁пи ть.
▁жи ви
ал -
▁Су да
▁6 00
▁похо рони
▁норм альный
▁да нное
▁у сил
вши х,
▁сочин ения
▁дела ем
▁поро ю
▁об ша
▁раство ри
▁бы ў
▁приез жа
▁сколь зя
▁ужа с.
▁тро нул
▁ми ру,
▁ис ступ
▁па пу
▁зна ете?
▁най дут
▁нев з
▁Кар то
▁пла ти
▁друзь я.
▁сза ди.
▁Ч ин
▁оби ды
▁улыб нулась,
▁ф из
▁которы х,
▁глубо кую
▁A n
ски е.
ту ар
▁спраши вала
▁тепло .
▁пле ск
▁тер пели
▁ма нера
▁ре ке,
ли н,
▁тол сто
та ясь
▁хле ба.
пу ю
▁бед ная
▁оборо ны
▁выда вил
▁говори шь?
▁до ложил
▁Са ша,
▁Ю рь
▁ба зы
▁сла бые
▁вообра жении
▁измени лось.
▁значи т.
▁захва тил
▁А дри
ка ».
ни кова
о л
чная .
▁малы ша
▁упа сть
▁спло шной
▁в тяги
▁на ва
▁спря та
▁трол лей
▁под скочил
▁возра зи
▁Доб рое
▁монасты рь
▁целу ет
▁солнеч ного
▁нуж ны.
▁пан си
▁ныр нул
▁ве шал
▁в пал
▁стран ную
! …
▁сооб щает
▁ть му
▁Ми ла
▁Интер нет
ч ков,
▁США ,
▁под талки
[...]
